Ġ t
h e
Ġ a
Ġ s
Ġ w
n d
Ġt he
e d
Ġ b
Ġt o
Ġa nd
Ġ h
Ġ f
i n
Ġ T
Ġw a
r e
i t
o u
Ġ l
Ġ d
Ġ c
Ġ p
a y
Ġ m
e r
Ġwa s
o m
ĠT he
Ġ he
i s
a r
Ġ n
i m
o n
Ġs a
i d
l l
Ġh a
Ġ g
a t
Ġ S
in g
o t
e n
a n
l e
o r
i r
a m
e t
Ġ H
Ġ it
Ġt h
i g
ĠThe y
Ġ in
i l
Ġp l
ĠH e
Ġ "
o w
v er
r i
u t
Ġb e
Ġ u
Ġsa id
Ġpl ay
it h
Ġd ay
Ġw ith
p p
O n
Ġ o
Ġ y
o o
k ed
Ġ r
Ġhe r
c e
Ġ I
ĠS he
l d
ĠT im
Ġh is
Ġs t
k e
Ġ e
Ġb ig
n t
c k
Ġy ou
ver y
s t
v e
e nd
Ġ on
u n
Ġha pp
ri end
Ġf riend
a ll
il y
Ġ L
Ġthe y
Ġw e
Ġha d
Ġn ot
Ġl i
Ġu p
he r
Ġwa nt
Ġo f
a d
it t
s e
Ġ B
Ġd o
Ġhapp y
en t
Ġ very
Ġ M
e s
Ġth at
Ġsa w
On e
' s
ou ld
Ġm om
Ġf or
Ġs h
itt le
Ġl ittle
Ġs o
Ġs he
c h
im e
Ġn e
Ġn am
. "
Ġt ime
Ġ k
ou nd
Ġthe re
Ġnam ed
Ġs m
Ġb o
Ġwe re
ĠL ily
Ġwant ed
Ġb ut
ou t
T he
Ġfriend s
v ed
! "
h t
ĠT om
ir d
e l
Ġb ird
a l
Ġa n
a ke
Ġto o
om e
ĠI t
u g
id e
Ġw ent
Ġw h
Ġhe l
On ce
Ġ is
Ġa ll
Ġhel p
u e
Ġl oo
Ġl o
t er
Ġ A
Ġup on
r y
o re
i nd
Ġf un
g et
Ġto y
i ll
am e
Ġa s
Ġa t
r a
Ġ j
Ġd id
get her
Ġ re
u r
Ġs e
Ġto gether
a ck
Ġc at
l y
Ġt re
oo d
i c
t ed
Ġdo g
Ġc ould
Ġc an
Ġthe ir
ar d
e c
ar k
Ġg ir
Ġplay ed
Ġh im
Ġb all
? "
Ġgir l
w ay
Ġr o
Ġg o
he d
m y
Ġa re
Ġ out
Ġl e
Ġf r
a in
Ġk n
he n
Ġthe m
u m
' t
a x
Ġsa d
u l
Ġbo y
Ġtre e
ot her
Ġha ve
Ġm an
Ġc l
Ġlo ved
Ġloo ked
ou g
Ġf ound
Ġs p
Ġst ar
ĠS ue
on e
h ing
Ġs c
Ġb ack
ow n
ĠM ax
a re
Ġli ke
f ul
s ide
Ġm e
Ġbe c
Ġp ark
ig ht
on g
Ġc ar
o p
el t
Ġ One
Ġli ked
Ġw ould
Ġm ake
r ound
Ġl a
Ġf a
Ġf elt
Y ou
Ġ W
e ll
Ġse e
ĠB ut
om et
Ġas ked
a g
Ġne w
Ġn o
i ce
ĠS am
ou se
Ġstar ted
ar ed
Ġc ame
ĠB en
Ġa l
Ġ other
oug ht
il ed
Ġs omet
Ġa g
Ġg ood
Ġsm all
s s
Ġb r
Ġsm iled
Ġs ay
ri ed
ad e
ing s
o b
p ot
Ġw or
Ġf ind
Ġe x
i a
Ġa way
t y
Ġp ut
Ġwh at
Ġsomet hing
Ġc o
Ġfr om
Ġm ade
Ġth ought
en ed
Ġh ome
Ġplay ing
oo k
Ġe very
Ġwa l
Ġm u
u c
a ch
ar n
ĠS pot
Ġr an
i le
Ġ F
i e
Ġ J
a ve
Ġag ain
Ġs ome
Ġla ug
d d
Ġh ouse
Ġd own
Ġf l
k ing
Ġtoo k
Ġsc ared
Ġp r
n y
u re
Ġtoy s
Ġle arn
Ġ You
i f
Ġw ill
Ġbo x
i ck
re t
a b
e p
Ġm y
Ġa round
Ġth ings
Ġyou r
ou d
Ġb l
u ck
Ġw hen
is h
Ġli ved
Ġf e
Ġthe n
Ġs un
a s
Ġs w
, "
Ġc h
u s
pp ed
Ġa b
ĠM ia
an k
Ġg et
uc y
T im
um p
T h
Ġl ot
is t
ot h
Ġt ried
a p
Ġkn ow
Ġsay s
Ġg ot
it ed
Ġwh o
Ġkn e
u st
Ġman y
nd er
Ġin t
Ġab out
L ily
Ġp ret
Ġd ec
Ġan y
Ġr ed
Ġ D
i ve
Ġkne w
a ce
ou s
Ġm ore
is e
Ġc are
all y
Ġp ic
a u
q u
Ġh ug
ĠL ucy
Ġlearn ed
Ġp o
Ġwa ter
f ter
Ġ v
Ġbec ame
Ġbe st
au se
Ġo p
Ġg re
Ġex c
ur p
way s
â Ģ
Ġout side
Ġlaug hed
Ġloo k
Ġal ways
Ġdec id
Ġsh ow
Ġu n
an t
ĠB ob
Ġro om
f e
Ġdecid ed
Ġh o
Ġbec ause
ĠS o
Ġint o
Ġe at
it e
Ġj ump
ĠA nd
Ġp e
Ġb oth
er s
ĠM om
Ġd ad
The y
u dd
Ġ ke
Ġon e
n n
Ġth is
Ġexc ited
Ġfa st
Ġn ice
Ġ E
Ġfe el
T om
Y es
Ġr un
Ġl ong
Ġto ld
Ġs k
Ġa m
urp r
ou r
Ġin side
u ll
Ġt r
Ġs urpr
Ġm o
in k
Ġpret ty
in y
Ġs or
W h
Ġt ake
o g
Ġs l
Ġe ach
Ġg ave
Ġmu ch
Ġg ra
le w
nn a
Ġro ck
Ġh ow
Ġst r
ar a
im al
Ġan imal
g ed
Ġne ed
Ġth an
B ut
v en
et ter
Ġto w
Ġ or
Ġ C
Ġu nder
es s
Ġo ld
Ġsor ry
g e
is ed
r o
ur t
Ġc le
Ġf ish
Ġwal ked
Ġcl o
a nd
Ġbe ar
f t
a se
a st
Ġha nd
ur n
ĠW e
Ġk ind
ĠH is
Ġt e
he re
Ġhapp ened
Ġj ust
Ġfl ow
Ġf ood
Ġl ist
Ġdid n
Ġanimal s
Ġh ig
p l
Ġne ar
Ġwa t
Ġ ide
Ġt ry
c hed
Ġsk y
in e
Ġs n
v ing
Ġf i
r om
Ġu s
Ġide a
Ġb etter
ĠA my
Ġb ug
Ġhe ard
g ry
Ġit s
Ġt w
Ġl et
p ec
at e
ab le
f f
Ġ en
Ġcare ful
Ġsh are
e x
Ġ if
Th ank
M om
Ġf ly
Ġst or
i al
Ġf lew
m ore
Ġany more
ĠT h
Ġsp ec
Ġspec ial
i on
Ġc om
Ġlot s
Ġne ver
Ġb y
l f
re am
Ġd an
Ġb u
Ġf o
Ġw ind
Ġd on
Ġt al
Ġcle an
or t
Ġg r
Ġlo ve
r m
b er
Ġe nd
Ċ Ċ
ĠThe n
op le
Ġe ven
Ġm ag
Ġh ard
Ġsh iny
udd en
Ġf ore
Ġo ver
Ġc ake
a k
Ġb ook
Ġco l
Ġt urn
Ġf am
Ġb ad
Ġsa fe
Ġa fter
ad y
ĠA nna
udden ly
Ġpe ople
Ġpr oud
ĠE very
Ġsurpr ised
pec ted
L et
Ġhig h
Ġc u
Ġh urt
Ġc ome
im b
ard en
Ġdo or
Ġg arden
b b
Ġg round
Ġop ened
Ġpic ked
Ġl oud
Ġcl imb
ex pected
Ġun expected
Ġg l
Ġc he
il d
Ġ im
A s
Ġg ive
Ġwa y
a il
' m
Ġthan ked
Ġcol or
Ġbl ue
Ġst ill
Ġe ver
Ġhug ged
ĠF rom
Ġc all
Ġf ar
i p
ĠH er
ĠS ara
ĠW hen
N o
Ġof f
Ġmag ic
i z
oug h
ag e
um my
Ġ K
Ġjump ed
Ġsh ould
Ġfam ily
Ġp ar
oo l
Ġk id
Ġsm ile
he s
u ff
Ġpl ace
k ay
Ġwal k
Ġn ow
c t
ĠI n
Ġgre at
e m
t ure
Ġ qu
le s
Ġstr ong
Ġst ay
Ġu nt
Ġst o
a ut
Ġfore st
an e
Ġb ra
itt y
Ġ P
Ġfr og
Ġbr o
Ġunt il
o on
Ġbe aut
d y
Ġs qu
Ġst ick
x t
Ġne xt
Ġbo at
le ase
n ing
Ġhapp ily
Ġlist en
a king
Ġkid s
Ġt ra
i es
i ful
Ġbeaut iful
Ġa pp
t h
Ġhelp ed
Ġd ra
Ġshow ed
Ġclo s
b e
Ġim p
Ġstor y
un ny
o y
Ġwh ile
Ġtow n
re l
p t
Ġr ain
re ss
Ġpic ture
Ġbe ing
Ġre m
Ġevery one
I t
ar y
re e
Ġm or
Ġha t
Ġcall ed
Ġm et
Ġsto pped
Ġa d
Ġg ame
N ow
H e
C an
Ġan gry
g er
uff y
Ġop en
Ġw o
Ġtr uck
Ġke ep
Ġso ft
W hen
Ġc ry
Ġy ummy
Ġlo st
Ġb ed
ĠL et
ĠS ally
Ġwa rm
b y
v ent
Ġbra ve
Ġm ouse
ĠW h
Ġat e
ĠK itty
is hed
Ġd e
f ore
Ġdo ll
s o
Ġcould n
Ġwat ch
Ġle ave
Ġal so
dd ed
Ġf ell
Ġgre en
Ġfa ce
Ġtw o
g an
is s
Ġflow ers
b it
Wh at
Ġ R
b le
Ġno ise
ab bit
ir st
ow l
Ġw here
a z
o ck
Ġso on
se lf
Ġsl ide
Ġr abbit
Ġho le
l uffy
Ġbe fore
ir rel
Ġp us
ir ed
Ġsa t
ill y
Ġhe ar
Ġu se
âĢ Ŀ
H i
Ġp a
Ġke pt
âĢ ľ
Th at
Ġsqu irrel
e ar
The n
m a
Ġno dded
Ġex pl
Ġst ore
Ġc ook
Ġhand s
L ook
Ġbird s
Ġp ain
Ġgo ing
Ġfun ny
Ġha ving
d ay
Ġs ing
ay be
u ch
Ġe y
a ug
Ġcat ch
aug ht
ĠC an
ĠF luffy
u it
Ġy ell
Ġth ink
le ep
Ġc ra
Ġf in
B en
Ġb re
Ġfi x
Ġt ired
Ġb unny
Ġus ed
Ġloo king
Ġb us
an ge
a ir
Ġwor k
Ġw r
Ġ our
Ġp ull
W e
Ġth r
t hing
Ġ Now
Ġwa it
Ġk it
Ġs ound
t ing
Ġj o
Ġha s
Ġ G
Ġme an
Ġpo nd
em ber
Ġbe h
Ġd r
Ġsun ny
l ed
Ġother s
Ġas k
n g
c hen
Ġkit chen
Ġtal k
Ġfl o
Ġd if
re w
Ġp ie
ĠJ o
Ġhe ad
Ġre al
Ġf irst
Ġt ri
Ġmom my
Ġey es
ell o
Ġimp ort
H ello
Ġfa v
at h
j oy
Ġ z
Ġrem ember
Ġr ight
Ġflow er
Ġc on
Ġm ess
Ġpar ty
Ġco ld
ĠD o
Ġv o
Ġsw e
i ous
Ġsa nd
Ġ âĢľ
a c
or n
Ġr ace
Ġcu ri
im es
Ġimport ant
Ġd uck
Ġmor al
Ġsh ared
z y
ou nt
ĠJ ack
Ġ ice
Ġo kay
Ġad vent
Ġwor ked
ll ow
A t
Ġen joy
Ġd ress
Ġbr ight
Ġm aking
Ġcuri ous
Ġ own
Ġt all
Ġd ir
Ġh op
re ed
Ġh id
Ġfav or
Ġ ri
h n
Ġs leep
Ġd is
W ow
Ġfavor ite
Ġth ing
Ġbe gan
Ġm on
Ġb ag
Ġh ill
D on
Ġcl a
Ġdra w
Ġre st
Ġhe re
Ġy ard
Ġt ell
ĠF in
st er
Ġwat ched
q ue
Ġfo llow
Ġmo ve
Ġbe l
ec t
Ġc ut
Ġn ight
Ġag reed
Ġp ick
c o
Ġbl ock
Ġh un
ap er
ll y
Ġst op
Ġbeh ind
ĠTh is
Ġsurpr ise
i ed
Ġsh o
Ġh ot
A fter
Ġt able
Ġgra ss
Ġwor ry
Ġd ark
Ġtre es
Ġvo ice
Ġwal king
fe re
Ġflo or
Ġfar m
Ġli on
Ġto p
Ġdif fere
Ġp lease
Ġr u
Ġs ong
Ġbut ter
Ġt ail
Ġswe et
M ax
Ġsh out
Ġcolor s
Ġre ad
ĠD ad
Ġl ady
Ġfor g
is y
Ġleave s
Ġclos er
ig n
Ġcar s
Ġturn ed
Ġneed ed
Ġt ast
Wh y
ar ing
Ġw ood
Ġc ried
Ġdiffere nt
Ġlaug h
Ġd el
Ġpie ce
âĢ Ļ
er ed
ĠM r
Ġro ll
Ġadvent ure
Ġfi re
Ġdo es
i ke
Ġc r
Ġhun gry
Ġha ir
ĠS uddenly
Ġp aper
Ġfeel ing
Ġyell ow
Ġf ull
b o
Ġpr in
S ue
Ġto uch
ĠA s
A nna
S am
Ġw et
Ġfriend ly
Ġp er
o om
k en
c ked
a ched
Ġsw ing
Ġfr uit
i ent
Ġbro ken
Ġre ady
by e
pp y
Ġpr om
ĠTh at
Ġan other
Ġl ight
Ġpret end
Ġdan ce
at er
Ġclimb ed
w here
Ġlist ened
ĠBob o
Ġdan c
Ġrun ning
Ġon ly
Ġpl an
Ġg one
Ġsw im
bb ed
S uddenly
s h
Ġtra in
il a
nd ma
S ara
ĠJ ane
Ġclo se
a v
S he
Ġsm ell
S o
ab y
Ġam az
Ġho ld
Ġblock s
Ġwo nder
ĠTim my
Ġre pl
ĠA ll
Ġbutter f
Ġse es
Ġre ached
Ġwa ll
Ġp u
one y
r ed
Ġsl ow
Ġhelp ing
Ġd ri
Ġc ream
Ġc ool
Ġgl ad
a f
Ġa nt
Ġl ess
Ġbe en
Ġgood bye
Ġa c
Ġf ight
at her
M ia
Ġpus hed
ic ed
Ġfa ir
Ġmu st
Ġh ide
Ġmom ent
Ġwind ow
Ġ O
Ġs it
Ġball oon
Ġsn ow
Ġch ild
Ġexpl ore
ĠEvery one
Ġa r
Ġw ished
Ġb aby
Ġd one
Ġwa g
Ġst e
Ġbu y
Ġst uck
Ġper f
Ġth ank
Ġm ight
ic y
Ġnam e
iz ed
Ġtry ing
Ġb it
Ġcom ing
Ġb ar
Ġqu ick
Ġf all
Ġapp le
as h
Ġsc ary
Ġlook s
Ġbu ild
Ġdo ing
Ġw in
Ġunder st
a isy
Ġd in
Ġd ream
Ġdir ty
Ġhe ld
am es
Ġbook s
Ġm ar
I n
Ġbutterf ly
Ġle ft
Ġshout ed
Ġc ount
Ġrepl ied
av y
Ġre ach
Ġt iny
Ġthr ough
ot t
Ġd ro
Ġwh y
Ġa ir
Ġbr an
Ġla nd
ke y
Ġth ree
Ġpull ed
Ġsp l
Ġgr ow
Ġtre at
Ġbr other
Ġw ise
Ġwood s
Ġs ure
' re
Ġch air
i x
Ġm at
in s
Ġse en
Ġp ink
Ġcla pped
Ġpl ant
el y
Ġ owl
Ġcu p
ie ld
Ġsomet imes
and y
Ġf ill
Ġcl oud
as k
Ġsw am
out h
Ġj ob
Ġcolor ful
Ġremember ed
Ġbig ger
Ġne st
Ġm outh
p e
O kay
Ġless on
Ġjo in
Ġc re
p h
ĠThe re
ou p
ro om
ar t
Ġwa ved
udd y
Ġgra bbed
Ġstay ed
O h
Ġpain t
Th is
Ġcl ot
Ġcon t
Ġclot hes
Ġ ve
ow er
ĠA fter
Ġwa ited
Ġquick ly
c le
Ġwor d
Ġbro ke
uck y
Ġg ames
Ġc ast
Ġb lew
Ġg ent
ĠMom my
Ġenjoy ed
Ġnot iced
J o
ri es
at ion
Ġs et
Ġlike s
Ġpicture s
t on
d e
Ġse a
Ġhe avy
Ġmu s
Ġal one
Ġg if
as ure
Ġany thing
Ġsp ot
Ġm iss
Ġho pped
Ġwor ld
Ġturn s
or m
Ġy ear
d er
Ġb ott
Ġp at
Ġp ot
Ġp en
l c
H er
Ġm ix
Ġa rm
Ġb ike
Ġt ight
Ġevery where
Ġw on
L ucy
Ġtow er
Ġth rew
Ġhim self
Ġfollow ed
ĠB uddy
Ġr ide
m an
le ss
Ġj u
Ġj e
am p
B ob
ap e
Ġcom p
Ġke y
r ow
" .
Ġwh ite
ct or
Ġwr ong
ĠD aisy
Ġmake s
ĠWh at
Ġbre ak
Ġbl ack
are nt
e e
n er
S pot
D o
Ġde ep
th y
Ġmus ic
Ġpo l
Ġdel ic
ce ss
u ed
Ġforg ot
Ġbe e
Ġp arent
Ġcast le
ve s
o lly
Ġe m
i et
Ġwe ar
Ġh it
is ter
ou n
Ġqu iet
Ġr ound
an ce
Ġst u
Ġdanc ed
Ġv is
ull y
Ġwant s
Ġle af
Ġmon ster
Ġn ap
ĠJo hn
Ġunderst and
an g
Ġb owl
o s
r ot
re n
Ġb or
Ġtal ked
itt en
Ġd ry
Ġfast er
Ġcook ies
Ġbr ought
f ully
Ġle g
ro ss
Ġm um
z z
Ġs ide
t s
F rom
Ġs ign
ĠIn side
Ġsm art
c y
Ġrock s
Ġsome one
H is
Ġpo in
Ġse c
Ġsh aring
Ġfo x
Ġwe ll
Ġre s
Ġre l
Ġhapp en
Ġbut ton
Ġbran ch
ĠL ila
Ġre ally
Ġfin ished
en ce
ard s
Ġdin ner
Ġs ister
Ġfly ing
ed dy
Ġcont in
Ġwor ried
Ġe le
ĠT o
Ġvis it
ĠM aybe
Ġbe ach
Ġ que
Ġsec ret
Ġe l
ĠSara h
Ġk ing
Jo hn
g y
Ġto day
Ġperf ect
Ġri ver
Ġevery thing
Ġs illy
Ġsh in
ĠJo e
Ġdan ger
i pp
Ġchild ren
Ġg u
ĠSo on
Ġf ield
Ġfill ed
Ġf ur
Ġel se
Ġsmile s
Ġwe lc
ĠA t
Ġw ish
ĠE m
Wh ile
Ġsa ng
Ġg i
z e
Ġp udd
Ġsn ack
Ġeat ing
Ġreal ized
Ġpiece s
Ġprom ised
or d
Ġsp r
Ġp ig
Ġf ree
Ġcontin ued
Ġb ite
e ad
Ġparent s
Ġcare fully
at ed
itt ing
Ġe ar
J ust
Ġj ar
M aybe
Ġc ow
A my
Ġbl ank
Ġdra g
st ead
Ġor ange
Ġmu d
Ġcry ing
Ġblank et
Ġen ough
Ġroll ed
ck et
Ġs oup
Ġsa il
Ġp urp
im i
Ġy es
a le
Ġdr ink
Ġsn ake
se s
Ġb oun
Ġp et
Ġcra b
Ġlaug hing
Ġthr ow
Ġfair y
Ġword s
Ġamaz ing
Ġb ath
i ch
Ġpurp le
Ġ Z
Ġwith out
i re
Ġbott le
ĠB illy
Ġgif t
Ġgra ndma
F in
us ed
on s
Ġp ast
Ġm oney
i ver
f ort
Ġm ail
ĠG ra
Ġbar ked
Ġwag ged
Ġat t
ch ool
Ġmon key
Ġdo ctor
un ch
Ġbr own
Ġmo ved
is es
Ġask s
Ġget ting
Ġclos ed
Ġw he
Ġwelc ome
Ġs u
Ġc andy
Ġs chool
Ġmor ning
Ġown er
g g
Ġl on
Ġm other
Ġhig her
Ġs itting
Ġtre asure
. âĢĿ
Ġsm o
! âĢĿ
Ġdanger ous
Ġlon ely
ĠC h
Ġli ving
Ġapp les
us h
Ġsh op
as ed
Ġstr ange
ve l
Ġshin ing
Ġro ad
e re
ĠTom my
Ġcre at
un a
Ġpa w
Ġr a
e y
Ġsho es
Ġp re
i ble
Ġ -
Ġst re
Ġtal king
al thy
Ġc aught
Ġe gg
o l
Ġpa ss
m e
Ġl ake
Ġrun s
Ġb uck
Ġl etter
Ġw ings
Ġche e
f ish
Ġm ad
Ġf an
ask et
Ġb asket
a ss
Ġdrag on
a pp
Mom my
s et
ck s
Ġst one
Ġthink s
Ġst and
Ġdelic ious
Ġno se
Ġpudd le
Ġto m
ĠB l
ĠM imi
Ġbel ie
Ġfarm er
Ġsa me
Ġyear s
bo ard
Ġt eddy
Ġb at
is k
it ch
Ġm ine
Ġse ar
Ġco at
c hes
ig h
Ġday s
Ġbr ing
Ġgent le
Ġf it
Ġstar t
Ġfin ally
Ġwh ist
Ġcr ay
ig g
Ġsc ream
Ġk ite
Ġp ill
ph ant
ar m
Ġv ill
Ġch o
Ġsing ing
ell a
s w
in ed
Ġtast y
Ġp h
Ġb en
Ġtr ou
Ġshe ll
Ġher self
Ġhop ed
Ġan sw
Ġw ore
Ġsw ings
s y
Ġh or
Ġbel ong
P lease
Ġpus h
Ġbus h
isk ers
Ġcar rot
Ġar ri
aught y
Ġte ach
b ow
ra ct
Ġn aughty
Ġele phant
Ġdro pped
Ġsh ap
i er
Ġco ll
s c
Ġte ac
e my
Ġwo ke
b all
Ġp ile
Ġhid ing
Ġc our
is a
er ry
Ġto uc
Ġm in
Ġpu ppy
' ll
Ġsee m
ll ie
Ġtw ins
am a
Ġl unch
Ġb ow
Ġsa ck
Ġp ers
Ġcour se
Ġche ered
Ġshap es
ĠJ en
Ġgre w
f used
Ġro pe
Ġvill age
ir th
irth day
Ġju ice
i pped
Ġrain bow
Ġsp in
O K
Ġsh ook
J ack
Ġsp oon
Ġben ch
Ġstre et
Ġf ence
Ġcut e
ĠF red
Ġro b
Ġn ut
Ġchee se
Ġpr ob
Ġtouc hed
id ge
co l
Ġj oy
ĠWh iskers
Ġarri ved
Ġse ed
Ġwa r
Ġteac her
Ġc orn
G ood
Ġfore ver
Ġab le
Ġbe ll
Ġfe w
Ġcar ry
Ġmo st
Ġpl ane
ĠBl ue
le m
Ġe as
Ġsound s
ll a
Ġd es
Ġsp o
Ġprob lem
Ġb irthday
Ġp ower
Ġin c
um b
b r
Ċ Ġ
Ġbug s
il k
Ġwonder ful
Ġdoll s
Ġbus y
at o
ir p
e b
Ġw ra
Ġprom ise
ĠTh ank
Ġfeel s
i an
ĠEm ma
et er
Ġbre ad
Fin ally
Ġne ck
Ġm ilk
Ġrob ot
Ġre c
Ġsh y
ount ain
Ġk iss
ir t
Ġhear t
Ġb and
Ġc ave
Ġpo cket
u b
Ġhelp ful
g ly
Ġslow ly
Ġbelie ve
Ġsh ake
ump y
e ared
Ġpat ient
Ġp op
Ġo b
ar p
Ġli ve
Ġstor m
Ġhold ing
Ġu gly
Ġtow ards
Ġup set
Ġt urt
Ġsh r
ad ow
Ġco ver
Ġk itten
o st
ĠR emy
Ġsh arp
Ġdis app
Ġstor ies
Ġs uc
Ġh oney
o ve
ĠB ella
re ad
Ġno ises
ĠL e
Ġc ir
Ġball s
Ġsp ark
Ġgr ay
Ġd ist
Ġdir t
og gy
Ġl ate
Ġdri ver
Ġse at
Ġbuck et
Ġme et
Ġyou ng
Ġamaz ed
Ġturt le
al m
Ġsp id
Ġtreat s
Ġmagic al
u nt
at or
Ġgl ow
Ġsee k
Ġz oom
Ġle m
Ġsand w
fort able
um ber
Ġtri p
Ġm ist
our n
Ġspl as
Ġm ark
Ġj ourn
Ġfo ld
Ġm ach
Ġpu zz
Ġpar t
l ing
Ġhor se
Ġor gan
Ġw ild
Ġprin cess
pp ing
oo se
Ġcook ie
S ure
en s
Ġhug s
ĠM ark
Ġt aking
un g
Ġwhe el
ep end
Ġcl oth
ĠL isa
Ġs ug
Ġin stead
Ġbu bb
Ġstr ing
Ġn et
Ġdro ve
il ing
Ġru de
Ġhug e
ĠJ im
Ġco in
Ġstar s
Ġfight ing
B e
Ġsp icy
Ġl ucky
O f
Ġcra w
He y
Ġb one
Ġin v
ĠGra ndma
or s
n ot
Ġc a
pp er
Ġfor get
u p
Ġd i
a ur
Ġsa l
ĠFin ally
Ġcan not
Ġwhist le
Ġc ard
Ġs ick
Ġp ath
Ġc ou
Ġspid er
Ġw ide
L ila
Ġfo ot
Ġsnow man
Ġli fe
Ġsong s
Ġpill ow
iz e
ul ar
ĠJ ust
L ater
e st
ĠA nn
er t
Ġfix ed
Ġgi ant
op h
ri ll
Ġno d
Ġbo ss
Ġla st
Ġcom es
Ġjo ke
Ġmo on
Ġtast e
d en
Ġmach ine
Ġgr umpy
Ġwa ve
Ġth in
Ġdri ve
Ġcar t
Ġas h
Ġs er
Ġgra b
Ġpe ace
l ower
Ġdad dy
Ġ On
ĠLe o
er y
Ġs el
Ġshe lf
Ġhid den
ere st
Ġs uddenly
Ġwas n
Ġwr ite
Ġland ed
Ġcon fused
Ġr ing
Ġch ange
Ġwor m
Ġint erest
Ġch ased
oo p
Ġfruit s
Ġs our
it y
Ġmy ster
Ġb ark
Ġr ad
Ġsmo oth
ĠC ome
Ġadventure s
Ġv al
Ġste pped
Ġf le
op e
Ġo ven
Ġtake s
Ġmiss ed
Ġsel fish
k in
Ġshe ep
Ġmess y
T o
Ġac ross
Ġ ent
t o
Ġex p
Ġc e
Ġl ater
ell y
Ġ N
if e
Ġstick s
Ġt ie
S t
e ver
ĠL una
Ġst ep
Ġb ought
Ġd rew
Ġte a
pec t
irp y
Ġb an
bo x
? âĢĿ
Ġwas h
Ġl ay
Ġp our
Ġbe ak
o se
Ġj og
Ġgr ate
Ġduck s
Ġsp e
Ġleg s
ug g
Ġf il
ĠB u
Ġem p
m er
Ġhop e
Ġemp ty
Ġsl id
Ġfe ather
Ġsleep y
Ġdr um
am ed
ar s
et h
Ġz oo
Ġp an
Ġph one
Ġgrate ful
Ġf ing
ion s
Ġlem on
le t
ĠC at
Ġcle ver
ĠM olly
Ġsmell y
Ġim ag
Ġspl ash
Ġinterest ing
ĠJ ill
Ġsa ve
Ġch ick
Ġc alm
Ġm ed
Ġwatch ing
S oon
iz zy
iz z
Ġpl ate
Ġ ign
y ard
Ġcloud s
Ġban an
Ġl ine
Ġface s
Ġb a
Ġa ct
Ġli ft
Ġth ough
Ġwo lf
Ġback yard
w el
Ġseem ed
Ġdog s
Ġspr ay
C ome
Ġpr ot
Ġwho le
Ġm ot
Ġfan cy
ĠDad dy
Ġque st
Ġarm s
Ġpuzz le
Ġhe althy
Ġsu pp
w ard
Ġfin ish
er ly
Ġal ong
ll o
Ġrock et
Ġexpl ain
d ge
Ġeas y
Ġje wel
on t
Ġp ract
Ġj elly
ĠCh irpy
Ġt id
Ġf ake
Ġcray ons
Ġwonder ed
Ġm aybe
Ġsc ar
Ġsh ip
Ġnot hing
one st
Ġem b
ig er
Ġp ool
Ġlong er
Ġany one
ĠB e
ĠJ erry
u ally
Ġfr ont
Ġwor king
Ġgive s
ir r
Ġp ack
Ġs uch
ĠB unny
o cked
m ent
Ġboss y
ĠD oggy
Ġtrou ble
Ġsmell ed
Ġsa ved
Ġp in
ra ss
Ġne igh
ar rass
it ing
Ġh onest
Ġa v
ar ge
Ġemb arrass
Ġv an
Ġforg ive
Ġtid y
Ġwe ak
ur se
Ġput s
un k
Ġk ick
Ġsh irt
ĠW ith
Ġm ind
ĠO llie
Ġneigh b
Ġplant s
Ġso l
ĠMom o
Ġgent ly
Ġco zy
or row
m ing
Ġexpl or
s p
Ġmist ake
Ġy og
o c
oom y
Ġpoin ted
Ġl ad
Ġa f
Ġst ood
or k
Ġon to
Ġwait ing
Ġjump ing
Ġprin ce
Ġc ross
Ġlo ck
Ġche er
Ġque en
ĠWh y
ĠM ary
Ġw ing
on es
w e
Ġl arge
Ġlove ly
ul t
Ġs ur
Ġre t
A nd
Ġde er
Ġche w
Ġcou ch
Ġb al
Ġst ret
aught er
er a
ĠThe ir
Ġplace s
ĠM y
Ġlad der
oo f
Ġret urn
ra id
Ġant s
Ġd ish
Ġaf raid
Ġclean ed
Ġtom orrow
Ġbuild ing
Ġsandw ich
Ġpers on
S ally
n ed
Ġpretend ed
Ġboun ce
Ġw ip
ge st
Ġmat ch
Ġri ch
u ce
Ġp izz
Ġg ather
Ġsear ch
Ġbor ing
om an
ĠS omet
Ġte eth
Ġh um
K itty
M y
ac ed
Ġd aughter
Ġw oman
Ġscar f
Ġgo es
ĠTo gether
Ġla w
Ġst ra
Ġswim ming
Ġfur ry
Ġsplas hed
Ġp ri
Ġlove s
Ġtr ue
Ġscream ed
Ġla zy
Ġg en
Ġansw er
Ġn umber
Ġe ag
Ġash amed
Ġpizz a
a w
Ġapp eared
Ġfe ar
Ġnear by
Ġpower ful
Ġfl ag
ĠS t
Ġha ng
v ous
Ġcl own
e k
Ġch ase
Ġmot or
Ġwa nd
ĠT V
Ġru b
Ġsuc cess
Ġcho col
ĠI f
Ġcreat ive
Ġtr ust
Ġwe aring
Ġno isy
Ġmat ter
p a
Ġd ig
Ġhe llo
Ġn er
Ġtoo l
Ġsa f
ĠB ird
ad o
Ġner vous
el p
Ġte st
Ġsm iling
Ġso ld
ic ked
o ppy
os aur
Ġcir cle
m b
Ġm ap
Ġdr ank
Ġcla ss
Ġtri es
Ġchocol ate
ĠP lease
Ġimp ress
Ġkne e
Ġgen er
Ġdin osaur
Ġpol ite
Ġm irr
ĠBob by
ĠT iny
Ġballoon s
Ġgo ld
Ġr are
Ġprot ect
Ġc and
St op
Ġcar ried
ĠG o
ens ive
Ġa p
Ġsh adow
Ġmirr or
ĠD on
Ġba ld
Ġg un
in a
Ġexp ensive
Ġre g
if f
Ġmyster ious
ĠS p
Ġp ump
Ġnot e
Ġher o
Ġmar ch
Ġh ar
ar l
Ġ icy
Ġres pect
Ġwe ird
Ġsn ee
Ġc ri
Ġg ate
Ġso ap
ra g
ut e
iss ors
Ġthe se
Ġpo or
Ġtow el
Ġwh ale
Ġfe et
Ġt ape
Ġd izzy
itt er
Ġgener ous
nd pa
Ġpre s
ĠBen ny
n ic
Ġdis co
H elp
vent ually
Ġpic nic
Ġm ic
Ġle ad
Ġs que
Ġembarrass ed
Ġjourn ey
Ġsug ar
is p
sc ape
Ġbo ot
Ġpeace ful
Ġt ent
Ġf at
ĠB ear
Ġsc issors
Ġtast ed
Ġyell ed
Tom my
Ġt ick
Ġm el
Ġbr ush
Ġdanc ing
n ess
Ġgl ue
Ġh ur
Ġr ough
Ġcl ap
Ġbr idge
ot e
Ġdec or
Ġclos et
Ġcr own
Ġst ir
u al
im p
Ġprin t
ĠSomet imes
ow ed
air s
ĠH ow
um e
Ġc ap
Ġl amp
Ġv ase
Ġsc are
le br
Ġrel ie
l ves
an y
Ġe ld
Ġte le
Ġce lebr
Ġg igg
Ġwh isp
Ġlo g
Ġsc o
Ġbl ow
Ġpain ted
ĠD ucky
Ġp ay
er ries
Ġw is
Ġb erries
Ġmix ed
Ġsp read
Ġwould n
Ġc age
Ġb ake
r ob
get able
Ġm ountain
Ġad m
Ġdraw ing
Ġbec ome
Ġfam ous
Ġkn ocked
Ġbe an
Ġn orm
Ġve getable
as p
Ġk icked
ust r
Ġsh ark
s er
Ġinc red
Ġlo se
Ġnorm al
Ġwra p
c ed
Ġgr oup
Ġth ick
Ġ 3
Ġf ine
Ġgl ass
Ġign or
Ġclo ck
Ġte am
Ġeld erly
Ġcle ar
Ġcorn er
Ġfr ustr
Ġmight y
rob e
Ġc one
Ġincred ible
ĠB r
ig hed
D ad
Ġmom s
Ġbal ance
Ġso ck
Ġsp ace
Ġj am
rag ile
Ġfr ight
Ġorgan ized
Ġbran ches
Ġro ar
p ort
Ġsw ord
al ous
ĠM ama
Ġgu ess
Ġf ool
Ġse ll
Ġfe ed
ĠS ome
Ġwh ich
Ġh orn
Ġpres ent
Ġje alous
Ġy arn
on y
Ġf ragile
Ġb urn
Ġunderst ood
Ġm is
Ġstu bb
Ġt er
Ġfrustr ated
W here
r ay
Ġho se
c ient
Ġsp ent
Ġsho e
Ġt aught
Ġstubb orn
Ġtw ist
Ġcreat ure
Ġche st
Ġspo iled
Ġrelie ved
Ġan cient
Ġwa ke
i que
Ġfi er
Ġpr ay
Ġfier ce
Ġegg s
Ġc ab
Ġter ri
Ġb arn
Ġpump kin
Ġcom fortable
Ġor d
y m
or ry
Ġfright ened
Ġto ug
Ġun ique
Ġme asure
Ġgo at
Ġwag on
Ġun us
Ġbre ath
Ġfool ish
Ġuse ful
Ġexplor ing
d le
Ġstra w
Ġunus ual
Ġd ug
Ġcl ay
Ġdisco ver
Ġtom ato
ĠP e
Ġde ad
Ġfind ing
Ġpol ice
Ġwr ote
Ġcl um
Ġex am
l ace
Ġwa ves
Ġsqu are
Ġhear s
Ġcab in
Ġtell s
Ġneck lace
Ġd ull
Ġclum sy
Ġtoug h
Ġbubb les
Ġno sy
k n
Ġsear ched
To gether
Ġwas hed
Ġbath room
Ġpaw s
bb y
o nd
un n
an ged
Ġbo ard
f ic
kn own
Ġas king
Ġcra zy
Ġthank ful
Ġsun f
Ġb itter
y al
Ġp ir
ber ry
al k
Ġ ind
Ġdif fic
Ġro se
c il
Ġsw an
Ġbl oom
Ġun known
ĠE lla
Ġcover ed
Ġdiffic ult
Ġa dd
Ġpen cil
Ġfing er
Ġha m
Ġh oop
Ġj et
Ġw itch
Ġdr op
M e
Ġ '
Ġchick en
Ġgl oomy
a pped
Ġlo yal
al s
He re
c om
Ġwe althy
l ight
Ġun l
Ġcat s
Ġend ing
Ġg uit
b led
sh ine
Ġdo ve
Ġjoin ed
Ġc her
an ut
Ġmo v
Ġterri ble
Ġyour s
i ant
Ġ U
ĠR ex
Ġsal ad
ĠAnd y
Ġnut s
Ġr at
g round
Ġt iger
Ġpot ato
Ġm ask
x ible
se lves
Ġval ue
Ġch anged
Ġmo ving
Ġexc iting
orm ous
ĠM any
Ġbo dy
ĠT r
Ġto ast
Ġrec ord
er p
Ġz ip
Ġdis g
Ġche ap
Ġguit ar
irst y
Ġknow ing
Ġadvent ur
Ġyour self
Ġen ormous
Ġhair y
E very
Ġsho ot
ĠBr own
Ġbor ed
Ġpe pper
Ġrem ind
or y
l and
Ġac orn
Ġadventur ous
Ġsun shine
Ġsmall er
Ġhat s
Ġst uff
Ġsol ve
ĠJim my
Ġfle xible
Ġco st
rill iant
Ġkn ife
Ġperf orm
Ġsnack s
Ġnod s
Ġsh ore
Ġb rilliant
Ġth irsty
Ġdelic ate
Ġfr own
Ġdisg ust
Ġcoll ect
Ġst ri
Ġseed s
Ġcount ed
Ġas leep
Ġbanan a
re en
Ġmail box
in ess
Ġd ough
Ġtri ck
Ġneighb or
ung le
Ġhe al
l ive
Wh o
Ġst age
id ent
Ġmark et
Ġcu be
Ġst at
Ġj ungle
Ġsque e
mb re
Ġexplain ed
at es
Ġu mbre
Ġdisgust ing
J im
f ted
Ġla b
Ġjo lly
Ġfl ash
u nd
Ġfr idge
in al
p id
il t
Ġcr ane
c orn
Ġs uit
Ġr h
id dle
Ġsunf lower
Ġt imes
ĠA l
erp ill
Ġcat erpill
Ġrel ax
Ġsh iver
Ġf our
Ġis land
ig inal
Ġh arm
ic t
ĠWh ile
y ing
Ġstu pid
Ġmed ic
ĠIn stead
Ġcom b
Ġg oose
Ġc ro
ed ient
ĠW ill
Ġsto ve
I f
A re
Ġind epend
M um
m ost
Ġspr ing
Ġg em
Ġbat ter
Ġs ighed
Ġvegetable s
Ġst ones
p es
Ġsh ine
H ow
Ġmedic ine
Ġd epend
Ġr ug
ĠYou r
Ġcare less
Ġor iginal
Ġst amp
Ġg ar
Ġc ries
In side
g u
Ġcarrot s
Ġsc r
Ġsuccess ful
Ġsa uce
Ġje ep
Ġpop corn
Ġme al
Ġob edient
Ġal most
Ġm iddle
Ġmag n
Ġstu dy
Ġindepend ent
Ġfear ful
Ġj ack
m et
ink y
S orry
ĠSam my
Ġe scape
Ġcaterpill ar
Ġser ious
Ġpe anut
Ġbed room
Ġeag er
ak en
Ġget s
Ġpar rot
Ġstat ue
Ġpe bb
Ġhel met
Ġ No
Ġf ountain
Ġra ven
Ġan g
Ġpast a
Ġumbre lla
Ġcomp et
The re
Ġjack et
Ġbelong ed
Ġde st
Ġfil thy
Ġdes ign
Ġbor row
Ġc am
er able
Ġhouse s
Ġpri ze
Ġh ay
Ġbra ce
Ġstand ing
Ġmis erable
Ġr aced
Ġt aken
ag es
Ġfor k
Ġcray on
Ġpain ting
i o
Ġtri ang
Ġimpress ive
Ġch oose
Ġf ig
Ġt ied
ia ble
Ġspot ted
Ġli fted
Ġsl ipped
our s
Ġt ank
Ġthought ful
Ġdepend able
Ġste al
Ġgar age
en ny
Ġbu ilt
Ġmu sh
Ġ er
ip e
Ġmo le
Ġcraw led
Ġsc ale
Ġboat s
Ġp ian
Ġp ant
Ġham mer
Ġbott om
l ph
Ġcheer ful
Ġus ing
Ġsmo ke
Ġpick s
Ġmo der
ber ries
Ġshow s
r n
Ġpian o
Ġmagn et
d ile
co dile
Ġhurt s
in ary
Ġre f
Ġcra ck
Ġen g
Ġa unt
Ġmel on
Ġwa ff
Ġmoder n
Ġdo lph
unn el
c ream
p ack
Ġt unnel
o in
Ġar row
Ġrel iable
Ġho pping
Ġmush room
Ġj ug
Tim my
Ġsqu ash
Ġs ink
Ġg um
Ġmov ie
Ġt ax
Ġfl ute
Ġbe et
Ġle an
The ir
i v
Ġpop ular
op ter
ic opter
Ġcry st
Ġon es
Ġs il
Ġcompet it
Ġhel icopter
as er
Ġneed s
ip op
ll ipop
Ġcro codile
Ġli z
M olly
Ġp ress
Ġtrou bled
Ġpig e
Ġlo cked
Ġtri cks
Ġlo llipop
Ġplay ful
Ġhum ble
Ġtax i
a ppy
Ġkiss ed
Ġl ow
com fortable
am ond
Ġun comfortable
Ġr id
h ost
Ġwa nder
at ch
Ġang el
ed y
c les
Ġto rn
Ġgra ce
Ġan x
Ġwra pped
Ġmu ff
Ġtw ig
Ġpant s
Ġdisapp oin
ĠS n
Ġhelp s
Ġdi amond
Ġcam era
at ter
ot o
Ġanx ious
Ġg host
Ġte ars
Ġru ined
c ident
ĠJen ny
il ty
Ġqu ar
a ff
ĠE ven
Ġf is
op l
Ġbel t
er opl
Ġen v
Ġgu ilty
Ġb ull
Ġa eropl
ex t
Ġhelp less
Ġhapp iness
Ġliz ard
Ġboy s
c ut
Ġc ere
Ġwalk s
ce an
Ġpass ed
Ġme ant
Ġo cean
Ġfl uffy
Ġw ire
Ġn ail
Ġbrace let
Ġde af
z ed
Ġstret ch
Ġcand le
Ġca ct
t t
Ġbeet le
Ġm op
Ġharm less
ump et
Ġord inary
Ġansw ered
Ġc op
Ġcoll ar
Ġbe es
Ġt ire
Ġsh ape
Ġquar rel
Ġrad io
Ġflash light
Ġcryst al
Ġhard er
Ġpour ed
Ġtr umpet
Ġeng ine
M ama
Ġpers ist
Ġh unt
Ġto oth
Ġcere al
Ġinv ited
Ġcomp ut
Ġt ag
Ġoff ice
Ġm elt
Ġsp ill
Ġch arm
Ġl it
co a
Ġsco ot
Ġc omet
Ġtriang le
ie f
Ġm ug
Ġre p
u be
Ġyog urt
Ġsp end
Ġcomp ass
Ġac cident
Ġsh ade
he tt
ag hett
aghett i
Ġdisappoin ted
Ġli cked
Ġcact us
Ġpa le
Ġc ush
Ġfig ure
Ġreg ular
Ġgi ving
Ġav oc
Ġpr o
Ġshe et
Ġwhisp ered
az e
ut h
ell ig
Ġcre ate
Ġbar ber
Ġint ellig
Ġp ipe
Ġro de
Ġr oof
J ane
Ġth read
it her
Ġv i
Ġlo ad
Ġli br
Ġgif ted
c col
Ġpract iced
Ġdel ight
ccol i
as ses
Ġp ow
Ġhar sh
Ġd ust
ĠTr ue
Ġb icy
az z
Ġsp aghetti
Ġcompass ion
Ġsa iled
ur key
u bby
Ġfor ward
Ġpersist ent
Ġspe ed
Ġm itten
Ġco coa
Ġen vel
Ġquest ions
Ġcomput er
Ġc oo
Ġfeather s
h ip
Ġgl ove
g ing
Bob o
Ġri ce
Ġshr imp
Ġdes k
Ġst ream
Ġin se
Ġpige on
Ġcharm ing
Ġear s
Ġcar p
lc an
Ġra ft
Ġenv ious
Ġkn ot
Ġt urkey
Ġstrong er
om es
Ġco ins
Ġt ap
lcan o
we et
Ġtra p
umb ers
Ġaeropl ane
Ġtr unk
Ġwhe at
Ġbox es
Ġch ubby
Ġcarp et
Ġrest less
Ġintellig ent
Ġt ube
Ġsp un
Ġdream s
Ġfriends hip
ul if
ol in
Ġha lf
Ġloo p
Ġcraw l
Ġbro ccoli
Ġon ion
Ġdel iver
an ger
Ġac ce
Ġv ide
Ġvo lcano
ĠJ ake
Ġs le
Ġtra ck
Ġb ri
Ġca ulif
Ġv ine
y e
Ġtick et
Ġth ief
ess ie
cy cle
Ġloud er
Ġinse ct
Ġn umbers
as ing
Ġy aw
Ġhair cut
it al
Ġsleep ing
Ġm ill
Ġe ventually
Ġal ert
Ġexc ite
Ġpebb le
Ġho sp
Ġatt ract
Ġplan et
ĠTo day
Ġun iver
is ted
ul u
Ġhosp ital
Ġer aser
Ġreturn ed
Ġdest ro
Ġgrace ful
Ġhappen ing
ac he
ĠO K
ĠEm ily
Ġdec ide
Ġlearn ing
Ġsc reen
rew ork
Ġnice ly
Ġle op
Ġcaulif lower
Ġcompetit ive
Ġpo em
Ġcelebr ate
Ġc urt
Ġpe ach
Ġsold ier
Ġsa us
Ġpar ade
at ient
Ġattract ive
Ġcurt ain
Ġdolph in
Ġb ase
Ġvi olin
Ġway s
G o
at s
Ġtra vel
t en
Ġro d
Ġignor ant
ul b
Ġwheel s
Ġy ach
Ġsc atter
Ġd eter
Ġcompassion ate
Ġbar rel
Ġenvel ope
Ġbubb le
Ġl ying
Ġfi rework
Ġsor t
Ġquest ion
z zy
ĠP ipp
Ġscoot er
Ġdeter m
Ġr ag
Ġth u
Ġbicy cle
el ery
Ġneed le
ĠF r
Ġju dge
Ġb ulb
Ġte m
Ġleop ard
Ġyach t
Ġp ony
Ġcri cket
Ġor der
Ġh omes
Ġad or
ter n
Ġtr uth
Ġh ook
d om
Ġru bbed
et e
ig ator
Ġbus hes
Sara h
Ġun cle
Ġcush ion
Ġsp ell
Ġgr own
Ġcoo ked
Ġador able
Ġch alk
Ġso ar
Ġp urse
Ġsk in
Ġthem selves
Ġimp atient
Ġc elery
Ġtr ay
Ġshell s
Ġpen gu
Ġsn iff
Ġpr un
Ġwall s
Ġse al
Ġlive ly
Ġc ase
Ġall igator
Ġdist ant
Ġrad ish
Ġsay ing
Ġspe ak
Ġmotor cycle
Ġme at
Ġs end
ill a
Ġspin ning
Ġfor th
Ġcount ing
Ġent h
Ġboun ced
Ġch ain
Ġ ed
Ġclean ing
eb ra
Ġfil m
Ġsle pt
Ġp it
Ġsur f
Ġmar ry
us ia
Ġwall et
Ġenth usia
Ġmet al
ur b
eb ook
Ġb in
Ġwe ek
Ġnot ebook
Ġwip ed
Ġsk ip
is ion
ch air
Ġbig gest
Ġimp ro
Ġavoc ado
Ġbeh ave
Ġdestro y
v ator
Ġband age
Ġlaugh s
Ġste ak
Ġpat tern
ĠS h
Ġpo st
Ġele vator
ĠBu zz
us ie
Ġd ive
Ġsh ut
Ġsk ipped
Ġunl ock
Ġdi ary
de st
j ect
Ġz ebra
Ġbag s
at ing
Ġarm chair
ra ge
ag ed
Ġo y
Ġdist urb
Ġpo le
Ġshow ing
Ġgather ed
Ġcl ub
Ġn urse
b ul
Ġear th
Ġen c
Ġstr anger
Ġswe ater
Ġjelly fish
Ġsc rew
Ġtem p
ĠP oppy
Ġcom pl
Ġmix er
G ive
Ġsk ull
Ġl ime
Ġb ump
bul ance
Ġam bulance
n am
Ġf ather
Ġjourn al
G ra
Ġloud ly
it o
Ġfold er
Ġsh ield
ĠB et
ĠL ulu
Ġlibr ary
ĠP eter
Ġbutton s
Ġplay ground
Ġtruck s
Ġin k
Ġlight s
Ġt ummy
Ġpoin ting
Ġc ity
Ġdecor ate
Ġst ation
ir it
Ġpre p
Ġfall s
qu ito
ĠP olly
Ġf u
B illy
ĠF o
ent ion
n ger
ĠBird y
l ies
Ġher b
nam ent
Ġor nament
Ġmo dest
Ġgu ard
Ġmo s
Ġknow s
Ġc ord
Ġpol ish
Ġmar ble
ob y
Ġmos quito
umb led
Ġsal t
Ġatt ic
Ġwhen ever
Ġve st
ct op
Ġres c
Ġy et
Ġp le
Ġdisapp eared
ce ed
Ġstraw berry
Ġon ce
ĠM um
Ġk ay
Ġbrother s
Ġit ch
Ġpir ate
Ġfoot ball
Ġspl it
ke le
kele ton
Ġh ipp
Ġa ut
Ġl ed
ur ing
ctop us
Ġdri ving
Ġc able
Ġsupp ort
Ġcall ing
Ġcup board
ak y
us hed
Ġwis hes
Ġcomp let
Ġtri pped
Ġro ot
Ġkay ak
Ġo ctopus
ob ile
Ġa dded
Ġed ge
Ġm ild
st ic
Ġdeterm ined
Ġsuc ceed
?" .
Ġread ing
om obile
Ġco al
W ell
g l
ut es
p ar
Ġsug gest
Ġst ack
Ġthu nder
Ġkind ness
Ġaut omobile
Ġcompl ain
Ġenthusia stic
Ġsnee ze
Ġcart oon
Ġyog a
ĠL ittle
Ġgr owl
ht ub
Ġfle a
l a
Ġme adow
Ġdraw er
Ġbat htub
Ġri bb
oph one
Ġha ll
Ġgo lf
Ġmean s
Ġs keleton
Ġm ath
Ġve il
Ġhunt er
Ġg or
Ġfl ame
Ġpo ke
Ġvide o
Ġche ss
Ġtr oph
Ġcup s
Ġglow ing
Ġmat t
Ġoy ster
w ork
Ġpen ny
Ġsp ear
Ġit self
Ġdraw ings
Ġhipp o
Ġrep air
Ġsw itch
gl asses
Ġsun glasses
Ġtele ph
Ġcost ume
Ġd ess
Ġz ipp
, âĢĿ
Ġre pe
Ġmuff in
Ġar g
Ġpast ry
Ġp un
Ġroll ing
Ġmin utes
Ġpa cked
Ġmake up
ir on
ri c
ĠPe ople
Ġwaff le
c ase
Ġhand le
Ġpe ar
Ġm aze
Ġteleph one
Ġp ine
a it
Ġg ear
Ġhe dge
Ġmatt ress
Ġpack age
a ving
ĠM iss
Ġsho cked
in es
Ġtroph y
Ġpow der
Ġkn ight
Ġc ob
Ġmiss ile
Ġman aged
Ġfr ame
Ġenc ou
Ġw ife
Ġo k
Ġse par
w eb
Ġst airs
Ġr ot
Ġc amp
ur ch
r ophone
Ġmag az
Ġstr ugg
Ġcol our
Ġgra pes
t ime
Ġf ile
he ad
ĠT ina
Ġbasket ball
B ye
o ld
p er
R e
Ġcob web
Jim my
ĠT weet
S ee
Ġper m
Ġw ool
ĠD an
Ġmic rophone
es day
Ġey e
Ġle ash
Ġg asp
ie w
ke ep
Ġwe ep
Ġbark ing
at ure
Ġsaf ely
Ġte ar
Ġv iew
f fe
Ġslid es
Ġstep s
ist ol
ffe e
Ġbanan as
Ġst aff
Ġsp irit
Ġt ask
Ġgigg led
Ġho c
Ġhoc key
Ġve nd
Ġth ose
Ġgor illa
J ill
Ġcool er
w as
ĠR ose
c ing
Ġear ly
Ġmar ched
ro sc
Ġmin t
ĠL ook
was her
Ġfl our
Ġhot el
h ic
Ġsail or
Ġdess ert
Ġph oto
rosc ope
Ġve hic
il ot
Ġof ten
Ġch urch
ĠP ete
Ġcook ing
Ġrem ain
Ġf ive
Ġ ot
Ġsaus age
Ġt en
Ġtool s
Ġmed al
Ġe ither
Ġfire man
ch or
Ġgra ndpa
Ġot ter
Ġbase ball
Ġpretend ing
Ġp istol
Ġdish washer
Ġre ver
Ġorgan ize
Ġpe e
Ġvend or
Ġkn ock
Ġs ight
Ġg rill
Ġtemp le
Ġbatter y
Ġthin king
Ġopen s
Ġ ow
Ġreal ised
Ġ iron
Ġla ser
Ġsn e
Ġsand box
Ġo il
Ġpat ch
Ġh ours
Ġr ise
Ġwh ip
' d
ctor y
ĠG ive
Ġan chor
Ġtra sh
en se
Ġsh ort
n ey
ĠBet ty
Ġrh in
Ġfa ctory
se um
Ġm ay
Ġwar d
at ely
Ġcard board
ug ged
Ġlot ion
A l
Ġmess age
Ġval u
Ġward robe
Ġc ell
Ġmu seum
ap ers
Ġu r
in ation
Ġhang ing
uc et
ĠS unny
ail able
ĠZ oom
Ġh ive
e er
Ġtow ers
keep er
Ġblack board
Ġme m
Ġexcite ment
Ġco ffee
Ġp ilot
F luffy
re ady
Ġnap kin
Ġpengu in
r on
Ġche ck
Ġre ward
l oo
Ġqu it
ĠPipp in
Ġcan e
Ġpick ing
pl ace
ĠSn ow
az or
Ġfa ucet
Ġ ig
Ġpass port
ĠR ob
Ġst umbled
Ġdream ed
Ġig loo
ĠB essie
ar oo
ang aroo
Ġfree z
pl ay
Ġju icy
Ġall owed
Ġhold s
Ġal ready
Ġav ailable
Ġset t
Ġbat he
Ġtorn ado
im ney
Ġfing ers
ht ray
Ġha nger
Ġnew sp
Ġs ize
Ġla und
Ġl end
Ġch imney
Ġlaund ry
Ġo ak
Ġfis her
Ġk angaroo
Ġm en
ĠEvery where
Ġtell ing
E m
Ġno vel
bo dy
Ġm ummy
Ġp al
Ġmu le
Ġnot ice
Ġcher ries
Ġpract ice
Ġspill ed
Ġre ind
Ġcomplet e
Ġenjoy ing
Ġmic roscope
ar ian
amp oo
Ġg ain
Ġsu b
Ġfire place
Ġimag ine
and a
Ġdis play
oc er
ĠZ ip
Ġfast est
Ġmagaz ine
Ġhur ry
Ġcabin et
Ġshr ink
Ġas htray
W ait
Ġcow s
ĠSp ike
Jo e
g en
Ġpal ace
Ġimpro ve
ac hes
Ġr ake
Ġreind eer
Ġfall ing
ocer os
Ġsk irt
ur ed
Ġdiscover ed
Ġstar ed
Ġro ared
a id
Ġsil ver
Ġt ub
Ġtra il
I s
Ġmin er
c ome
Ġb ill
ict ion
Ġf og
Ġa x
st airs
ile t
Ġh ut
Ġhapp ier
Ġtall er
iction ary
Ġo ats
Ġfisher man
Ġob ject
Ġp or
v ision
Ġvalu able
Ġsh ampoo
Ġho les
Ġoff ered
Ġboot s
Ġrhin oceros
Ġnam es
Ġto ilet
Ġclimb ing
Ġbl in
v ice
O w
Ġstret ched
ie st
Ġzipp er
Ġlisten ing
Ġs ym
Ġbath robe
ale nd
Ġjewel ry
ĠHe re
Ġjoke s
Ġtele vision
Ġpro v
Ġc alend
Ġstop s
Ġax e
Ġjump s
Ġfu el
c u
Ġspark ly
Ġperf ume
ĠS usie
Ġbu ry
bo l
M ummy
l u
Ġpress ed
ĠK im
ree k
f a
Ġre ce
ĠT oby
Ġne at
Ġc reek
Ġpo pped
Ġop era
Ġcalend ar
Ġsn ap
Ġgasp ed
Ġatt ach
Ġsym bol
Ġt una
ĠM ar
M r
Ġp apers
Ġun pack
Ġres ist
Ġd ictionary
Ġsub way
Ġletter s
Ġfreez er
Ġcho se
Ġpin ch
z ag
Ġspo ke
Ġany way
Ġsu per
Ġpor ch
Ġhelp er
af fe
Ġbike s
Ġli e
ar ry
ic hes
Ġtight ly
Ġcom fort
Ġsh aking
Ġbook case
Ġs on
Ġr azor
aur ant
Ġsandw iches
ĠA re
ig zag
Ġwe igh
Ġagain st
Ġstick ers
Ġrest aurant
Ġnewsp aper
Ġbl ouse
Ġvehic le
Ġswing ing
Ġp ed
Ġdis ag
Ġn ature
Ġsquirrel s
iv al
Ġbelong s
Ġswam p
Ġbutterf lies
Ġg ym
d el
Ġinc lu
Ġgrow ing
Ġbuck le
om ed
Ġstir red
Ġmust ache
Ġbill board
x y
Ġbe ep
t e
Ġal arm
Ġlight ning
Ġli p
Ġfe st
Ġhun g
ut or
Ġdist ance
og n
Ġc ards
Ġob ser
Ġag ree
L ittle
Ġex t
Ġte ase
Ġrec ogn
Ġrub ber
i k
Ġhat e
f ast
e f
O uch
Ġdoes n
Ġmusic ian
Ġad vice
Ġbee f
Ġser ve
asp oon
Ġsweet ie
Ġmo del
l ter
Ġcri b
Ġblue berries
Ġso fa
Ġcir cles
Ġbreak fast
Ġt utor
as is
Ġbooks he
Ġgir affe
st ri
Ġfest ival
Ġsepar ate
Ġshe lter
Ġg as
Ġair port
Ġo live
Ġr ail
Ġbookshe lf
Ġfrog s
Ġte aspoon
Ġrever se
Ġj unk
Ġrid ing
Ġple ased
Ġdra in
ĠMr s
Ġwip e
Ġo asis
Ġso il
Ġa head
Ġresc ue
Ġle aving
um mer
Ġpain ter
Ġsquee ze
Ġch ance
Ġpo ked
Ġkn ob
ĠT eddy
Ġpee ked
Ġl umber
Ġtrain s
Ġext ra
Ġsl ipp
Ġqu iz
Ġre fused
re s
rm omet
Ġp age
Ġru les
Ġin s
Ġhappen s
Ġsound ed
Ġpoin t
Ġwin ter
Ġdanc er
ĠGra ndpa
Ġbird c
Ġdisapp ear
rmomet er
ĠDo lly
Ġwe ather
Ġwas te
Ġli c
Ġbirdc age
Ġthe ater
Ġre ef
Ġcarry ing
D aisy
Ġinv ite
if orm
Ġgo al
Ġo stri
Ġun iform
Ġsw ung
Ġtr ade
Ġcl iff
i ence
Ġlaw n
ol a
Ġlean ed
ĠP andy
ang u
Ġacce pt
Ġadm ire
Ġfor t
Ġaccident ally
Ġpast el
bb les
Ġst om
Ġl angu
Ġtw ir
Ġs uff
Ġp anda
r iger
Ġb et
riger ator
Ġpe ek
re nder
Ġblin ked
Ġstar ts
n a
Ġref rigerator
Ġany where
!" .
Ġimag ined
Ġdream ing
Ġrem ove
n ight
Ġshow er
ĠL ee
ĠC o
Ġclass room
Ġce iling
Ġcar ing
i um
Ġgra nd
Ġmiss ing
a ked
Ġlic ense
Ġst able
Ġthe rmometer
Ġmonkey s
ast ic
Ġwar ned
Ġs ummer
ĠW here
Ġab ove
Ġbri ck
ec ted
Ġc udd
Ġproblem s
am ber
Ġch asing
Ġlab el
Ġap ron
Ġs ent
urn it
urnit ure
Ġlaw y
Ġl id
ugg age
m ed
Ġrespect ful
Ġf urniture
Ġfrown ed
Ġzoom ed
Ġp ages
Ġpre vent
Ġb ent
Ġl uggage
Ġmistake s
Ġsun set
Ġostri ch
is on
Ġsuggest ed
Ġwindow s
ation s
Ġj ail
l ow
Ġw ine
Ġribb on
Ġold er
Ġshout s
Ġgra pe
ĠC l
Ġw igg
uc ture
Ġstr ucture
Ġspo il
e or
Ġfix ing
Ġch amber
Ġlion s
Ġdel ay
Ġfind s
Ġhand ed
Ġsearch ing
Ġun ite
D id
Ġf ought
Ġlawy er
Ġbright ly
Ġpa ir
Ġmeet ing
Ġcho ice
Ġsurpr ises
ĠE llie
Ġar t
ĠU n
C h
Ġfav our
eter in
eterin arian
ad ium
Ġst adium
Ġproud ly
ik i
Ġv eterinarian
v et
ro d
Ġchair s
Ġsl ip
ĠS pe
Ġsad ly
ĠB ow
Ġinc re
ĠC arl
Ġpudd les
Ġb erry
Ġint rod
Ġran ch
ve al
ĠB oun
Ġarg ue
Ġ V
Ġadm ired
Ġc ur
Ġfavour ite
You r
Ġin f
Ġexcited ly
Ġr ac
Ġgrab s
m end
Ġste am
th ank
Ġhum an
eor ge
s ity
ĠHe l
Ġpus hing
Ġsa ving
ĠR ed
Ġre veal
om mend
all ey
Ġy ield
ol og
Ġm all
Ġremind ed
Ġrec ommend
Ġle ak
Ġsur render
Ġhar b
Ġapp l
cu ss
a ul
Ġwe ap
Ġreg ret
Ġput ting
Ġv alley
Ġminer al
Ġeven ing
el come
Ġmat ches
Ġforg ave
Ġsnee zed
Ġa w
Ġpu p
Ġr ushed
ec ause
Ġsp ade
Ġap olog
Ġpl ates
Ġdis cuss
Ġprep are
Ġharb or
Ġign ore
ĠB ig
Ġcount ry
Ġlangu age
ĠBu zzy
Ġpull s
Ġpl astic
Ġsupp ly
Ġflo at
Ġsniff ed
ĠJ azz
Ġrepl ace
Ġme as
Ġsho vel
ĠB ill
Ġra ise
ĠN ext
Ġf re
Ġcar ed
Ġso cks
Ġstri p
Ġdoor s
Ġmyster y
Ġli ves
Ġrest ore
Ġstick er
Ġs udden
ar i
Ġkind s
Ġslipp ery
er o
ĠO w
Ġplay er
Ġpan ic
ric ane
Ġhop ing
id ay
Ġsh one
le x
her o
Ġbe g
ĠM ike
ĠB inky
Ġsuper hero
Ġdelight ed
Ġg ro
Y ay
au d
ch an
Ġchick ens
Ġshould er
Ġrain ed
Ġcolour ful
Ġbre at
ĠAl ice
Ġcla w
ĠBu bbles
Y uck
Ġsoft ly
r ise
Ġp ort
Gra ndma
Ġho l
ic er
Ġhol iday
Ġ âĢ
Ġbark s
as on
Ġthrow ing
Ġplan es
M ary
Ġbe nd
ĠFred dy
Ġshake s
Ġinf ant
Ġend ed
Ġshiver ing
Ġkne el
Ġsun rise
Ġpus hes
ĠO live
Ġthank s
Ġfre sh
Ġsuff er
Ġpoin ts
im ed
w ards
ĠP at
Ġt ip
ĠSpe edy
Ġfree ze
Ġkeep ing
ĠW ould
Ġgigg le
Ġco pper
Ġsmell s
Ġde ar
Ġent er
Ġprov ide
c ast
chan ic
Ġdis hes
ĠE nd
co nd
Ġun h
N ext
Ġappl aud
Ġhead s
Ġhur ricane
Ġcher ry
Ġth umb
Ġmen u
Ġme owed
Ġm ass
Ġse cond
Ġbright er
in ce
Ġsand cast
Ġme chanic
Ġw re
Ġspray ed
Ġlet ting
Ġe vent
Ġweap on
Ġlaug ht
Ġ x
Ġlaught er
Ġcla pping
Ġfeel ings
W ill
ick y
Ġsplas hing
em ent
ĠO r
ac ked
Ġcast les
ĠF l
c er
Ġsc ore
app ing
Ġuniver se
Ġn avy
Ġd em
Ġstick y
oph ie
Ġroom s
Ġr ow
Ġfl ies
ig i
ĠD ave
Ġunh appy
Ġgre edy
Ġd are
Ġal ive
Ġbreak s
Ġen er
Ġcou rage
Ġinv it
Re ady
Ġrepe at
Ġdem and
Ġtrust ed
L isa
Ġsome where
arl ie
Ġprun e
b les
Ġwre ck
Ġ Y
Ġsk ill
Ġexam ine
Ġpar ts
y ear
Ġeat en
o e
A ll
er c
en ry
Ġm ention
Ġrain ing
ĠHel p
B uddy
Ġthrow s
Ġjog ged
que st
Ġstar ting
Ġr ush
Ġpo ison
Ġpir ates
he art
Ġv ac
Ġcont ent
Em ma
ĠK iki
Ġs igh
Ġfl apped
Ġdrop s
Ġch irp
Ġsp ort
Q u
Ġspark led
ĠZ oomy
Ġgi ven
Ġstre ng
Ġste el
A nn
Ġbump ed
Ġyaw ned
Ġstu d
Ġre quest
Ġsco ld
Ġmy self
Ġstreng th
Ġshr ugged
M ark
Ġcoat s
Ġpun ish
Ġe qu
Ġsn ugg
Ġuniver sity
Ġpa id
ĠJohn ny
Ġpig s
Ġscr atch
Ġto e
Ġex erc
Ġtra cks
Ġup stairs
Ġpray ed
Ġcross ed
Ġsquee zed
Ġimpress ed
Ġfl ood
Ġboun cing
ĠR u
Al ice
Ġrabbit s
g es
Ġbad ly
. .
Ġwar n
Ġle ather
Ġex pect
Ġnew s
Ġt ide
ĠT ed
Ġmin ute
Ġbear s
Ġclaw s
Ġbu zz
Ġsweet heart
ĠS m
y th
Ġn ation
S h
yth m
Ġvac ation
Ġhis t
Ġhe at
Ġstraw berries
Ġobser ve
Ġexplor ed
Ġsett le
Ġsandcast le
Ġyaw n
Ġhist ory
ĠL illy
ĠL ola
m are
ĠM ummy
ĠS que
i ally
in king
Ġbelie ved
Ġhor ses
Dad dy
ĠH oppy
Ġche cked
ĠM andy
Ġto ur
Ġnet work
Ġchee k
ĠU nder
Ġoff er
Ġeas ily
Ġpl aced
s pec
Ġspot s
Ġsnow ball
we en
m en
Ġener gy
ĠB ee
Ġimag ination
Ġblue berry
ott en
Ġbet ween
spec ially
ĠG igi
iz es
Ġd aisy
Ġwa ving
ree ze
re at
Ġv room
Ġso ak
Ġsaf ari
Ġrh ythm
Ġmass age
Ġstom ach
Ġb aking
qu ake
Ġnight mare
Ġins isted
Ġblow ing
Ġent ered
Be fore
Ġst air
Ġp alm
Ġbeaut y
Ġtw isted
Ġb other
Ġwr iting
Ġsc oop
Ġprun es
Ġbra in
Ġ ing
ip ment
Ġpo ppy
Ġhill s
n oon
Ġafter noon
Ġequ ipment
Ġe specially
he st
Ġs ir
Ġp ad
ĠS ee
Ġing red
Ġcall s
Ġingred ient
ĠFo x
Ġearth quake
Ġignor ed
ĠSnow y
Ġburn ed
Ġno body
m ble
Ġst y
ap a
Ġse w
Ġt ug
is ty
xy gen
Ġhear ts
Ġle ar
Ġlear nt
Ġlemon ade
Ġincre ase
ill ie
J enny
Ġg az
Ġback pack
Ġmail man
Ġwhist led
Ġped al
ĠS k
F red
Ġshop keeper
ff ic
Ġperm it
Ġtre mble
Ġy ucky
ang es
Ġmove s
Ġintrod uce
Ġlem ons
Ġcra sh
Ġbean s
Ġflo ated
ed n
edn esday
itten s
W elcome
Ġplan ned
Ġstri ke
Ġtra ffic
Ġinclu de
Ġsl ap
Ġrac ing
ĠL ucky
res ses
Ġwis dom
Ġp ur
Ġwag s
ĠFin ny
la imed
ĠG eorge
Ġl uck
Ġ Ċ
Ġfollow ing
Ġpri ce
ec ting
Ġm ama
Ġp itch
Ġbel ow
ĠE lly
ĠH ave
L e
Ġwe ight
Ġexc laimed
h ouse
Ġbu ried
Ġfollow s
Ġcom f
Ġingredient s
Ġrecogn ize
Ġf urt
t ain
Ġcand les
M imi
Ġmar bles
ri age
und ay
em ember
er ation
ĠA lex
Ġap art
ĠW ednesday
Ġgrowl ed
ĠS u
uc t
ore s
Ġcon f
Ġteach ing
Ġhop es
Ġfold ed
Ġclose ly
ĠFin n
ĠWh o
Ġhe el
ĠS unday
Ġencou rage
ĠP aul
ĠOw l
Ġz igzag
Ġpull ing
Ġd igg
Ġboun cy
Ġfurt her
Ġchew ed
Ġdigg ing
Ġwin ning
W oof
W ith
Ġd resses
Ġim age
re c
c ery
Ġshout ing
Ġgro cery
Ġtw isty
Ġpeanut s
Ġpuzz les
bb ing
ĠD og
l ook
Ġscr at
Ġch ores
Ġwhisp er
ĠI s
Ġsp ike
ĠFr oggy
Ġc ape
Ġsn ail
Ġacorn s
Ġworm s
h ood
Ġdeep er
Ġur ge
if i
Ġexp er
ĠWhen ever
ĠT illy
ĠSque aky
ĠGra ce
Ġplan ted
Ġatt ention
ec ture
Ġexerc ise
ĠDan ny
Ġcu b
Ġop eration
Ġunder ground
Ġh on
Ġag re
Ġqu ite
Ġcreature s
Every one
Ġs imp
Ġstrugg le
or al
ĠM ittens
dd y
Ġbl ood
Ġl ecture
Ġwas hing
Ġhurt ing
Ġvan ished
Ġgif ts
Ġdress ed
Ġinvit ation
Ġsol ved
Ġli cks
Ġsnugg led
ĠSh aring
i ppy
Ġb le
Ġmar riage
Ġquiet ly
g ie
Ġwar ning
Ġj azz
Ġbreat he
rec i
Ġelephant s
Ġs izes
Ġd ried
Ġfall en
Ġland scape
or ies
Ġspr ink
Ġneighb our
Ġm ice
u esday
Ġapp reci
ĠS ophie
ĠJoe y
ĠâĢ ĵ
Ġeag erly
Ġsail ing
ĠCo co
Ġpa used
ip s
Ġcount er
ĠG ood
ĠBoun ce
ĠP enny
Ġwor th
look ing
ĠR ock
Ġo xygen
B ecause
Ġre lease
Ġshin ed
N ot
p ted
Ġre aches
Ġbal an
ĠZ ara
is ses
Ġo h
Ġk isses
Ġsty le
Ġbri cks
Ġgl o
Ġplay s
ĠT uesday
Ġide as
s ed
Ġin st
Ġw ob
Ġfirework s
B ella
igg ly
uc ked
Ġsee ing
Ġfl ap
op s
Ġacce pted
r ight
ĠP ip
To day
Ġbl ink
m m
ĠR os
Ġtre mb
The se
Ġmu ddy
Ġmem ory
Ġmar ried
Ġtomato es
Ġex it
ĠAnn ie
Ġwag ging
Ġfa sh
R emy
ĠCh arlie
Ġwander ed
un ately
ipp ing
Ġglo ves
Ġcap tain
Ġpillow s
Ġrece ive
Ġres p
ĠP inky
ra ged
Ġd uring
ĠEvery thing
et ch
Ġwe b
Ġpet als
Ġwater ed
ĠE ventually
Ġs i
i ved
Ġman age
Ġpin ched
Ġbr ings
Ġvan ish
Ġcake s
Ġfash ion
ĠBlue y
Ġprin ter
Ġdestroy ed
Ġtreasure s
n ce
Ġall ow
up s
Ġhad n
Ġwor se
ĠF ifi
S urpr
Ġve l
Ġhit s
Ġb ur
x u
Ġvel vet
Ġapp ear
d o
Ġdisag ree
Ġcatch ing
Ġscatter ed
ĠR o
Ġmem ories
Ġsor ts
ĠP apa
Ġher s
Ġscold ed
Ġsign s
Ġpe ars
Ġor anges
Ġb ones
Ġran g
Ġsn apped
Ġsit s
Ġseat s
u xu
Ġgaz ed
Ġra ised
B l
ĠMar ia
Ġz ipped
Ġp ies
Ġprin ts
Ġsh ot
Ġslid ing
ĠGo d
Ġfr o
Ġeas ier
ss ible
Ġskill s
Ġclimb s
Ġtwir led
c cer
Ġblanket s
Ġforg otten
Ġba ked
e ster
Y um
ester day
Ġdiffere nce
or ted
Ġl uxu
Ġgold en
is ing
Ġk itty
ĠT w
Ġcut ting
Ġse ason
ag gie
Ġnow here
Ġcr ow
a h
Ġso ccer
Ġd ared
Ġbit es
ĠH enry
ĠH arry
an ny
Ġl ung
Ġcelebr ated
ch oo
ch ie
Ġstra ight
Ġunl ocked
st ers
Ġsor ting
Ġcoll ected
Ġble ed
ap ed
d ing
Ġwelc omed
Ġvis ited
Ġspoon s
Ġour s
Ġst itch
Ġjog ging
Surpr ise
med i
Ġem er
ĠSp ark
medi ately
Ġis n
Ġto ng
Ġtra ve
Ġwin ner
um ble
Ġs ince
Ġru in
Ġpret t
O k
M oral
ĠT ony
Ġatt ached
Ġweep ing
Ġmarch ing
Ġluxu ry
Ġsimp le
ĠE ach
Ġshould n
Ġguess ed
Ġz ero
Ġcre ated
Ġstuff ed
Ġpet s
ct ion
Ġwa ist
Ġfam il
Ġur ged
Ġbow ed
Ġsell ing
Ġflo ating
r r
ĠSm ith
Ġby e
ĠK ing
Ġv ict
Ġking dom
Ġolive s
Ġkick ing
ĠW iggly
Ġpun ished
ĠL iz
ĠB aby
s it
Ġto es
Ġgr ant
Ġmus cles
Ġjewel s
ĠRos ie
Ġbed s
Ġmel ted
Good bye
Ġsl ice
Ġgr in
Ġunderstand ing
Ġcollect ion
Ġto re
Ġmeas ured
ak er
Ġcra s
omed ay
i ers
Ġtra pped
Ġl ined
' ve
Ġac ted
fort unately
Ġencou raged
v a
ĠS andy
Ġrece ived
Ġwaff les
ĠBe fore
ĠW ally
Ġwe st
Ġme ow
ent s
Ġpattern s
r in
in o
Ġbr us
e ath
Ġmouth s
k ins
Ġb ang
r ing
ĠK ate
Me ow
Ġpe aches
Ġb reeze
ad ed
un e
Ġprin ted
Ġsold iers
Ġs omeday
Ġpotato es
Ġpup il
um es
ĠM illie
Ġdrink s
Ġshe d
Ġexper ience
ĠT una
Ġpresent s
Ġfire f
ĠRu by
Ġsur round
Ġn one
os ed
e ep
Ġvoice s
Ġdr inking
ĠUn cle
is hing
Ġrelax ed
Ġvict ory
c us
Ġpaint s
Ġbre aking
e ve
Ġhur ried
iss ion
Ġtw ink
Ġtong ue
Ġcost umes
Ġfl at
Ġmention ed
Ġbeg ged
Ġte asing
Ġwhist ling
Ġf etch
Ġperm ission
Ġs ip
Ġdisag reed
Ġpe arl
ake s
Ġstr o
ve st
ĠThe se
Ġe sc
Ġapp ro
Ġsk ipping
Ġfis hing
ĠM ay
Le o
Ġhig hest
Ġp ra
Ġwat ches
Ġsor ted
Ġring ing
sh ip
Ġto night
ĠB o
Ġop in
Ġlet s
ic ing
Ġ Qu
Ġperfect ly
Ġshadow s
Ġim mediately
Ġherb s
Ġwarm th
Ġsp it
t her
Ġremain ed
ĠIt s
w alk
Bob by
irr ing
J en
Ġsne ak
Ġs ix
Ġlip s
Ġkneel ed
Bl ue
Ġcont est
ĠC he
ut ter
Ġcartoon s
Ġside walk
Ġcol ours
Ġstamp s
Ġag o
H a
ĠT oto
ĠB oo
ĠFo llow
o ved
Ġe ast
Ġhead ed
" ,
Ġstr ang
Ġlady b
Ġf ed
Ġsupp osed
Ġroot s
Ġli ck
Ġcr unch
Ġmix ing
Ġwork s
Ġdecor ations
Ġmelt ing
Ġkn own
Ġemer gen
M andy
Ġrest ed
ĠA b
Ġl ines
ĠSu zy
Ġl ily
ĠJ ul
Ġinst r
Ġla id
ĠG r
Ġsucceed ed
Ġcon es
Ġwigg le
et y
s ing
Ġsh ock
Ġset ting
ĠS low
Ġstud ied
Ġstrang ers
ĠRock y
Re ally
Ġtwig s
Ġbr id
Ġtheir s
ĠD r
Ġgirl s
b oo
!" ,
Ġscream s
Ġland s
Ġord ered
Ġst irring
Ġmoment s
Ġfield s
Ġal right
Ġsteal ing
d ed
And y
Ġr ul
Ġbrave ly
av id
ĠB oth
Ġm ister
! '
Ġin vest
Ġscrat ched
Ġplay time
Ġri pped
Ġinvest ig
Ġt ucked
Ġburn ing
Ġrest ing
is hes
ĠCl ara
ĠCh icky
Ġbrid ges
Ġoff icer
p lease
Sam my
B ird
ab ies
Ġsett led
Ġmat ched
Ġa chie
Ġte x
Ġtex ture
H appy
Ġwait s
Ġturn ing
ĠSk y
P eter
or ed
Ġtremb ling
ist en
Ġnail s
at ie
Ġmuff ins
ĠSome one
id s
Ġesc aped
ĠJ ames
Ġpile s
Ġinvestig ate
os ity
Ġbro om
Ġladyb ug
Ġso re
ĠPe pper
Ġappreci ate
Ġadm ir
Ġth reat
Ġb abies
Ġsil ence
Ġsister s
Ġemergen cy
Ġare a
id es
Ġdad s
Ġansw ers
Ġpu pp
Ġkey s
Ġchew ing
Ġsl apped
Ġw iz
Ġimport ance
B oo
Ġser ved
ĠH op
Ġsaf ety
iz ing
B u
W ould
Ġspark le
Ġtouch ing
ĠL ater
Ġso ared
ig ail
Ġs ings
Ġhe n
all en
E lla
b ers
ant ly
Mom o
ĠD ino
Ġkeep s
Ġamaz ement
Ġch allen
Ġtw in
Ġhe sit
Ġreveal ed
an na
ache l
Ġit em
Ġd ire
Ġso aked
z ing
Ġwr it
Ġfood s
Ġrid es
Ġdinosaur s
Ġrecord ed
Ġtick le
Ġin ch
ĠZ igzag
ĠM e
Ġwiz ard
Ġv et
Ġtrip s
Ġglow ed
ĠA n
ĠFr og
M mm
Ġh i
Ġbe amed
Ġqu ack
Ġcur led
Ġha ted
Ġw ink
Ġsho pping
Ġeat s
E ventually
ĠB ug
Ġpra ised
Ġwood en
Ġbring ing
Ġmitten s
Ġstudy ing
Ġgu y
Ġbrus hes
Ġspace ship
Ġg ust
Ġcraw ling
ĠSomet hing
C at
Ġrul er
Ġfl av
Ġdown stairs
Ġshoot ing
Ġtast es
Ġn apping
Ġsprink les
Ġmark s
Ġcudd led
Ġd ot
he llo
pl ash
Ġf ut
a les
a ved
Ġfut ure
Ġmon sters
Ġcoll ecting
Ġmeas uring
ĠH appy
' .
Ġfamil ies
ĠO ut
ĠF irst
ĠM o
Ġth rill
Ġo at
ir ts
Ġres ult
J ake
Ġappro ached
ĠR abbit
Ġcrunch y
a ct
U n
Ġrem em
Ġbleed ing
Ġremem bers
Ġn icer
Ġbe at
Ġsne aky
Ġdisturb ed
Ġlead er
Ġsc aring
O r
h ind
Ġpe el
ĠH ope
Ġfire men
Ġneighbor hood
ĠSt ar
Ġgre y
ĠN ot
Ġmot ion
Ġno on
Ġpo ssible
Em ily
S omet
Ġapolog ized
Ġwe ighed
u es
ĠD id
Ġticket s
C l
Ġnap s
Ġloo se
Ġpr ide
Ġyou th
Ġswim s
p ed
Ġstr ings
Ġrecogn ized
Ġsi ren
Ġpo king
f ied
ĠH o
c ious
h a
el vet
Ġtri cked
Ġwonder s
Ġgain ed
Ġwant ing
Ġcras hed
Ġo be
Ġsees aw
Ġwork er
unn ies
l s
om ing
Ġdraw s
Ġscoop ed
. '
Ġzoom ing
Ġopin ion
Ġyell ing
Ġprep ared
Ġgrin ned
ĠSlow ly
Ġa we
Ġpoem s
Ġdog gy
Ġact ing
ĠBe ep
Ġhapp iest
Ġche f
Ġsne aked
Ġresp ons
Ġe ff
ĠAl ways
ĠL izzy
Ġown ed
Ġb unnies
Ġany time
Ġstr uck
Ġped als
oy s
Ġkn elt
en a
O llie
Ġsecret s
Ġp ause
Ġdecor ated
Ġhorn s
Ġagre ement
ĠS qu
id ed
Ġfr ost
Ġtall est
Ġobe y
riend s
R emember
og o
ĠSt op
H ave
Ġdecid es
Ġ Once
Ġbeh aved
Ġt ugged
Ġs ides
Ġw oof
Ġsl im
z en
Ġgood night
Ġkeep er
Ġspark ling
Ġchirp ed
Ġpre cious
m other
l ier
i en
T r
Ġrepe ated
u d
Ġclap s
ind y
aff es
Ġsnowball s
Ġcont ain
r s
ĠR ay
Ġour selves
all ow
Ġgir affes
Ġbalan cing
Ġkind ly
Ġspend ing
ay s
Ġwrit es
pp ers
ĠL ike
om as
Ġpr op
Ġhis sed
F irst
Ġfro zen
Ġfrost ing
Ġeff ort
Ġbuzz ing
Ġstrugg led
o h
ĠSt eve
Ġadmir ing
Ġre le
ig gy
Ġsweet ies
ĠV elvet
Ġslim y
Ġbr ushed
Ġbloom ed
S usie
ĠA m
Ġpol ished
an ted
ĠZ oe
ar th
Ġcomf y
Ġb oo
Ġstay ing
Ġru bbing
D ucky
Ġrock ing
Ġpocket s
Ġthrill ed
Ġbe side
Ġcomp le
ĠA unt
ĠM aggie
A h
Ġe ight
ur ry
is dom
Ġmach ines
Ġear lier
Ġy esterday
Ġseem s
Ġr ust
ĠK eep
S p
Ġtrave led
Ġfold ing
Ġbo om
Ġcra cked
it ies
Ġhug ging
Ġrad ishes
ĠSt itch
Ġopen ing
Ġlo ving
Ġcir cus
Ġsurround ed
Ġcuri osity
ĠR achel
Ġspray ing
Ġdemand ed
Ġpaint ings
am ie
ĠG reen
Ġrem oved
Ġg aze
Ġhon k
Ġpebb les
Ġzoo keeper
Ġhard ly
Ġcat ches
ed ding
Ġst ing
Ġstri pes
Ġpow ers
Ġload ed
ĠPipp a
Somet imes
Ġsplas hes
Ġpot s
Ġpet ted
Ġmatch ing
ĠD avid
Thank s
Ġst are
Ġto ss
Ġbe lly
Y ummy
i bb
Ġwhat ever
Ġapolog ize
Ġro cked
Ġcomf orted
ĠB ree
Ġdec ision
Ġribb ons
ĠJ oy
ĠBird ie
er n
Ġstrugg ling
Ġex pected
Ġdes er
Ġste ep
w h
Ġprot ected
Ġneighb ors
Ġsmile y
Ġchase s
D uring
Ġgr anted
Ġcr umb
ĠM at
Ġpur red
Ġdi ving
Ġsad ness
Wh iskers
Ġorgan izing
low ers
Ġeag le
Ġhero es
Ġd ipped
Ġsun light
Ġli ed
Ġpastel s
ĠFr ank
E x
Ġsaf er
Ġroad s
Ġscr u
Ġarg ued
ĠM illy
Ġgo als
ĠW ater
Ġdisco very
ĠAb igail
Ġvill ag
Ġpe ered
R o
ĠBoun cy
u se
Ġt im
an a
l oe
Ġdrag ons
Ġbuild ings
Ġbucket s
Ġpart ies
Ġbe ard
Ġw edding
R ex
Ġfl utter
Ġplanet s
Ġan n
ĠRob by
Ġpol ishing
Ġfa sc
ir a
Ġrele ased
ĠCh r
Ġcrab s
ĠG ogo
Ġtail s
ĠW atch
Ġsaus ages
ĠJ u
Ġar gu
Ġcont ro
Ġbott les
Ġwigg led
Ġte ased
u ke
Ġargu ing
Ġsl ed
Ġdrag ged
Ġpad d
ĠC ar
Ġro aring
Ġcle aring
Ġsh irts
Ġmov ies
Ġgather ing
Ġair pl
Ġw id
joy ed
Ġteac hes
Ġspid ers
Ġl imes
ĠR emember
ĠD are
Ġover joyed
Ġact ually
Ġsigh s
Ġcontin ue
Ġcudd le
Ġso aring
ĠJ ess
Ġsmall est
Ġdri ves
Ġspark les
Ġri p
Ġsit u
Ġcub es
Ġref res
Ġtal ent
Ġchallen ge
ĠO lly
Ġgrand mother
ĠS plash
um m
Ġpour ing
Ġpretend s
Ġfasc in
Ġcut s
Ġpe ppers
Ġb ank
Ġshiver ed
Ġman e
Ġquarrel ing
Ġdust y
le y
Ġwonder ing
Ġvillag ers
Ġstretch ing
n joy
i b
Ġweek s
Ġwhere ver
Ġdark er
j am
T iny
s ses
Ġ X
Ġr ings
Ġon wards
ĠK atie
Ġun ited
A choo
Ġbe ad
ĠEvery day
ĠBe ing
John ny
Ġprett iest
Ġc aut
Ġreal ize
Ġcomp any
Ġpengu ins
anna h
L una
F r
ĠSp ring
Ġbed time
Ġcomple ted
ĠW isdom
ĠLe ave
âĢĿ .
Ġknight s
Ġflag s
ĠJ e
ĠB ecause
Ġplay room
ĠP rin
Ġact ions
ĠZ ero
Ġlearn s
Ġgot ten
Ġpat ience
ind a
d am
Ġshr ug
Ġkit es
Ġrespons ible
Ġfe ars
Ġdest ination
Ġwire s
Ġrep ly
Ġwr ist
Ġd am
aw s
Ġpack ing
Ġmountain s
Ġfa ult
Ġapplaud ed
Ġm a
Ġscru bbed
Ġcre pt
ĠA va
U h
ĠE arth
Ġsat is
Ġth ird
Ġph ot
Ġpencil s
Ġwin s
Ġstick ing
Ġb aker
Ġvisit ing
Ġw ound
Ġuse s
Ġpe as
Ġremind er
Ġcontro l
as hed
Gra ndpa
Ġjo king
Ġaw ake
Ġinstr uct
Ġstar ing
Ġheal ed
ĠP ut
Ġh itting
ĠF ish
Ġscream ing
Ġbeg in
R ob
uck ily
ĠF riends
ĠM oo
ic orn
ent y
Ġhelmet s
Ġun icorn
l er
se ek
Ġtowel s
S illy
ĠL ou
Ġch ips
ic a
Ġcre ation
Ġwas ted
b ie
M ar
ĠBe hind
la ire
Ġmask s
Ġitem s
Ġforg i
Ġfiref ight
Ġout do
Ġlollipop s
W atch
Ġhe av
Ġgun s
Ġd ied
ĠH ippy
Ġse as
Ġgl itter
udd les
Ġarri ve
Ġwere n
Ġsto le
Ġsc ales
Ġper ched
Ġac com
Ġlog s
Ġachie ve
d ie
Ġpract icing
in ing
Ġwho se
St ay
Ġpump kins
Ġinstruct ions
Ġsw oop
Ġbatter ies
Ġcand ies
Ġagre es
Ġpro ject
Ġsnake s
Ġchirp ing
Ben ny
Ġshe lves
Ġprot ecting
Ġpar ked
Ġex act
ĠC ra
Ġpatient ly
Ġact iv
Ġvide os
Ġshould ers
Ġblow s
he e
F o
Ġprom ises
g o
Ġd ent
us an
ue st
n ers
jam as
Ġexam ined
Ġairpl ane
D oggy
Ġro ses
Ġaccom pl
Ġtask s
D ave
ĠHo ot
P oppy
ĠB op
B unny
Ġbead s
Ġbowl s
Ġcrumb s
z es
Ġlisten s
ĠL ove
ĠCat ty
ĠBrown ie
P ete
ĠO l
Ġdolph ins
Ġc ough
Ġb unch
Ġg uest
c akes
Ġrequest ed
Ġrem ote
Ġimpro ved
ant a
Ġreach ing
Ġbra nd
ĠJ an
ay la
Ġal ien
ĠB ye
ir m
Ġcop y
ĠS un
Ġcheer ing
Ġphot os
ĠJul ie
ĠChe w
B ad
ĠBl ink
T ime
Ġcan s
ĠC uddles
Ġtim er
ĠB y
Ġrepl aced
ath y
Ġwork ers
Ġst ern
ĠE njoy
ast er
Ġne ither
M ike
Ġpass ing
Ġmis ses
Ġcurtain s
Ġconf l
Ch irpy
Ġrainbow s
Ġrub s
G eorge
uct antly
Ġroll s
Ġpat ted
il o
Ġpa jamas
Ġoutdo ors
es ome
d ies
Ġcomplain ing
ĠSqu irrel
L ola
R un
Ġpupp et
ĠPrin cess
Ġclose s
Ġben eath
Ġla p
Ġdrum s
Ġt une
ĠB eth
ĠM ouse
Ġfill ing
M iss
ang led
Ġref use
ĠS orry
Ġswe at
Ġfa ced
.. .
Ġse ven
Ġbalan ced
b l
Ġresc ued
n eath
Ġqu acked
ĠA bby
P aul
ist le
Ġaw esome
Ġ 1
Ġmiss ion
ĠHow ever
Ġguy s
Ġconfl ict
Ġcaut ious
Ġv ent
Ġobser ved
Ġc ause
Ġintrod uc
ĠTh omas
Ġpast ries
n ie
Ġ Ġ
ĠO ur
Ġexact ly
Ġdoctor s
Ġru le
Ġbec oming
Ġm es
Ġpolice man
y ou
u ly
Ġrocket s
Ġ Yes
ĠD ot
l ay
Ġfair ies
Ġp out
A n
Ġins ist
Ġbloom ing
Ġtra ctor
Ġfar ther
ĠS ad
av i
O ops
G reat
Ġremember ing
Ġinclu ded
Ġcur ly
Z oom
F ine
Ġteam work
z ie
Ġfascin ated
Ġwob bled
Ġsl am
Ġtr uly
Ġhelp ers
Ġsight s
Ġpad dle
Ġst umble
Ġf irm
H enry
ĠJ illy
ac ob
Ġca used
Ġpray er
Ġsp ong
Ġrecord ing
ke lly
a is
Ġtr aded
Ġstar fish
Ġsupp lies
Ġth ro
Ġpoin ty
Ġsitu ation
Ġinv iting
e ah
g ers
Ġneighbour hood
Ġevery day
Ġornament s
ĠA lly
ink le
Ġval ued
Ġadd ing
S ome
Ġrel uctantly
Ġdot s
Ġstay s
Ġtable s
Ġprett ier
Ġb are
Ġdes ert
Ġsnow men
Ġste ady
Ġminer als
ara way
Ġth orn
o dy
Ġa st
Ġgl asses
Ġf araway
ĠG et
ĠFo xy
Ġswoop ed
ĠW elcome
ĠTw o
ĠS ure
Ġun f
Ġfork s
Ġus ually
Ġus ual
P olly
Ġd ar
ĠJ amie
Ġwin ked
Ġsnee zing
Ġsol ut
Ġload ing
Ġspong e
ĠQu ick
Ġinsect s
Ġpan s
D og
Ġso bbed
ĠS anta
J ames
Ġgrowl ing
s m
ar ter
Ġthro at
ĠCh loe
Ġno ses
ĠJo sh
ĠD izzy
Ġscar ves
Ġconf ident
Ġyour selves
ĠW ant
ag ull
Ġhome work
Ġsuperhero es
ĠSt ay
Jo ey
Ġsm arter
Ġwind y
Ġlibr arian
T ina
ĠK ids
Ġgem s
D ays
or a
Ġunder neath
Ġkick s
Ġknow led
Ġitch y
Ġknowled ge
Ġjacket s
ĠS kelly
ĠF or
Ġsurf ace
Ġunt ie
Ġcom m
ĠD uck
Ġprince sses
.. ."
Th ose
id o
e ed
H old
Y eah
c oon
Ġsquare s
ĠH enny
Ġwarn ings
Ġgigg ling
i ar
Ġread s
v in
O ur
Ġch oo
s on
Ġyou nger
Ġclown s
ĠM ix
T oby
Ġro pes
Ġbit ing
Ġcrow d
ĠUn fortunately
p ite
D anny
Tr ue
Ġse agull
Ġpadd led
Ġwear s
Ġdeliver ed
ĠM on
Ġtwir l
Ġon ions
Ġbuzz ed
Ġcomplain ed
Ġb umpy
Ġst em
E w
Ġpig gy
Mr s
ĠAnn e
ou ch
Ġdire ction
Ġdi ved
Ro ar
Ġt angled
Ġstart led
ul ts
Ġlean ing
bb ie
ĠA nt
ĠJ ones
Ġbad ge
ĠP o
Gra ce
Ġun p
Ġde al
th ough
Ann ie
Ġv owed
Ġnap kins
an es
Ġtick led
Ġr isk
Ġcover s
Ġp ec
Sh h
Ġyell s
Ġsatis fied
in t
Ġknock s
Ġrefres hed
t uce
ĠS c
cu se
Ġc ous
Ġarrow s
M aggie
ĠWh istle
P e
Ġwip es
Ġspe aking
Ġlet tuce
Ġguess ing
Un fortunately
ĠQu ack
Ġri pe
ĠS usan
Ġhid es
Ġchoice s
ĠDo do
ĠRo ver
Bu zz
Ġsign ed
Ġslow er
Ġseek er
Ġintroduc ed
Ġsing er
Ġcreat ing
ĠMat t
Ġfro ze
Ġc ent
ugg les
Ġjo ked
Ġsque al
Ġtoast er
Ġexplore rs
f it
Ġav o
ang ing
S ophie
Ġpray ing
Ġwr itten
Ġdiscover ing
Ġprov ided
ĠD ara
Ġref le
ĠL ion
Ex cuse
Ġmushroom s
ĠJe ff
ĠP aws
Ġpay ing
Ġkne es
ence s
Ġhid er
Ġwander ing
ĠAs h
Ġimag es
Ch arlie
Ġst ung
ĠW ink
Ġmagnet s
Ġbare ly
Ġtip to
Ġbeh aving
?" ,
Ġmar ked
br ush
rr r
Ġrest ored
ĠD ee
Ġlead ing
ll ed
Ġch uck
ad os
Ġn ine
Ġgre et
T eddy
Ġgear s
Ġbra very
k y
ĠSn uggles
Ġcompetit ion
e al
Ġout fit
ol ine
t le
Ġwis hing
Ġprop erly
Ġvent ured
a a
Ġmus cle
Ġdance s
Ġsal ty
Ġpen s
am b
Ġch at
ĠBet sy
Ġran ger
ĠZ iggy
Ġdeser ve
Ġhow ever
se qu
Ġmatter s
Ġdark ness
Ġbur st
ĠF u
Ġrain y
Ġcobweb s
Ġruin ing
Ġchef s
Ġcon sequ
Ġblock ing
Ġb ak
ust ed
it ely
st y
Ġsc ur
Ġv ines
ab el
Ġfa b
Ġfab ric
Ġent ire
Ġbase ment
Ġperform ed
Ġle ast
ĠBug gy
S n
Ġscrat ches
Ġheav ier
ĠC laire
Ġmin ts
Ġtwir ling
Ġavoc ados
How ever
ĠL inda
r ink
f l
Ġscur ried
Ġlo sing
Ġsunf lowers
ĠJen na
Ġrain co
Ġsword s
T weet
Ġcl ick
ag ic
ĠL aser
Ġsil ent
Ġjob s
Ġnecklace s
Ġfl ames
ĠL uke
Ġrelie f
ĠGr umpy
Ġsn at
Ġsew ed
Ġrot ting
l en
Fo llow
Ġtrick y
L isten
J erry
Ġlight er
oph ia
Ġbow s
ĠSk ip
Ġex ha
Ġsolut ion
Ġconsequ ences
A lex
ĠL ena
Ġtire s
Ġst ain
Be ep
Ġunp acked
A b
Ġpart ic
r ance
Ġrace s
Ġp ins
Ġbump s
Ġwrap s
ais ies
Ġw ow
Ġdecor ating
Ġb acked
c her
Ġdent ist
Ġpur r
Ġneed les
Ġcautious ly
izz ie
Ġlift ing
ĠP r
Ġaccompl ish
Ġtriang les
Ġd aisies
ep t
Ġhesit ated
Ġann oy
ĠTh ose
Ġgrowl s
Ġcrack ers
o ke
Ġstom ped
Ġgra bbing
Ġc ott
Ġfig ured
Ġbo dies
Ġm ater
Ġbuy ing
ĠT ree
Ġmater ial
ĠR olly
ĠF ido
ĠA dam
Ġswan s
Ġt ies
Ġg ri
ver s
Ġgrow s
Ġ ĊĠ
Ġsweet s
ĠGood bye
Ġown ers
Ġflav or
Ġcheek s
ĠC athy
B ig
Ġsuffer ing
ĠJ essie
ĠE l
v room
Ġfa ct
Ġgroup s
b ly
Ġfore head
Ġlung s
H arry
Ġre pa
Ġinterest ed
Ġbak ery
ĠM ilo
Ġf reed
L illy
it ches
ĠNot hing
Ġchuck led
F or
Ġsw ept
Ġcon n
? '
Ġthu d
Ġexha usted
T w
Ġtwink ling
Ġt apped
R u
Ġne ct
ro sty
Ġnect ar
ell e
Ġfe ast
Ġdar ling
ind r
ĠM ad
Ġwor ries
Ġun s
Ġtunnel s
Ġfu zzy
Ġrepa ired
Ġre ason
ĠTr ust
ĠCo pper
ĠB all
Ġactiv ities
le ts
Ġpec ked
ĠH annah
Ġent rance
ĠT ry
Ġra indr
Ġme als
ĠL isten
Ġpartic ular
Ġcomplet ely
Ġma iled
ct ions
Ġnest s
Ġwait er
Ġcudd ly
Ġs ense
ĠN ana
Ġcolor ed
ark y
Ġle ap
st ep
b and
Ġpl enty
Ġpee king
Ġslam med
ĠC ara
n o
Ġplay ers
Ġmon th
ĠB irthday
Ġbu dge
Ġ Q
Ġsc ra
Ġforget s
Ġd en
Ġhand ful
ĠOl iver
Ġm er
o ssible
Ġgen ie
ĠChr ist
Ġst ool
igg ie
Ġtalk s
ĠP up
ĠSu zie
Ġpassport s
Ġfeed ing
Ġfilm s
Ġbath s
Ġimp ossible
Ġdeterm ination
M ay
Ġprin ting
bo at
Ġdesign ed
Ġbu ses
Ġo pp
ue en
le phant
Ġsuit case
Ġbar s
Ġcount s
Ġsto len
Ġspread ing
Ġspike s
ĠSn ap
Ġwip ing
Ġste er
Ġl amb
ĠR ain
Ġhon ked
et ty
n ies
W hee
Ġcow b
Ġsepar ated
bl ings
Ġsi blings
Ġhop s
Ġch op
Ġsew ing
Ġfire s
ĠTw inkle
Ġfe ver
Ġtwink le
Ġt y
Ġcamp ing
ĠM ira
Ġl ower
Ġch anging
y es
ret ch
b ut
Ġbeh avi
ĠBl oom
m as
Ġli qu
Ġcelebr ation
Ġsqueal ed
Ġdoll house
S unny
Ġback ward
Ġag e
Ġsnat ched
Ġc ash
h o
Ġtw ice
le e
Ġs way
it ched
Ġcelebr ating
ĠPe anut
ri ous
Ġshr inking
Ġac he
we ed
Ġk ings
Ġshop s
Ġkitten s
c ope
R ose
ĠJess ica
ĠJ acob
ĠG ina
au ra
Ġh us
Ġtouc hes
air y
Ġpan cakes
Ġavo id
Ġsp at
ĠF rosty
r ig
h og
ĠN ina
n e
Ġpath s
ive s
ck y
ĠH old
Ġr otten
Ġcalm ed
S andy
Ġsea weed
Ġdro pping
ĠJ on
ĠM el
ile s
P ipp
Ġtwist ing
Ġstro ked
Ġunt ied
ll en
Ġplay house
M illie
c l
Ġstud ents
Ġpupp ies
ĠSo f
h i
Ġscrew s
Ġast ron
ĠR e
Ġsome body
ig ning
Ġliqu id
am my
Ġwake s
Ġsqu ish
ĠW oof
Ġbrace lets
Ġastron aut
im mer
are n
Ġthr own
Ġloop s
ĠO ther
L uckily
Ġwra pping
Ġpl ain
Ġtr amp
Ġplan ning
Ġsk unk
Ġa imed
Ġpen nies
Ġsh oo
Ġlift s
Ġdanc ers
Ġspark s
Ġfiref ly
p en
D an
Ġpo ster
y an
end y
Ġc ust
ĠChrist mas
Ġreward ed
Ġobject s
Ġdire ctions
us ing
ing o
Ġrefle ction
Ġhus band
âĢ Ķ
T ake
ri ver
u ppy
Ġcl ues
Ġlead s
Ġincre ased
Ġbl ocked
Ġr ising
Ġdo d
Ġcous in
ĠY esterday
ĠWith out
Ġforget ting
rig ued
Ġcust om
K ate
u de
Ġtramp oline
Ġbegin ning
Ġstore keeper
Ġpout ed
Ġzebra s
Ġhedge hog
Ġa ff
ĠâĢ ĺ
Ġborrow ed
ĠRo llie
Ġsnow fl
Ġcountry side
J ump
Ġmes mer
ĠJ ay
Ġvehic les
Ġinstr um
ĠM ic
ĠK ayla
ĠU p
Ġfrown ing
iv ity
P at
U nder
Ġmark er
y ond
Ġpres ses
Ġbe yond
ĠQ ueen
Ġdam age
ĠOn ly
ie ce
i very
Ġfar t
ĠT ara
ĠB iggie
j o
Ġheal th
Ġwhisp ers
Ġswims uit
Ġslip s
Ġn ibb
ĠJul ia
arm er
Ġwarm er
Ġfl apping
Ġtipto ed
Ġregret ted
itt ed
Z ip
Ġlay ing
ĠRob o
ad es
Ġy elp
ĠF ire
Ġrain s
Ġgl ued
Ġevery body
Ġcre ations
Ġhear ing
Ġsw ir
Ġcold er
iver sity
a el
Ġshap ed
ĠE lephant
Ġstreet s
Ġfin s
Ġrust y
Ġcush ions
O ut
Ġsa n
Ġfart hest
Ġcreat ivity
ĠMike y
an s
Ġsa le
Al ways
C o
Ġstrong est
ibb it
Ġfit s
ĠSpark y
Ġbell s
Ġdoll ars
ĠL arry
Ġe arn
i am
ang le
Ġlend ing
ĠM oon
ĠCh irp
ee se
Ġcash ier
M illy
Ġinclu ding
Ġsniff s
Ġsan k
Ġrainco at
ĠR ich
Ġtremb led
Ġsto pping
ter s
Ġsour ce
it i
im on
ĠMiss y
Ġwob bly
Ġind eed
Ġguest s
Ġsing le
Ġrecommend ed
Ġwe e
Ġspell s
Ġaccomplish ment
Ġbel ts
Ġsurpr ising
Ġend s
Ġhope ful
t he
Ġseas ons
ĠT ake
ĠSnow man
ĠE ls
B ear
Ġplan s
ich ael
Ġencou rag
Ġsupp orted
st ick
ill ed
Ġsuff ered
Ġart ist
Ġperform ance
e et
N ina
Ġslow ed
Ġg ross
Ġflav ors
id ing
ert ain
Ġsp ins
ch o
Qu ack
Ġlabel s
Ġraindr ops
Ġdel ivery
u ing
ara c
Ġrac coon
Ġforgi ving
ob ody
ĠW oo
Ġpour s
il ity
Ġvan illa
Ġturt les
Ġstand s
B ill
u ess
Ġrec ipe
Ġbe am
Ġt ying
ĠS w
Ġg eese
Ġwill ing
Ġrob ber
Ġdraw n
V room
Ġwe pt
ĠB ones
Ġch arac
Ġpop s
Ġcorn ers
ĠS ophia
el ia
Ġque ens
Ġsail boat
Ġgri p
Ġd ie
Ġdriver s
it ude
Ġm oo
Ġhall way
Ġimag ining
Ġsecond s
ĠFu zzy
M ine
Ġprep aring
Ġwid ened
Ġad ult
ĠSp irit
Ġgro cer
Ġc oop
Ġtalent ed
ĠP am
ĠBe aky
ĠI zzy
umm ies
Ġsail ors
ll ing
Ġso fter
Ġas ide
Ġwater ing
Ġsend ing
Ġknot s
Ġuns ure
Ġt ipped
L ulu
Ġtree house
Ġhor iz
ĠL izzie
Ġnot es
Ġe cho
ig ers
Ġachie ved
Ġhoriz on
Ġsque ak
Ġdeliver ing
Ġple asure
Ġhot ter
ĠSt ella
Cl ara
Ġpupil s
Ġbur row
Ġangel s
E llie
Ġy um
Ġcurious ly
Ġblin king
ĠJ une
Ġtw eet
Ġsymbol s
Ġd et
ĠSt retch
w k
Ġpass en
ĠRu dy
ĠC indy
Ġt ummies
Ġt iss
Ġpige ons
Ġfigure s
umb ling
o ey
Ġband ages
ĠRob ert
Ġc oup
ĠDo ctor
Ġrobot s
al ph
Ġtoss ed
Ġh our
Ġback wards
Ġro ars
B aby
Ġmer ma
u zz
Ġr ather
at ur
Mar ia
c ited
ĠP lay
ĠCra b
M oo
ight ing
Do lly
Ġgrocer ies
Ġzipp ing
P ut
V ery
Ġun w
p rin
Ġam ong
Ġbl own
Ġ icing
!âĢĿ .
Ġr umble
Ġafter wards
ipp er
Ġscrew d
us hing
Ġsp ed
Ġpr ove
Ġg lee
ĠT iti
ĠT ia
Ġd ip
Ġover come
Ru by
Qu ick
Ġsurf board
Ġshovel s
Ġslice s
ĠTo ot
Ġm erry
Ġwob ble
Ġm ate
ĠT urt
ĠA bbie
Ġhead ing
Ġdisturb ing
Ġsw all
Ġrever sed
Ġfirefight ers
J ul
Ġswall owed
Ġch ip
ed s
Ġsc ored
Ġfl ipped
ĠJ ump
Ġsquee zing
ust y
Fr ank
at y
S u
Ġwa king
Ġint rigued
S ad
L ike
Ġm aker
ĠB arky
aw n
B etty
Ġp uff
Ġha wk
Ġencourag ing
Ġa ud
ĠE x
os en
on ies
Ġch osen
ĠR on
he w
ĠF armer
ĠA ng
Ġcoup le
Ġdesign s
Ġslipp ing
Ġscrewd river
Ġsquish y
ĠEm my
Ġgarden er
Ġcent er
Ġriver s
Ġresp ond
Ġmark ers
ile y
Ġt igers
Ġjar s
pec ting
Ġfrown s
b ird
Ġflutter ed
ĠSad ly
ĠK it
R ibbit
Ġfirefight er
ĠS l
ĠR yan
Ġsuit s
Ġsec ure
Ġsprink led
Ġcream y
as hes
Ġshark s
Ġignor ing
Ġbr u
Ġgigg les
Ġtiss ue
Ġtight er
Ġfirm ly
oun ce
f ly
ĠL aura
Ġsh own
Ġfamil iar
Ġthorn s
Sp ike
ĠW o
Ġdraw ers
ch ild
ĠZ ee
Ġexp ress
C ar
ment s
Ġde f
Ġd aring
Ġcross ing
Ġaud ience
Ġperform ing
Ġcolour ed
Ġcloud y
Ġc or
Ġa is
ĠN ick
a e
r at
Ġpedal ed
G et
Ġmix ture
Ġt il
Ġgrace fully
g gy
Ġhaircut s
Ġyield ed
Ġp onies
Ġdis ob
Ġcrown s
Ġbit s
Ġto dd
ĠS leep
Ġnervous ly
Ġhang ers
bb led
ĠP atch
Z oomy
Ġpay s
Ġ 2
Ġpe ck
Ġe v
Ġstro ke
e en
B ang
f all
Ġres pected
Ġn apped
a ven
Ġmind ed
dd ie
B essie
ab ly
B oys
Ġtest ed
ad ing
p arent
ĠChr is
K im
ĠUn iversity
ĠN ear
Ġbee h
ĠTurt le
Ġsurf ing
Ġneighb ours
ar row
ver ed
Ġsh ady
ion a
arl ings
Ġmagic ian
Ġenthusia sm
Ġd arlings
Ġwis ely
Ġst itches
Ġsail s
ke nd
D ear
Ġwee kend
Ġthought s
Fred dy
ĠTweet ie
Ġremind s
Ġtemp er
or ing
th a
ant ha
Ġsurround ings
Ġspit s
Ġfle as
Ġteam s
Ġlesson s
Ġfill s
Ġfl ip
ĠAl ong
Ġpaint brush
Ġmel ons
Ġmerma id
on i
K atie
Ġgrand child
Ġexpl o
Ġhoop s
Ġel bow
Ġsport s
G uess
Ġli es
ĠF ighting
ra c
Ġpan icked
Ġclean er
Ġam ount
c used
Ġlong est
Ġscoot ers
Ġl ent
it a
immer ing
Ġs ill
Ġbel oved
Pipp in
Ġbeeh ive
Al right
ong rat
og a
ll e
ongrat ul
Ġoy sters
Ġgrand parent
Ġforgi ven
Ġmagaz ines
Ġar r
ĠW ise
Ġe lf
Ġrepe ating
Ġdiscuss ed
Ġsweet est
ĠThank s
K eep
Ġwa dd
ĠMay a
Ġre ass
Ġla ce
ĠGr anny
Ġnightmare s
Ġtub es
ĠW illy
Ġunderstand s
Ġspoon ful
Ġn ood
Ġbat hing
ĠZ oey
ast y
A m
Ġswe ep
Ġman ners
c row
Un cle
Ġwr ink
Ġspr ang
Ġn ur
Ġb ully
ĠH olly
Ġgu ide
ĠY et
on na
an cy
Ġc rew
rom ise
wh ile
J azz
Ġbreat hed
step s
ild a
ent ly
ĠB ally
Ġbulb s
Ġne are
Ġgrass y
Ġwigg ly
Ġtest ing
Ġsp ies
Ġc oug
Ġsol ving
Ġsheet s
ĠR oo
Ġfoot steps
nt il
After wards
Ġspeed ing
Ġfo cused
oun ced
ce pt
? !"
Ġmesmer ized
Ġcam el
Ġbra ver
Ġhesit ant
ĠSpark le
Ġlick ing
Ġr ushing
ĠW ell
Ġjoin ing
ĠP uppy
Ġpol ar
Ġgreet ed
ĠMar tha
es pite
- -
ĠBu bb
Wh ich
K iki
Ġwor n
Ġmaterial s
Ġch anges
ĠN obody
und red
Ġstor ed
Ġbicy cles
Ġm ast
Ġan ger
Le ave
Ġpeace fully
Ġship s
Ġsp ice
Ġterri fied
Ġn uzz
Ġg onna
ĠSh ow
Ġpol itely
Sn ow
Ġspill s
Ġscare crow
Ġkn ives
Ġev il
ĠMix y
pp ies
Ġbury ing
c a
Ġheal ing
Ġare n
Ġdon key
Ġaeropl anes
f reeze
E ven
Ġse als
Ġscatter ing
Ġm iles
ĠChew y
am boo
Ġd ump
Ġworry ing
B ee
z oom
be ep
D avid
ĠL enny
Ġpuzz led
Ġst acked
ĠK ip
P enny
ĠN ice
Ġlo ses
dd ing
Ġtrave lled
Ġbasket s
ĠW in
ĠO kay
Ġgaz ing
Ġbl ast
ip es
ĠT ess
H urry
Ġu nd
Ġtemper ature
Ġtast ing
Ġdri pping
Ġcl ue
Ġbelie ving
Ġpinch ing
er m
Ġso aking
Ġrat s
Ġ1 0
is c
Ġsand y
re ct
ĠIs n
ĠS imon
re y
an while
ĠAb i
B inky
Ġpunish ment
Ġban ged
Ġhuman s
Ġcras hing
Ġfor ce
ĠA na
Ġh undred
Ġg est
ĠL ia
Ġswim mer
ĠChe ss
Ġsnowfl akes
Ġrelax ing
Ġres isted
Ġbeep ed
ĠF airy
f orm
el ie
Ġquarrel ed
Ġr amp
ĠW endy
Ġjo ins
ab by
Ġbackpack s
ĠP h
year s
Ġdress ing
Ġdelay ed
Ġtodd ler
ĠL uckily
Ġfl ight
Ġcover ing
ĠT e
or ter
Tw o
O pen
B y
Ġencourage ment
Ġben ches
Ġtow ard
Ġscra ped
Ġpurp ose
Ġfo cus
ĠJu dy
B ow
Ġcor rect
' ."
Ġlip stick
Ġb amboo
S pe
Ġtwink led
Ġpot ion
Ġperm itted
Ġmonth s
ĠC ow
Ġlangu ages
Ġord ers
Ġfreed om
T ony
Ġrisk s
Ġpo ppies
Ġm aster
sh m
Ġnood les
Ġf aded
Ġwound s
shm allow
ri er
K ids
is ions
ĠJo jo
Ġcream s
Ġbird house
Ġcell s
Ġannoy ed
ĠHer b
op es
Ġsniff ing
Ġche ers
Ġad ults
Bird y
Ġunw ra
ec ca
Bu zzy
Ġp uck
Ġopin ions
Ġflo ats
and as
In stead
Ġfl own
Ġsnee zes
Ġsc en
Ġhands ome
Ġno dding
ĠM int
Ġsmell ing
Ġbur nt
Ġ 5
Ġdri fted
id er
b age
Ġwith in
Ġsc ient
Ġhe ight
Ġdam aged
Ġbother ing
Ġte aring
Ġsl ither
Ġple aded
Ġinstrum ents
Ġe ase
ĠAl i
d a
B ack
Ġscient ist
ĠMar ie
M ira
Good night
Ġp ound
Ġsell er
Ġhand ing
Ġg erm
ĠS ay
Ġwas ting
Ġfile s
Ġres ults
Ġdream t
ĠM abel
b ell
Ġexplain s
Ġdestro ying
Ġbrus hing
ous y
Ġhis s
Ġcharac ters
ĠR azor
ĠC r
C arl
Ġc ertain
ĠSt e
P andy
Be hind
Ġsweat y
ĠH ug
un ched
Ġbus iness
ĠRob bie
Ġtal ents
Ġon ward
T ry
Ġeng ines
Ġbrave st
it ion
Ġstern ly
ĠP en
ĠJan ie
prin ts
Ġpost man
Ġmosquito es
Ġmind s
u rious
u nder
c ake
Ġt uck
Ġscare s
Ġstom p
Ġapolog ised
u el
Ġman ag
Ġsn uck
Ġb itten
atter ed
Ġtil ted
Ġsw itched
Ġremind ing
Ġdec isions
Ġsing ers
Ġdes per
Ġbehavi or
ĠPo or
as hing
ĠJu dge
bb ers
in ny
Ġsque aked
Ġpeel ed
ĠEvery body
Ġy umm
Ġpur rs
ĠB ra
Ġtreat ed
Ġsm ashed
Ġrust ling
Ġdisplay ed
ĠU ntil
Ġneat ly
Ġmate y
Ġplant ing
ĠB ess
Ġmar shmallow
Ġin sp
Ġyelp ed
Ġs y
Ġgrandparent s
Ġcra cks
Ġbell ies
a ver
Ġshin es
Ġsc amp
ĠN avy
Ġh oo
Ġfa iled
Ġcolor ing
ĠY oga
l ine
Ġzoom s
ĠM ake
r up
Ġn asty
Ġbreat hing
Ġcomb ed
Ġp andas
Ġdes pite
Ġadd ress
ig hing
uff in
om p
Ġwater fall
c c
ĠL oop
ĠAng el
T illy
Ġwid er
Ġro bbers
Ġant ic
P lay
Ab igail
Ġsweat ers
Ġecho ed
Ġdoor way
ĠTo dd
e vin
Ġed ges
Ġin j
ĠSh adow
A unt
Ġg ap
Ġdisob ey
ĠBl inky
w ise
L iz
ĠM ichael
Ġt ar
ĠFl ick
os cope
or king
W ake
Ġtap ed
Ġmagn if
ul p
f ather
Ġscold s
Ġflap s
Ġact ion
Ġcrawl s
ĠM indy
R os
Ġsw ap
Ġgo bbled
Ġback s
ĠG ary
Ġwar ri
ĠFish y
ĠE ddie
S low
Ġst eth
Ġse ver
Ġshin ier
Ġprob ably
Ġnewsp apers
Ġsever al
Ġo cc
R ock
L ena
Ġenc ount
ĠMe g
Ġser ving
Ġquiet er
Ġpl ucked
Ġconn ected
t ock
ĠSh are
Ġ ouch
ig ger
T ed
A dam
Ġgest ure
T oo
F l
Ġstud ent
Ġpl ot
Ġdoor bell
Ġsqu aw
Ġcare s
f ire
Ġresc uing
Ġgrand son
Ġg oo
ĠS e
Ġsp y
Ġsimp ly
Ġrow s
i el
Ġwhist les
m ies
v ant
Sh rink
M agic
Ġsnap s
Ġsh orter
Ġastronaut s
ss ss
Ġunpack ing
Ġcott age
ĠTim e
Ġsw o
Ġaccident s
ib i
Ġswo llen
Ġm ood
ĠN ut
St eve
ĠZ ippy
ĠM ousy
an ie
ab elle
Z ara
Ġbother ed
f ound
H annah
Ġsteth oscope
Ġtrust ing
Ġca using
M at
M ad
ain t
Ġleap t
Ġdress er
Ġs ou
Ġprop er
Ġpill s
ret ty
Ġthrough out
O live
Ġpray ers
ĠD ina
Ġrun ner
Ġjoy ful
Th omas
m ates
Ġlo cks
ĠPr ince
re st
J amie
Ġgoat s
wh at
Ġtar get
ĠW ait
ĠK aren
Ġde ars
ĠB ang
art led
R ed
Ġwadd led
Ġm unch
Ġfl ips
ĠC ro
Ġlow ered
Ġste pping
Ġcon s
ĠJack ie
Ġteacher s
Ġcowb oy
ĠT oys
Ġin ches
Ġenvel opes
ear s
Ġch ar
ĠV room
Ġexplore r
Ġantic ip
Ġplay d
ĠRe ady
ĠR uff
ĠR alph
un ity
N ice
Fin n
ĠB ad
en ing
Ġknock ing
Ġfloor s
Ġeffort s
ĠP l
Ġuniform s
l ied
ĠT ri
Ġtr ot
Ġaw are
Ġfoot prints
Some one
Ġnear ly
ĠF iona
ll as
Ġdis c
ĠR ia
iv i
Ġwh imp
Ġs ens
Ġgl itt
Ġappreci ation
oo sh
Ġne cks
Ġcoll ap
Ġche cks
Ġla pt
Ġex cept
Ġpl ug
Ġch arge
ĠJack y
Ġflutter ing
Ġumbre llas
Ġstamp ed
ac y
Ġsandcast les
ĠDave y
Ġstat ues
ĠH oney
om b
isc uit
ail s
H oppy
Ġshr ank
ĠAm elia
r ily
Ġpri ck
Ġfin ishing
Ġadd s
r ons
Ġstro ll
Ġhunt ers
Ġdod ged
Ġchocol ates
Ġpassen gers
Ġgerm s
og er
Ġwr igg
Ġap rons
Ġais le
Ġset s
.' "
ĠG erry
Ġwe eds
Ġnovel s
or der
Ġdemand ing
ĠT aking
Ġscratch ing
Ġmeow s
iss a
D r
Ġnur ses
L ucky
Ġmind ing
Ġdiscuss ing
ur render
Ġk illed
Ġdrive way
ĠC ari
Ġbec omes
Ġlapt op
Ġha ird
ĠEl iz
Ġtool box
Ġpo sit
Ġatt ack
ĠSad ie
ĠD espite
Spe edy
ĠG l
so l
Ġscamp ered
Ġbounce s
Ġsupp lied
Ġspray s
Ġde ed
Ġtem pt
Ġsuggest ion
Ġfriendship s
Ġburn s
Co co
Ġsl apping
Ġclos ing
A rrr
Ġinvit es
Ġbelong ings
Ġanticip ation
Ġspring ing
Ġfor m
Ġer ase
Ġcott on
ĠSt an
Ġtwist s
Ġr ays
Ġsnugg le
Ġforgive s
Ġmodel s
Ġsh all
Ġmass ages
Ġhum ming
on nie
Ġrespond ed
Ġnew found
Ġghost s
Ġex pecting
ĠShe lly
Ġche ated
Do es
ĠWoo ly
G igi
ott e
Ġtravel ing
ĠN e
Ġco nd
Ġbat tle
Ġal though
allow een
Ġmom mies
ri e
Ġinvit ations
Ġcar ries
Ġa im
Ġrefres hing
ot s
he l
Ġpresent ed
Ġcon c
Ġtw enty
Ġr owed
ĠB umpy
Ġsqu ir
arl otte
Ġfox es
Ġcoop er
Ġfin al
Ġduck ling
Ġca fe
ĠB ibi
P ip
Ġmarshmallow s
Ġcl icked
ĠZ ipper
o or
Ġjet s
Ġdes igning
Ġbe aver
f ive
ĠM uffin
ĠH alloween
Ġmug s
ĠWho ever
Ġdr own
ĠAl though
Ġtri cycle
Ġpicnic s
Ġopp os
Ġcon vin
ĠR uth
ĠEx cited
i ens
ĠC le
p o
Ġscoop s
Ġc ongratul
ĠP op
ĠMad die
Sad ly
ĠâĢ Ķ
Ġtravel s
Ġal iens
Ġtest s
Ġquestion ed
ĠSpe ed
in ted
Ġstrip s
Ġcra ft
N ear
at ty
M ouse
co vered
Ġde fe
ĠFl utter
ĠBubb a
ir i
B r
Ġfight s
ro ken
B all
Ġoppos ite
ĠBig gy
H mm
F ind
E lly
Ch loe
ĠI m
Ġr out
Ġgrand father
Ġencount ered
Ġaff ord
ĠN ever
Ġdec l
in ch
im ent
Ġra ising
Ġup side
ĠV ivi
Me anwhile
J ess
Ġfl ashed
Ġcalm ly
ĠR ita
Ġyaw ning
Ġsince re
Ġreal izes
atur day
Tr ust
Ch oo
Ġcryst als
Ġb uddy
ĠSam antha
Ġcup cakes
Ġbuck led
by es
B oth
Ġwin ners
Ġdef in
ver se
r is
' ,
Ġweap ons
Ġca w
sh adow
Jo sh
Ġpack ages
Ġche at
ĠS aturday
Ġsa cks
Ġmes ses
Ġgood byes
Ġco ach
Ġatt em
v al
qu et
Ġcon vers
ĠTr uck
ĠFl o
Ġdri ft
Ġcap s
ĠM ina
ĠE va
em ies
Ġen emies
ash a
Ġyumm iest
Ġscr ub
Ġsw allow
Ġreturn ing
ri an
Ġadmir ation
ĠSof ty
ĠMe gan
S ince
Ġspr out
ĠLou ise
Ġun able
ĠPlay ing
ĠAn other
ugg ing
ook s
Ġsad der
Ġfreez ing
Ġbright est
Ġb less
ĠY awn
Ġresp on
ĠM an
re verse
Ġrespon se
Ġco sy
ĠO h
Ġdiamond s
Ġbr ide
st alk
Ġre app
Ġopp ort
Ġhon king
Ġgar bage
Ġstret ches
Ġprevent ed
er k
ant astic
Ġwho ever
Ġwhisper ing
Ġo dd
Ġaw ful
ĠG ray
al th
Ġweigh s
Ġjourney s
Ġaw oke
o ff
B rrr
Ġtrap s
Ġspice s
Ġdragon fly
Ġb orn
Ġreass ured
Ġcl ip
iv ia
Ġst all
Ġbean stalk
Ġarg um
Ġexam ining
Ġdefin itely
Ġbeet les
Ġautomobile s
ĠM aisy
m ine
ic i
H op
Ġvisit ors
Ġstuff ing
Ġplayd ate
Ġwas hes
c ie
b roken
Ġwis er
Ġcustom er
up er
em ma
R achel
Ġtrave lling
ĠSof ia
ĠJo lly
ĠFl op
ou quet
Ġhaird ress
Ġb ouquet
ĠN urse
or se
bb le
, '
Ġt umbled
Ġdecor ation
Ġcamp fire
ĠE lle
Ġhonest y
Ġbu d
v y
On ly
Ġb omb
eb ecca
Ġwelc oming
Ġoffer ing
Ġwe alth
Ġtrou bles
Ġocc as
Ġincre asing
ĠO t
ĠJ ax
ĠHe llo
Ġloud est
Ġinsp ired
Ġty pe
Ġpar ted
Ġgro an
ĠCh ick
ĠNut ty
ir ac
Ġwh ales
ĠTh under
ĠR icky
y l
Ġdecl ared
Ġcorrect ly
y ler
ook y
f us
Ġbeak s
ĠQuack y
ath an
Ġcle ared
Ġcowb oys
Ġnuzz led
ĠDot ty
Ġpri zes
Ġex ch
Fin ny
Ġwarm ly
ĠMiss ile
Ġre wards
Ġobey ed
Ġcustom ers
Sh ould
Ġsiren s
Ġcomfort ing
ĠF el
sh aped
Ġconn ect
ĠFl appy
m atch
elie ve
Ġtown s
ĠM agic
ĠB ingo
Ġre ly
ĠV icky
H oney
Ġtr igger
Ġown s
Ġinsist ing
Ġf antastic
Ġbend s
ĠF e
Ġspo iling
Ġhairdress er
Ġsurrender ed
Ġsupport ing
Ġshare s
Ġpo ses
Ġp ipes
Ġclean s
ren ch
S un
Out side
Jul ie
Ġwrink led
ĠC ook
Ġcho pped
Ġrec order
Ġmo ons
Ġbeam ing
un es
ell ow
B eth
Ġthan king
Ġsnow y
ĠWo lf
Ġsc urry
Ġexper ien
Ġenjoy able
Ġact ive
Ġc oral
ĠP iggy
Ġenv iron
Ġdoll ar
ĠK evin
w orm
el ope
Ġlo c
J e
Ġstream ers
ĠB ub
ud ged
ĠPat ty
ĠM other
ĠZ ack
ing er
Su zy
Ġex amp
Ġshort s
Ġshoo ed
Ġenviron ment
T ree
Ġ ill
Ġsc ent
Ġbru ises
ĠL uc
ust er
Ġgr at
ir l
B o
Ġhis ses
Ġsteer ing
Ġsel f
Ġpl ugged
ĠEls a
Ġwarri or
Ġvisit s
Ġexerc ises
sc reen
ap tain
Ġdan gers
Ġcudd les
ĠR el
ĠM in
ĠA r
Ġun fortunately
Ġsqu ished
Ġs igning
ĠL ight
be e
R ay
Ġpilot s
Ġdisappoin t
m unk
Ġgrat itude
Ġapplaud ing
Ġprov iding
ĠM oppy
al f
Ġtick les
Ġt ing
ĠR ub
G row
Ġstorm s
Ġnight s
Ġju d
Ġconvin ced
Ġbad ger
ĠEls ie
Ġyou n
Ġrespons ib
Ġchoo sing
ĠK elly
J oy
Ġyoun gest
Ġneare st
Ġbra ins
Ġactiv ity
A bby
Ġexplo ded
Ġcoug hed
Ġarr anged
C laire
Ġreward ing
ĠT re
ĠF ly
p r
g ood
erp iece
Ġsun screen
Ġpe ep
Ġbo nd
ĠFl oppy
as ers
M on
ĠTweet y
ĠS weet
ĠK aty
ĠJo an
ĠS al
il ities
Ġannoy ing
s n
Ġsoap y
me ow
S plash
Ġrail s
Ġlace s
Ġthread s
Ġt apping
Ġoff ic
Ġappreci ated
ĠP ine
ĠPh il
bo ards
Ġwe ighing
Ġheart broken
Ġemer ged
Ġcongratul ated
ĠP ick
D anger
Ġt in
ĠS il
Ġcrocodile s
Ġcl erk
Ġscr am
Ġattem pt
ĠN ancy
w ater
Ah oy
Ġsn ug
Ġmess ed
Ġexamp le
Ġd ial
ĠK ay
ĠA ny
Mom ma
Ġhook s
ĠJon ny
Ġtop s
Ġchip munk
Ġso ot
Ġguard ing
Ġbat hed
Ġmanag er
ĠT ippy
ort unately
ĠMic roscope
F riends
ĠD e
et ah
Snow y
Ġmast erpiece
ĠB aa
Ġer asers
Ġtip s
Ġfin ishes
Ġf et
Ġcomm on
ĠTom orrow
mb ers
Ġtrot ted
Ġnibb led
Ġme mbers
Ġdig s
Pe ople
Ġkind er
Ġche etah
Ġparticular ly
Ġchew s
Ġbl ond
ir cle
Ġrip s
Ġbe ast
L izzy
Ġargum ent
at ive
Ġfa ith
ĠHelp ing
Ġearn ed
Ann e
Ġobser ving
Ġforgiven ess
ĠJo ke
ĠC ici
chie vous
Ġinst antly
Ġfis hes
Ġexperien ced
Ġcur l
Ġche aper
ĠJ umpy
Ros ie
Ġmis chievous
Ġgener osity
Ġc ages
ĠTw ist
G r
B aa
Ġmeow ing
Ġfo am
m ered
C indy
Ġstore s
Ġgrand d
ĠA g
etch up
Ġmatter ed
Ġte les
Ġp asses
Ġl imp
S que
Ġsleep s
io let
Ġbreath s
ord inary
et tle
end ing
Ġtr ans
Ġr in
Ġgasp s
ĠFred die
G ot
Ġr umbling
Ġhat ch
ĠMom ma
o ver
ab ra
Ġgrass ho
Ġaccompl ished
ĠHo pper
ac ing
Ġth ump
Ġteles cope
Ġstr um
Ġsmart est
Ġmat s
Ġwh ined
Ġmo at
G ina
Ġscram bled
Ġj ugg
Ġfarm ers
ĠI ce
Ġdri p
Rob bie
Ġsy rup
Ġgarden s
Ġcollap sed
Ġang rily
ĠM ore
ou raged
ide y
Ġve gg
Ġsty les
Ġforest s
Ġexperience s
Ġdiscover ies
ho le
Ġto r
Ġmed als
Ġty pes
Ġotter s
Ġmean ing
Ġf aint
Ġcon qu
ĠDo es
p it
er ing
ad abra
ac ock
Ġsn apping
Ġhard est
Ġf if
Ġmove ments
Ġexpress ion
Ġch illy
Ġbubb ly
Ġaff ect
P inky
Ġvest s
Ġunf air
Ġsur v
Ġcour t
When ever
Ġtooth brush
Ġscore s
Ġextra ordinary
N ever
Ġatt itude
Ġvi br
Ġhor ri
Ġblue bird
ĠMon key
M o
m el
ll s
Ġspear s
Ġk etchup
ĠB erry
M other
Ġsoon er
Ġgrassho pper
Ġbehavi our
Ġpat ches
Ġha bit
y d
er ts
K aren
Ġpoke s
Ġmom ma
Ġaf ar
ĠAsh ley
l o
ie ves
J acob
Ġthick er
Ġsc ri
ĠF riend
J on
Ġsquee zes
Ġslither ed
Ġshr unk
Ġclass mates
ĠT erry
ĠF le
Ġ icky
Ġprick ly
Ġglitter ing
Ġexp ert
Ġto pp
Ġkneel ing
Ġann ounced
ĠS uper
ĠR iri
ell ing
Ġpe acock
Ġmark ing
ct ric
Ġcost s
ĠC ally
ĠA choo
Ġzigzag s
Ġwater mel
Ġth ieves
Ġsk irts
Ġjump er
Ġh ood
Ġact s
ĠZ og
ĠA pp
Ġwo lves
ĠSw im
ĠCl oud
P apa
Ġthumb s
Ġsque aky
Ġcon cer
Ġco coon
Ġwood cut
Ġbo ards
ĠEliz a
ĠBe cky
Ġser vant
id ence
b u
aff le
Ġche ating
ĠJ ason
c at
Ġtr ading
Ġr aking
ri ck
J essie
Ġexplain ing
ĠE ric
Ġtid ied
Ġb iscuit
Ġlunch time
Ġluck ily
ĠA c
an ced
Fr og
ĠP uffy
Ġspill ing
ĠD ay
F ire
Ġtrans form
Ġdess erts
ĠU se
ĠMad dy
ĠDan iel
ĠAn imal
âĢ ¦
r or
ĠP ig
ĠM ine
ĠSt ill
ĠG ill
r ough
am ma
Ġmess ages
Ġm irac
ĠC aptain
id y
Ġwindows ill
Ġch ill
Ġbe ating
ĠT ammy
ĠL ung
ĠG illy
o ot
Ġsee king
Ġa ctor
ĠRain bow
ĠL ina
it s
ĠWill iam
se ss
ĠM ath
pr il
A ny
Ġfore shadow
ĠH i
w ar
ac les
Blue y
Ġlean s
ĠP inch
rac adabra
F reeze
B ounce
Ġwatermel on
Ġhis sing
Ġfun n
Ġfl ashing
Ġde v
Ġcloth s
ĠW il
ĠT iger
ĠSt ep
ĠMon ster
ĠFrank ie
Ġwind ing
Ġposit ive
Ġdisc ouraged
p op
Ġwoodcut ter
Ġfor ts
Ġdri pped
Ġtea pot
Ġdisagree ing
Ġcompet e
ick ing
Ġpress ing
Ġgl immering
Ġvegg ies
Ġtrust s
Ġtidy ing
Ġkangaroo s
ĠPe ep
Ġtemp ted
Ġland ing
ĠFl ora
Ġdo ck
Ġsh allow
Ġover w
Ġfor med
l ers
el ing
Ġr ack
Ġf ade
ĠTo oth
f lowers
Ġwor st
Ġele ctric
Ġcop s
Not hing
Ġapolog y
i ving
cream s
a i
Ġsled s
ĠSil ver
ĠL ife
up id
Ġcomet s
Ġas s
Ow l
Ġsa v
ĠSh ark
ĠM ag
ĠJ elly
B ug
Ġsitu ations
Ġp apa
Ġoffic ers
Ġconvers ation
Ġ 4
R ain
ĠR oger
ĠCh arlotte
st orm
ay e
Ġsun s
Ġd ing
âĢĿ ,
Ġzip s
Ġstructure s
Ġscurry ing
Ġpizz as
Ġoverw hel
Ġmill er
ĠBut ter
Ġgrandd aughter
Ġf oggy
ĠOl ivia
ĠH urry
ĠAm ber
Z oe
ĠJane y
Ġweb s
Ġdeser ved
R abbit
Ġopport unity
Ġcub s
ĠY ummy
ĠSp idey
ĠS asha
ĠMix ie
ĠB uster
Ġsn orted
Ġrhin o
Ġdifference s
ĠGo ld
o f
Ġquack ing
ĠT ell
if ully
end ed
F ifi
Ġhe aven
ĠBird s
Ġunl o
Ġle vers
Ġinch worm
Ġin ter
Ġappro ach
ĠT yler
s sess
Ġseagull s
Ġpo ssess
Ġcooper ate
ĠRu fus
ĠFel ix
ĠB oom
wel come
s ers
rag on
?âĢĿ .
and ra
Ġpo se
Ġdisappoint ment
ĠSm oke
oc ular
Ġspeak s
Ġsneak s
sn ap
Ġbin ocular
Ġart work
Ġsurf ed
Ġsc owl
Ġanswer ing
ĠSn ake
Ġshort cut
ĠGra nd
Ġs ipped
Ġrob in
Ġd ep
Cl imb
Ġar rest
ĠIn ky
ss y
Ġunwra pped
Ġribb it
Ġre un
Ġam used
ĠAm anda
ug ar
Ġrepe ats
Ġpepper oni
Ġappl ause
Ġkey hole
Ġcheck out
ĠM ae
ĠC ars
L ia
D eal
Ġvisit or
Ġstri king
Ġpuppet s
Ġpadd ling
E at
Ġun z
Ġcro aked
Ġatt acked
ĠC ircle
ĠB rian
ors ie
Ġsp ooky
ĠOt to
ĠG us
E ach
Ġgroan ed
Ġbeaut ifully
ĠJe an
g ar
cident s
Ġswimsuit s
Ġcons ider
Ġcheck ing
u ses
ĠY ellow
j est
Ġwater s
Ġg room
ĠSque ak
ĠSl inky
y le
Ġin vent
L uke
Ġnet s
Ġexam s
ot ion
et s
Ġdry ing
ĠR ebecca
u dy
le st
art in
ag ine
Ġshrug s
Ġl ump
ĠAunt ie
s ie
Ġso bbing
Ġshy ly
Ġshoot s
Ġhonk s
Ġheel s
Ġcheer fully
ĠS ince
il i
h ny
es ses
Ġsh h
Ġch in
an ish
Ġwhimp ered
Ġhealth ier
Ġhang s
ic ious
M ilo
ĠM us
Ġcaterpill ars
izz es
Slow ly
Ġsqu inted
Ġmagnif ying
Ġf ries
ĠR atty
Ġfascin ating
Ġbl amed
ĠF ind
ulp ture
ch ing
Ġsc ulpture
Ġfrustr ation
ĠT ip
ou ched
Ġsh immering
ĠPen elope
Ġpo ss
ĠPe ace
ed ic
Sh aring
Ġs uck
Ġple as
Ġnumber ed
Ġnibb le
ĠW affle
th at
oth y
i bbles
ell ie
am il
Ġflow ing
Ġba a
hing s
Pe pper
Ġra ked
Ġgr umbled
ĠO ff
Bu bbles
Ġbuild er
rac ted
e at
Ġsway ing
Ġpet ting
Ġgu ards
Ġfa cing
ĠWoo lly
Ġsprink le
Ġmyster ies
Ġdet ails
ĠH ar
se y
Ġsn ort
Ġfl ock
Ġen emy
ĠBo at
Ġtexture s
Ġtable t
Ġgood ies
ĠC urious
ĠB arry
Y esterday
Ġw ig
Ġpo pping
Ġwild flowers
Ġstack s
Ġmar ve
Ġfan s
Ġcr ops
Ġcount ries
ĠJen n
ĠGra cie
h ow
Ġknob s
ĠTess a
ĠSee ing
Ġloc al
Ġbush y
Ġste w
Ġpeep ed
Ġhunt ing
Ġdrown ed
Ġbow ing
Ġbinocular s
Ġang rier
ĠBub u
Ġmap s
ĠM atch
Ġqu izzes
Ġn iece
Ġmoon light
ĠG low
Ġoutfit s
ĠJohn son
ĠD eal
O O
Ġwh oosh
Ġweak er
Ġw rench
Ġmind ful
Ġcrow ded
cy cles
S qu
Ġend ings
ĠBee f
o ll
I m
Ġproper ty
Ġhesit ation
Ġfl ashes
amil iar
Ġun less
Ġimagination s
Ġfo nd
Ġcar ts
Ġbo il
Ġab ility
ĠO xy
ĠAnd rew
get ic
Ġgl ared
ĠR ight
ĠAc cidents
st and
s aw
Ġunf amiliar
Ġspace s
Ġmic row
Ġkn it
Ġha ven
Ġfold s
th s
T una
Ġresponsib ility
Ġdirt ier
ĠP et
b ank
Ġp ouch
Ġmicrow ave
Ġdesk s
ib ly
B less
Ġcrack er
rn ie
l t
Ġsw apped
Ġmem ber
Ġd ate
Ġast on
ĠO xygen
f ree
ĠR ing
ĠR avi
W ant
C ra
Ġwh ine
Ġsoft ened
Ġre bu
Ġdoor step
Ġdisappear ing
ĠPe ggy
ĠHel en
ĠB un
sc ar
Ġquack s
Ġn atur
ĠCh ip
Ġwrit er
Ġlisten er
ĠT oo
ĠF ix
Ġpri v
Ġbl ushed
ĠSp icy
ven ir
Ġpalm s
Ġnot icing
u pt
re pe
po ison
Ġsou venir
ĠP ast
repe at
ent r
Ġlaw s
Ġdis aster
ĠT ra
ĠR es
ĠG abby
st r
re g
end ant
Rob by
Ġph ones
al a
A va
Ġconf idence
ĠL i
ĠCo al
ĠC ut
ĠB ert
Ġtim id
Ġstir s
Ġoverwhel med
ing ly
Be ing
Ġmay or
Ġfl ick
gu ess
as mine
C he
Ġt ugging
ĠP retty
ĠMo le
l or
Ġunt angle
Ġsatis fa
Ġowl s
Ġmail ing
Ġinj ured
Wh ose
Ġsatisfa ction
Ġconc entr
ĠWh ite
ĠIm mediately
ĠB ooks
F ly
ĠP ot
ĠMar ch
ĠAnimal s
m ers
S c
M ittens
Ġl im
ĠE at
th is
M abel
Ġpr ank
ĠWo nder
ĠN ora
ĠB onnie
w ell
W iggly
Ġhoo ves
ĠTri angle
ĠR un
ĠMel issa
ĠK n
Je ff
Ġfix er
ĠSt artled
ĠS ir
ĠCle an
ĠCl ose
ic ate
Ġsn ar
Ġcl ut
l ish
b ling
Ex cited
Ġsk ies
Ġinstrum ent
ĠTr ucky
Ġcap t
ĠMat ilda
ĠH orsie
ĠF aye
ad ually
Ġdisag re
ik y
Ġwrigg led
Ġstain s
Ġrin se
Ġpe cks
Ġcre ak
ĠSleep y
S usan
Ġsh ave
Ġbump ing
ĠS ing
ĠI cy
ĠHel i
ĠCra bby
ul f
Ġswir l
Ġr uff
Ġbend ing
cess ary
Play ing
Cl ose
Ġsand pit
Ġexplor ation
Ġchat ted
ĠSc issors
M ake
Ġrod s
Ġle ver
Ġfact s
S m
Ġattach ing
ĠC andy
Ġfool ed
Ġbur ger
ĠB ro
Ġglow s
Ġconcer ned
Ġclear ly
May a
Ġsal on
Ġrever sing
Ġla va
Ġcomp an
Ġcertain ly
el s
W ally
Ġsm elt
Ġmotor cycles
Ġfet ched
Ġcir c
Ġtr oll
Ġt unes
Ġsomet ime
Ġpro d
Ġold est
Ġfiref lies
R ing
Ġkiss ing
Ġchallen ges
Ġblond e
K ayla
Ġwarm ed
ĠBob bie
Ġunlock ing
Ġnatur al
Ġdifferent ly
Ġb ound
ĠL ots
urp le
s a
er g
T ara
D ino
Ab racadabra
Ġru bb
Ġriver bank
Ġdet ect
Ġcut ter
Ġcup cake
Ġconqu ered
Ġhat es
Ġall ey
ĠFl ap
s orry
Ġswir ls
Ġsend s
Ġreal ise
ĠO pen
ĠFlop sy
Jul ia
Is n
Ġwigg ling
Ġsens ation
Ġm unched
Ġbang ing
ĠC ammy
Ġtopp ings
Ġhipp os
Ġf ist
Ġcl ips
ĠRel iable
Do ctor
Ġsway ed
Ġst ings
Ġro be
Ġmirac le
Ġha lves
Ġbr akes
ĠGreen y
H ope
F ish
Ġsurv ive
Ġostri ches
ĠP ink
ĠCl imb
ul a
keep ers
ber t
M ichael
Ġtor to
Ġother wise
Ġemb ra
Ġcr ushed
Ġbubb ling
Ġtent s
ĠLook ing
an i
Ġrepair ing
ĠO f
Ġvine gar
Ġstretch y
Ġrubb ish
Ġliz ards
ĠW orking
ĠFlick er
Ġpassen ger
ĠE d
ast e
M any
Ġvibr ant
Ġtorto ise
Ġp ounced
ĠWh ich
g r
Su zie
Ġscen e
ĠR h
ĠGr ump
Ġmoo ed
Ġgl ided
Ġdesper ately
Ġb as
ra p
Ġsn ip
Ġp oop
Ġma jest
Ġint ently
Ġcop ied
Ġcalm er
ĠSunday s
ĠLight ning
n et
Ġwo ken
Ġtw el
Ġrag s
Ġjud ges
Ġjoy fully
Ġj ing
Ġcoo lest
ĠP er
sm elling
Ġlecture s
Ġgl ob
ĠJo dy
ly n
is ible
Ġh ips
Ġcous ins
Ġaston ished
Ġcap es
ĠOut side
ĠL u
un o
Ew w
Ġsuccess fully
Ġspeak er
Ġreun ited
Ġinv isible
Ġgu esses
Ġgoo ey
Ġarri ves
wh y
Ġtwel ve
Ġbat s
ur ity
Mike y
Ġgood ness
Ġcomput ers
ĠCarl a
nd ed
m ie
Ġstack ing
Ġsnowfl ake
Ġchat ting
ist ory
b ed
Ġreapp eared
Ġrac er
Ġpound s
Ġpark s
Ġdesper ate
Ġcompan ion
Ġcomm un
Z igzag
O l
Ġluck iest
Ġle vel
Ġd ou
Ġan k
Ġt ale
Ġstomach s
Ġsell s
Ġg all
Ġd umb
Ġcricket s
ĠS ugar
igg les
N ick
Ġwind s
Ġs us
Ġg ates
Ġdisobey ed
Ġdisagre ement
ĠSte ven
h ile
M ore
Ġpearl s
Ġho ses
Ġcr isp
Ġaw hile
ĠW hee
it es
L ou
Ġso da
Ġpops ic
Ġloyal ty
ĠOr ange
L inda
Ġtong ues
ĠRos a
us ion
re nt
Ġrid er
ĠC D
O oh
Ġab o
ĠBl ack
p an
Ġsure ly
ĠL aw
ĠAnn abelle
d og
d es
col ored
Ġoccas ion
Ġbu nd
r um
izz a
! âĢĻ
Ġst un
Ġguit ars
Ġchick s
ch ief
Ġsepar ating
Ġseas he
Ġrebu ild
Ġintellig ence
Ġalligator s
Ġabo ard
ĠR aven
ĠI ron
ĠA pril
F ound
Ġcro ak
Ġcre ep
ĠW inky
ĠV iolet
aid s
Somet hing
C atch
Ġlearn er
Ġcaut ion
Ġc uc
ĠO ld
ĠC are
sol ut
Ġwh ines
Ġsp iky
Ġreveal ing
Ġr ins
ĠUn i
w orking
Ġtick ling
Ġesc ap
ĠS ettle
Ġunder water
Ġglob e
Ġcr ouched
ĠRo ar
ĠC oby
ĠB a
u dge
st op
ever se
!' .
Ġpr og
Ġbloom s
Ġappear ance
Ġ' '
ur ricane
se ph
if er
f ived
J an
Ġstroke s
Ġle aking
Ġhat ched
Ġguard ian
ĠSo cky
eal ing
arn ing
Ġzoo keepers
Ġt ant
Ġrout ine
Ġpersist ence
Ġdo ves
Sn ap
S leep
Ch icky
Ġtap s
Ġsqu ashes
Ġqu ilt
Ġpain ful
Ġlight ing
Ġbl ame
Ġadm it
T oys
Ah h
Ġtempt ing
Ġsh attered
Ġri pp
Ġmo ld
Ġdeep ly
ĠP uff
gg les
Th ree
R alph
Mat t
Ġthr one
Ġsquir ted
Ġsec urity
Ġpeek s
Ġelectric ity
Ġcent re
Ġbur gers
ĠSp in
em on
c on
Ġreal izing
Ġcook s
Ġallow ing
ĠL iam
us hes
ort h
o ss
ck er
Jess ica
Ġl ar
Ġexch ange
Ġcho pping
Sh are
S ophia
Ġsweet ly
ĠR ace
ĠQuick ly
ĠA lf
ver ing
Ġsweet er
Ġrins ed
Ġglitt ered
is app
Z ero
S w
Ġmelt s
Ġmel ody
Ġgo ggles
Ġfu rious
Ġener getic
Ġdefe ated
Ġbuild ers
ĠIn ch
as y
Ġwa ded
Ġtant rum
Ġsniff led
Ġchoo ses
ĠOther wise
ĠCat s
ĠC omet
Ġcontain er
Ġcompet ing
ĠG iant
ere my
b ang
ar ted
ĠSh arp
ĠM ila
Ġund one
Ġserious ly
Ġprotect ion
Ġlar ger
Ġl ull
Ġh udd
Ġattempt s
ĠR ara
ĠP ark
ĠD uke
Sh oo
L izzie
Ġtoss ing
Ġhelicopter s
Ġcoo ed
Ġcl uck
Ġbuck les
ĠWh ale
ĠPinch y
ĠM a
ĠC her
S weet
ĠT ears
ĠSm o
ĠO ver
solut ely
St ill
Sque aky
Ġhum med
Ġd edic
Ġcourage ous
ĠH or
ĠD in
Mad dy
Every thing
C urious
Ġrac ers
Ġpatient s
Ġmu ster
Ġgo d
Ġdeser ves
Ġal oud
ĠT hings
ap s
U se
ĠSque e
ĠD ragon
Ġtour s
Ġmeet s
Ġmar vel
ĠR usty
ĠLiz a
ĠJ et
Fr oggy
Ġwra pper
ĠR eddy
ĠH ops
ĠCr usty
s he
Ġwh iskers
Ġnice st
Ġimpro ving
Ġbo oth
ĠL and
S urrender
Rock y
Ġmeadow s
Ġimag inary
Ġbo ld
ĠSt arry
Tw inkle
!' "
Ġob st
Ġbl ades
ĠS ummer
ĠPe bby
w are
Ġstro lled
Ġrisk y
Ġpair s
Ġop t
Ġcr uel
Ġ ĊĊ
ssss ssss
" !
Ġpeel s
M ina
J une
Ġwink s
Ġincred ibly
ĠK ind
ĠJo anna
ĠBra in
me al
l os
ic ally
S ay
O P
Ġtank s
Ġsquaw k
Ġneare r
ĠExcited ly
ra w
C are
Ġtransform ed
Ġto t
Ġpedal ing
Ġmess ier
Ġlamp s
Ġar my
ead ing
I ce
Dave y
Ġst ur
Ġinj u
Ġfa il
ĠR iley
sh rink
k ind
ill as
c an
Jack ie
Ġre ct
Ġpe ak
Ġmunch ing
Ġhorri ble
Ġfu ss
gu ard
A w
Ġunwra p
Ġtre as
Ġover head
Ġn arrow
Ġholiday s
ĠSwim my
ĠK yle
Pipp a
Ġpuff ed
Ġpan icking
Ġdry er
Ġbo iling
ĠP atient
on ed
Ġposs ib
Ġho st
Ġdive s
ĠP ass
ight y
cl oth
Ġsoft est
Ġoff ers
Ġconf usion
ĠBree zy
k a
arth a
M artha
Jen na
Ġun covered
Ġmust n
Ġmarve led
Ġall erg
ĠJen nie
uct ion
al y
Ġsc re
Ġeld ers
Ġcool ed
ĠB ell
m o
ic iest
J anie
Ġr oo
Ġmuster ed
Ġd ips
Ġcur rent
ĠV ery
ĠG u
ĠDog s
Ġtreas ured
Ġrot ted
Ġheight s
Ġgrate fully
Ġgl anced
Ġcoug hing
Ġcher ish
Ġchain s
Ġank le
ĠWin ter
ĠSun shine
par able
id i
Mad die
Ġ- -
los ure
' ?"
Ġsh aky
Ġs inking
Ġheav ily
Ġenc losure
Ġcup boards
ĠO scar
ĠBr uce
ri ce
S ky
Ġsp are
Ġsle igh
Ġm ac
Ġinse parable
Ġgall op
ĠM artin
ĠCro codile
Ġoat meal
ĠSp inny
ĠCl ay
ĠBr ad
our ed
ir ing
ipp ers
M ove
E njoy
Ġse ction
Ġr iddle
Ġne cessary
Ġl ush
Ġh ob
Ġd ashed
Ġclub s
Ġcan v
ĠF a
st antly
pe ople
a fe
P rin
Ġcon v
ĠSqu are
ĠP urple
ĠMon a
ir affe
M el
Ġun st
A nt
Ġsa x
Ġpra ise
Ġorder ing
Ġglitt ery
Ġdev ast
ĠDid i
D are
Ġzipp ers
Ġscen ery
Ġrainco ats
Ġhundred s
Ġallerg ic
ĠRob in
ĠFriend ship
gg ie
an tern
Ġsuggest s
Ġrow ing
Ġcomple ting
ĠV al
ĠJan et
ĠD illy
ĠB ar
T urn
Ġconv ince
Ġa rom
ĠCar ly
N e
Ġn ations
Ġmush y
Ġflo ppy
Ġcond ition
Ġcharac ter
ĠB elle
ate st
Ġrecommend ation
Ġpract ised
Ġmusician s
ĠW he
ot ch
is bee
P romise
B oom
Ġse ated
Ġch atter
ĠT idy
Ġskip s
ĠPot ato
sh op
ild ren
h and
all ed
Ġsl ot
Ġhudd led
Ġexper iment
Ġdri ll
Ġcanv as
Ġborrow ing
ĠLe ah
en n
app le
ais ie
St artled
Ġsoot hing
Ġlull aby
Ġho vering
Ġdevast ated
ĠP ee
ĠH a
ĠC ould
ir ty
cl ock
Ġrem o
Ġgl isten
Ġenjoy s
ĠPat rick
ĠO ak
ĠCr ane
ep eat
E l
Ġre ck
Ġpleas ant
Ġch ili
m ate
if t
am ing
Sam antha
R ight
Ġsp arrow
Ġrock y
Ġho ot
Ġf ulf
ĠRes pect
ĠN umber
ĠFl uff
ĠC ell
ĠBr ush
Frank ie
Ġvalu es
Ġtempt ation
Ġshow ers
Ġcomp romise
Ġairpl anes
ĠS keleton
ĠM s
ĠAg ain
Ġsus p
Ġro yal
Ġhair s
Ġcond uct
Ġchalk s
rob es
im mered
at form
Ġfold ers
Ġdist racted
ĠH urricane
F ortunately
Ġunf old
Ġreck less
Ġcompl iment
ĠPaul a
ĠM op
ĠCl ub
l ike
S imon
Jack y
Ġre cess
Ġpl atform
Ġmust aches
Ġhead ache
Ġgor illas
Ġactor s
Ġab solutely
ĠLi bby
ic o
a ily
Ch ris
Ġtowns people
Ġp iled
Ġcord s
Ġconsider ate
ĠY um
w en
e ven
P am
Ġsmo king
ĠF un
ĠCar rot
ĠAl arm
ace y
Ġla sers
Ġcomb s
Ġchar ged
r ings
H E
Ġstur dy
Ġshield s
Ġpant ry
Ġarom a
ĠE ating
ĠCar rie
sc otch
g n
d ers
So f
Ġwa nna
Ġpe a
Ġhor ror
ĠP ar
Ġwa x
Ġdisappear s
Ġconduct or
Ġcommun icate
Ġbeep ing
Ġas hes
ĠE rnie
P oor
Ġsp ades
Ġsilent ly
Ġpet al
Ġladybug s
Ġl un
Ġfence s
Ġbuy s
ĠLe af
ĠAl an
Ġwob bles
Ġab ack
ĠSt and
L arry
Ġy uck
Ġs ilk
Ġmagnif ic
Ġl en
ĠW ake
W in
Al though
Ġwarm est
Ġho llow
Ġham ster
ĠBro ccoli
S k
Ġp ail
Ġmove ment
Ġmot ions
Ġload s
Ġlife guard
Ġcave s
ĠH ank
oor ay
H ooray
Ġwh ir
Ġsn oring
Ġs ly
Ġembarrass ing
Ġear rings
Ġagree ing
ĠTh rough
ate ful
Ġcl im
Ġbl ade
ĠSp oon
ĠHor sy
ĠF izzy
M ix
Ġscowl ed
Ġpay off
Ġcable s
Ġais les
ĠSo ar
ĠMar ley
ĠJ asmine
m ark
Ġsl ight
Ġpossib ilities
Ġha re
Ġalong side
Ġsign al
Ġscratch y
Ġl il
Ġant lers
ĠStan ley
ĠGrace ful
ĠC ake
b arrow
S ir
N ana
Im agine
Ġwheel barrow
Ġpad s
Ġdedic ation
ĠU gly
re m
oo h
la us
W isdom
C on
C hew
Ġro ast
Ġlook out
Ġh uff
Ġdump ed
Ġconfident ly
ĠTuesday s
ĠSo ap
D uck
Ġwood pe
Ġpl ank
ĠB ark
i bo
ĠS is
ĠF ork
rey a
o kay
Ġwork shop
Ġke en
Ġhurt ful
Ġhand les
Ġcher ished
ĠR ad
ĠP anda
ĠLuc as
con ut
P retty
N G
Cat ty
Ġcoll ars
Ġco conut
Ġharm ony
Ġfly er
ĠR eading
ĠG ert
ĠAll ie
um ed
ian a
Ġun kind
Ġsquaw ked
Ġmesmer ised
Ġmagnific ent
Ġhar vest
Ġgre atest
Ġdefe at
Ġco de
Ġcar ton
ic s
B op
Ġra ises
Ġpro cess
Ġpistol s
ĠE ver
ĠBe be
ow ing
P h
. âĢĻ
Ġdr oop
Ġcro sses
Ġ âĢĿ
ul ped
h orse
Ġprog ress
Ġg ulped
ĠMus ic
ĠC olin
ĠBr uno
ĠA f
st al
good bye
Hi ppy
Ġwhe ther
Ġwh ipped
Ġsax ophone
Ġmix es
Ġfunn iest
ĠS chool
ĠMag net
ĠJ am
ĠC laus
Ġpo llen
Ġinf orm
Ġdecid ing
Ġcudd ling
Ġcap ture
c ra
O lly
F ree
Ġtent acles
Ġh oof
Ġgu ided
Ġbeg s
ĠW r
ĠT ick
in ct
T e
K ing
Ġmagic ally
Ġyawn s
Ġst inky
Ġglisten ing
ĠApp le
Ġgr ump
ĠK en
ĠAm i
l ings
imb o
St ar
A bbie
Ġwoodpe cker
Ġsle eve
Ġparrot s
Ġgr uff
Ġclothes line
Ġclim ber
ĠCo ffee
ĠC omp
k i
Ġspl itting
Ġlil ies
Ġhalf way
Ġh int
Ġfl uff
Ġd izz
ĠRob ot
ĠO ink
ĠH at
Sh ow
Ġsleep over
Ġres pecting
Ġcraft s
ĠS andra
ĠD uring
ĠBe a
ongratul ations
am i
Rob ert
Ġste ered
Ġsl urp
ĠCook ies
th ur
ray s
Ġwid ely
Ġn udged
Ġdust pan
Ġdep ths
Ġcontin uing
s urrender
Who a
C ara
Ġtast iest
Ġrun ny
Ġamong st
Ġachieve ment
ĠRo xy
ĠH ook
ry stal
Ġshot s
Ġmot ors
Ġj igg
ĠG emma
Squ irrel
Gr anny
But ter
Any time
' !"
Ġlon el
Ġcirc led
Ġc alf
Ġband s
ĠO uch
ĠN ature
ĠM amma
sh irt
Sp ring
Ġtrail er
Ġst alk
Ġglad ly
Ġfarm s
Ġbleed s
ĠJon athan
ĠG inger
Ġthe at
Ġsou l
Ġm ur
Ġhide out
Ġbend y
Ġbath robes
ĠO p
ĠM ail
ĠC ream
A na
Ġvent ure
Ġsc ience
Ġfright ening
Ġdod ging
ĠCher ry
col ate
St ella
Jon ny
Ġwarn s
Ġtrunk s
Ġpl o
ĠT oy
ĠN elly
ĠN ate
ĠL ast
o ors
nd y
ke st
b ook
Sad ie
S it
Ġtick ing
Ġsk ate
Ġpan cake
Ġind oors
Ġfloat y
Ġcomp ared
Ġ 9
us y
en na
ce ll
Ġsnar led
Ġfr isbee
Ġenter ing
Ġbl ush
ĠP romise
ĠD el
ĠCh oo
boo s
C ow
Ġt ill
Ġstra p
Ġspirit s
Ġset up
Ġintroduc ing
Ġgiant s
Ġd aily
Ġavo ided
ĠSp ider
ĠJu ice
ĠJo sie
ĠB ibo
ĠAf ric
See ing
Fo xy
Ġsolut ions
Ġlen g
Ġexplo de
ĠW as
ĠP ir
ĠFe ather
ĠCo coa
Ġunz ip
Ġdin ing
ĠSt ri
utter ed
h nn
G ogo
Ġwigg les
Ġto ne
Ġsupply ing
Ġsc ree
Ġrest oring
Ġpur ring
Ġp ace
Ġlimp ed
Ġham mers
Ġenthusiastic ally
ĠThe rmometer
u ise
t led
R A
L aura
F our
Ġsusp icious
Ġpro ved
Ġpres chool
Ġcontain ed
ĠSis i
ĠCh ar
ay lor
With out
Tom orrow
Ġtheat re
Ġisland s
ĠM ac
ĠCar ol
es y
Ġw icked
Ġw etter
Ġp urch
Ġlim its
Ġleop ards
ĠT uck
ĠS urpr
ĠDan cing
hnn ie
Ġroll er
Ġown ing
Ġin n
Ġhop scotch
Ġac cess
ĠSh ake
it am
g ra
are t
Ġfl ippers
ĠTre es
ĠTe ach
g aret
en ses
Ġthunder storm
Ġsl ime
Ġlast ed
Ġj aws
ustr ated
os p
ar ies
T ell
B oun
Ġn anny
Ġaunt ie
ĠSt ealing
ĠP ep
j ust
Ġobedient ly
Ġinn oc
Ġgr adually
s itter
Ġrust le
Ġpo les
Ġbund le
ĠJenn ifer
yd ia
c he
O ver
Ġwe ed
Ġthreat ened
Ġsc aly
Ġdri es
Ġcur ve
ĠN ibbles
ĠJ es
ĠG ret
o colate
az ors
an n
R everse
Al ong
Ġv itam
Ġtwir ls
Ġroo ster
Ġr ises
Ġne ighed
F riend
Ġvill ain
Ġstain ed
Ġrepair man
Ġcalm ing
Ġbl ur
Ġab and
ĠS illy
ĠJoan ne
ell er
P ush
Ġtuck s
Ġting ling
Ġpl us
Ġpant ing
Ġmajest ic
Ġm end
Ġgra in
Ġgr unt
Ġbird ie
Ġag es
ĠF unny
ĠBe es
ar on
T oto
A r
Ġur ging
Ġsmo ky
Ġsh ame
Ġrec ipes
ĠPr une
ĠD ull
ĠChe e
We e
Ġhun ger
Ġexerc ising
Ġescap ing
Ġchirp s
ĠW ow
ĠClean ing
yl an
prin t
Ġtw itched
Ġnotebook s
Ġfour th
Ġchallen ged
ĠJo die
ĠFe eling
Ġ2 0
te en
oy al
gg ing
ac her
Ġstroll er
Ġsmo other
Ġrect angle
Ġpoison ous
Ġpeck ing
Ġmissile s
Ġfr ames
Ġflow ed
Ġdod ges
Ġbl ob
ĠT urn
ĠSing ing
ĠSh ould
ĠPat ches
ud rey
iss y
ier ce
el sey
E ls
? !
ĠW orm
ĠThank fully
ĠBut ton
oss om
T en
B et
Ġtr im
Ġpossess ions
Ġle aped
Ġbl ed
ĠS itting
cell ent
al ity
Ġtipto es
Ġnotice s
Ġlight ly
Ġl antern
Ġkneel s
Ġinv ol
Ġhandle b
Ġflood ed
Ġdetect ive
Ġcomm and
ĠG iraffe
on k
is her
ang a
W o
P op
Ġsmooth ly
Ġsc ut
Ġloo s
Ġcrisp y
Ġche esy
ĠTw isty
ĠT ube
il ar
ic al
b ur
P ick
Ġmill ion
Ġjugg le
ĠAfter wards
ĠAfric a
re et
b s
Ġflav our
Ġde vice
ĠD oug
ent ial
Ro ver
Ġrecord s
Ġprotect s
Ġplo pped
Ġbaby sitter
ĠR umble
T HE
F e
A lly
Ġtooth p
Ġsw at
Ġstrike s
Ġrout e
Ġpound ing
Ġinst inct
Ġflashlight s
Ġdust ed
Ġchew y
Ġbright ened
ĠT op
ĠE ve
F ido
Ġstare s
Ġst iff
Ġremo ving
Ġper se
Ġmis chief
Ġm itt
ĠRon ny
ĠP a
ĠL ady
ĠD i
ĠCl are
ĠC act
Ġ1 2
ab ella
Y ears
Ġstomp ing
Ġo ars
Ġnight stand
ĠS ly
ĠHer o
ic ated
Ġt end
Ġcontent ed
ĠOff icer
ĠG irl
y ield
ic ia
Care ful
Boun cy
Ġvo l
Ġturkey s
Ġreapp ear
Ġpri est
Ġdist ract
Ġbru ise
ĠFl ash
ĠDr ink
v o
or ious
W oo
P ass
J illy
D ing
Bet sy
Ġund o
Ġth irty
Ġsea horse
Ġref using
Ġpers u
Ġperform ers
Ġde ck
Ġc ig
Ġbra id
Ġbo lt
Ġa id
ĠM ill
ĠJo seph
ĠJ eremy
ĠChee se
ĠA very
y a
h adow
J ay
F iona
Con fused
Ġwag ons
Ġra is
Ġquick er
Ġorgan ised
Ġeyes hadow
Ġat op
ĠGu ard
im ents
ern ie
N obody
Ġunlo ad
Ġright ful
Ġraindr op
Ġdisplay ing
Ġdisg uise
Ġchar ity
ĠZoom ie
ĠP ear
ĠN ed
ĠCo zy
w o
ig e
A ng
Ġtable cloth
Ġstud ies
Ġshrimp s
Ġpr ison
Ġarrest ed
ĠM ild
um n
l ock
B ra
Ġvi ol
Ġun c
Ġslight ly
Ġoccas ions
Ġlo ser
Ġju iciest
ĠF ortunately
ĠD ream
are tt
ab eth
Jo hny
Ġtri pping
Ġscr unched
Ġm ound
Ġlow ers
Ġleng th
Ġladyb ird
Ġl ur
Ġfif ty
ĠSo ft
ĠFl ame
ĠB elieve
ous ly
chan ted
Wh istle
Fo x
Br own
Ġstor my
Ġdial ed
ĠMatt hew
w oo
st upid
f riend
Ġso ggy
Ġlonel iness
Ġla unch
Ġh ike
Ġfierce ly
Ġcomm unity
Ġbirthday s
ĠO stri
ĠF reya
our ce
ex it
a ure
U p
C le
Ġsnow ing
Ġkn itting
Ġinform ation
Ġhope less
Ġdo zed
ĠH onest
re ase
et t
Ġteaspoon s
Ġt iring
Ġr umbled
Ġcig arett
ĠG ia
ĠDo ll
ĠD usty
ĠBess y
Ġs umm
Ġro amed
Ġres ource
Ġfor ced
Ġbo iled
ĠM ighty
ĠG or
ĠDo ing
rup ted
pp a
asp er
H el
Ġunt angled
Ġtrumpet s
Ġforeshadow ed
Ġen chanted
Ġdi v
Ġboard ed
orn ado
Ġhoney com
Ġg le
Ġcute st
Ġany body
ĠR ani
ĠFr an
ĠCare fully
o d
at ic
D rink
Ġwrist s
Ġscru bbing
Ġocean s
Ġguard ed
Ġfix es
ĠSm all
ĠG reg
ĠDe af
r ina
p oke
p hew
Mar ie
!âĢĿ ,
Ġduck lings
ĠN icky
ĠMe ow
ĠH airy
ik a
M ind
D izzy
Ġw itches
Ġstret cher
Ġs im
Ġroof s
Ġne phew
Ġevent s
Ġdrag s
Ġcomb ing
Ġaccept ing
ĠB oy
ol ph
jam in
in ting
i or
co ver
B C
Ġscold ing
Ġpine apple
Ġant enna
ĠFa ith
ĠF anny
osp here
m osphere
b elt
ank y
and el
Ġt ul
Ġrul ed
Ġpro ceed
Ġp ounce
Ġlake s
Ġer upt
Ġch amp
Ġat mosphere
ĠSe an
ĠM elt
ĠKind ness
ĠBr other
f lies
ad a
F ive
Ġcreep y
Ġaband oned
val ue
t alk
g re
c ies
P r
Ġsalad s
Ġr ay
Ġpr ops
Ġpin ches
Ġdesign er
ĠShe ll
ĠA BC
x ie
ul iar
n ings
gr ateful
Ġsnugg les
Ġpec uliar
Ġpark ing
Ġbang s
ĠS ale
ĠM aisie
or is
To dd
S H
G us
Ġri cher
Ġmis ty
Ġk ill
Ġhandleb ars
Ġdizz iness
f ant
To ot
Sp ark
Ol iver
B le
An other
Ġwin king
Ġgor ge
Ġcontent s
Ġba it
ĠJo Jo
oo ked
ess a
bo om
Dan iel
Ġyard s
Ġsoft ness
Ġhow l
Ġemergen cies
ĠE n
Ġvolcano es
Ġterri bly
Ġsne aking
Ġseat belt
Ġpro f
ĠSo ck
ĠR oy
V elvet
S on
Ġstri ct
Ġpl um
Ġje ans
Ġgu ilt
Ġgrandchild ren
Ġdest r
Ġbeg un
ĠW orry
ĠMat ty
ress ed
R yan
M ae
: "
Ġwalk ie
Ġtrust y
Ġmanag ing
Ġfisher men
Ġfan c
Ġexch anged
g ain
ash ion
S anta
R uth
Ġsub ject
Ġspo ken
Ġpres ence
Ġjog s
Ġgorge ous
Ġclut ched
ĠJ etty
ĠG wen
ĠFle xible
ĠF ather
ĠBill ie
ĠBe an
op ard
Ġwand s
Ġvitam ins
Ġstri pe
Ġri ches
Ġli ar
ĠTim othy
ĠSt r
ĠL ong
ey ed
c ar
Gra nd
Ch ildren
Ġvalu ing
Ġunl ike
Ġheav iest
Ġgrand k
Ġforeshadow ing
Ġd amp
Ġarr ange
ĠSal t
ĠIn stantly
ĠG en
L ove
C athy
Ble ch
Ġsh aker
Ġsett ling
Ġmailbox es
Ġli f
Ġdelay ing
ĠW ar
ĠPass port
ĠK at
ĠHe el
l aud
Prin cess
Ġspe ck
Ġrhythm s
Ġreal ity
Ġd ia
Ġcr ust
ĠT iki
ĠMic ro
ĠK enny
ĠA d
f er
Sof ia
Ġuse less
Ġsun b
Ġlad ders
Ġener g
Ġblink s
Ġad op
ĠSh ine
ĠK anga
ĠGert ie
ĠAs k
ĠA men
st ack
f low
D ee
Ġunst uck
Ġsn atch
Ġs izz
Ġripp les
Ġrequest s
Ġrele asing
Ġprom ising
Ġkind est
Ġdad dies
ous and
ol o
ess ion
H olly
Ġsun g
Ġsm ash
Ġhand y
Ġcl in
Ġappear s
ĠK ai
ĠCh uck
ĠCh omp
v ie
on ight
ir ls
Sk ip
P er
M aisy
K aty
Be ware
Ġun grateful
Ġtap es
Ġt ales
Ġperform er
Ġm ashed
Ġinter rupted
Ġexpl an
Ġcomp are
ĠS ail
ĠN eed
ĠMar garet
ĠCh ippy
ant s
Every day
Ġsink s
Ġruff led
Ġpudd ing
Ġpra ises
Ġmeet ings
Ġf itting
Ġclo cks
ĠC e
el ine
N ancy
Ġt umbling
Ġsqu irt
Ġlun ged
Ġhoneycom b
ĠR andy
R oger
P en
Am elia
Ġvalley s
Ġresist ing
Ġop er
Ġgra sp
Ġd ong
Ġclot hing
Ġbarrel s
ĠRu d
o k
c ri
S l
As h
Ġw il
Ġunlock s
Ġtot ally
Ġslam s
Ġloving ly
Ġlawy ers
Ġde eds
ĠSh iver
ĠM ind
ĠC ube
be h
b elieve
aw k
Bl ink
Ġsome how
Ġread er
Ġpurch ase
Ġpit cher
Ġo ink
Ġinju ries
Ġho vered
Ġelbow s
Ġdes ce
Ġann ounce
ĠT ap
ĠMin nie
el ace
Ġtr udged
Ġsurround ing
Ġstor ing
Ġsho elace
Ġreass uring
Ġproceed ed
Ġac rob
ĠOn ion
ĠNo ah
ul ture
rem ely
W endy
B ree
? âĢĻ
Ġyelp s
Ġwra ppers
Ġskin ny
Ġsick ness
Ġout come
ĠJelly fish
ĠG oose
y la
i rework
Ġpat ting
Ġlic enses
Ġinst ant
Ġcras hes
Ġatt endant
hee se
Ġsweet ness
Ġst ate
Ġr azors
Ġnibb ling
Ġhe y
Ġgreat er
Ġfl utes
Ġext remely
Ġdar ted
Ġbound ed
ĠSmo key
ĠAlex a
ouse l
iv ated
ar oni
Ġthought fully
Ġstrip ed
Ġr is
Ġover flow
Ġcur ls
Ġcl ucked
Ġch attered
Ġball er
ĠR a
ĠFu zz
ĠD ory
Ġth ousand
Ġsh uff
Ġpre fer
Ġn in
Ġconnect ion
Ġc af
Ġb ins
ĠI nt
ĠBra ve
i ara
Ġv ar
Ġto ad
Ġt ippy
Ġseashe lls
Ġrais ins
Ġprice s
Ġgr anny
Ġcar ousel
ĠF urry
ĠDr op
re ck
aure n
Be cky
? ,"
Ġt ink
Ġsol id
Ġservant s
Ġkay aking
Ġit ches
Ġcomm otion
ĠS it
ĠMe anwhile
ĠF it
f illed
Ġstem s
Ġrad i
Ġnest led
Ġg n
Ġexplan ation
Ġdou b
Ġdo dge
Ġdisgust ed
Ġcuc umber
ĠT aylor
ĠL emon
ĠD ash
a way
D el
Ġpass ion
Ġcrack ing
Ġbless ed
ĠJo hny
ĠH anger
ĠF ierce
un ior
ump h
r idge
he arted
c st
alf way
Ġtimid ly
Ġstream ing
Ġskeleton s
Ġscar ier
Ġmed ium
Ġele ven
ĠPet ey
ĠL ayla
ĠD ictionary
ĠCl aw
Ã ©
r am
ait lyn
E E
Ġwh izz
Ġsquir med
Ġeld er
Ġconc ert
Ġbo ast
Ġbeep s
ĠSquee ze
ĠR ick
r ope
oo s
f ield
L uc
Gra b
Ab i
Ġs ons
Ġfresh ly
Ġfl akes
ĠOstri ch
ĠNe ither
ĠIs la
ĠH ipp
Excited ly
E n
Ch oose
Bird ie
Ġwrink ly
Ġspeed s
Ġsick er
Ġpract ising
Ġinstinct s
Ġbo omed
ĠGold ie
ĠCat ch
ĠC rystal
cst atic
H enny
Ġtrain ing
Ġgrandk ids
Ġembra ce
ĠW ork
ĠClimb ing
ĠC ass
ĠAr thur
t wo
il s
R icky
M oon
Ġspr ings
Ġsal sa
Ġmac aroni
Ġer ased
Ġcere m
ĠRud olph
ĠO ct
ĠMelt y
ĠCar oline
ĠB ull
ĠAl bert
uc cess
th an
ra in
h aps
c ip
St retch
D espite
Ġwaste ful
Ġlock ing
Ġli king
Ġdrag ging
Ġdon ut
Ġcact i
ĠSh all
ĠS ack
ĠPast el
ĠP izza
ĠL oyal
ĠD ough
w ee
m ade
O ld
Ġvac u
Ġse vent
Ġcompl icated
Ġballer ina
Ġb ould
Ġaw a
ĠSpot ty
ĠH orse
r imp
ock s
isapp ear
d ream
ch a
L ost
D ara
Ġwas p
Ġspread s
Ġsor row
Ġqu itting
Ġobst acles
Ġob l
Ġl umpy
Ġenv y
Ġe cstatic
Ġd iver
Ġcoll age
Ġcerem ony
ĠW ind
ĠPir ate
ĠM ilk
ĠIn fant
k er
j ack
You ng
M atch
Ġur ges
Ġstun ned
Ġgl oom
Ġch ann
Ġad v
ĠTh ink
ĠS on
get s
G abby
F un
Ch irp
Ġsnail s
Ġp endant
Ġo gre
Ġfl am
Ġfavor ites
Ġcare free
Ġass ist
ĠWil ma
ĠS usy
mark et
a ction
W he
C RA
Ġstation s
Ġsn ore
Ġscree ch
Ġlo bby
Ġf ading
Ġequ ally
Ġd im
Ġcur ves
Ġcaulif lowers
ĠT ornado
v ious
t ling
sol ved
al ia
Ġsuper market
Ġshin iest
Ġsa ves
Ġprin cip
Ġmusic al
Ġdelight ful
Ġcl ung
ĠM ust
ĠAny thing
ĊĠ Ġ
d on
Pat ty
L ion
Ġweight s
Ġting le
Ġsnugg ling
Ġscoop ing
Ġplay fully
Ġlunch box
Ġhome less
Ġfor wards
Ġcut ters
Ġcra z
Ġcr anky
ĠM ost
ĠL ydia
ĠH ilda
ĠF ore
ĠD ora
s ery
i w
c ted
Ġtick ly
Ġre covered
Ġinvent ion
Ġfr ant
ĠCl own
p ill
ine ma
e ves
Ġuns afe
Ġprince s
Ġprevent ing
Ġpor ridge
Ġinnoc ent
Ġinclu des
Ġgra ins
Ġday dream
Ġbal c
ĠIs abella
ĠGret a
ĠChar les
ĠC ount
h h
C aw
Ġv oy
Ġtoothp aste
Ġtight rope
Ġsteam ing
Ġsound ly
Ġsle eves
Ġpriv acy
Ġmop s
Ġgarden ing
Ġd andel
Ġcapt ured
Ġcalm s
ĠWe st
ĠR ory
ĠG ail
ĠDin ner
ĠAlf ie
umb les
ict ory
ex i
arl a
U sing
J ason
I zzy
E va
Ġtroph ies
Ġtri umph
Ġsuitcase s
Ġsniff ling
Ġser vice
Ġremain s
Ġpriv ate
Ġmo les
Ġm id
Ġindepend ence
Ġgallop ed
Ġdestr uction
Ġclo ak
ĠP ol
ĠB ernie
ball s
Paul a
Ġscra pe
Ġre action
Ġnur sery
Ġdish onest
Ġch a
Ġc inema
ĠC all
ĠBo x
ĠA udrey
ur r
l ove
it ive
Ġstro lling
Ġrat tle
Ġpony t
Ġloos en
Ġg ummy
Ġfull y
Ġdoll y
Ġanxious ly
Ġallow ance
ĠSp anish
ĠFle a
ĠAng ie
C ool
Ġthin ner
Ġswir led
Ġprincip al
Ġout sm
Ġout ing
Ġlur king
Ġc ulture
ĠCro co
ĠA v
w ine
sh ips
oin t
m ar
P l
M ister
Em my
Ġto ck
Ġsupport ive
Ġgl iding
Ġdiscuss ion
Ġadd ition
ĠOp era
oo ke
llow ed
imb a
M ila
! ,"
Ġsweep ing
Ġspr ung
Ġnuzz les
Ġearthquake s
Ġdog gie
Ġclean est
Ġbank s
Ġbalc ony
ĠSh ampoo
ĠPear l
ĠAs htray
u h
talk ie
m ail
R epeat
K elly
Ġv ast
Ġsteak s
Ġre port
Ġpit s
Ġmor nings
Ġflam ingo
Ġbe gging
Ġab ilities
ĠSt u
an ana
A R
Ġvoy age
Ġunicorn s
Ġproject s
Ġon line
Ġgood s
Ġdisob edient
Ġchamp ion
Ġcat cher
ĠTh ree
ĠR ag
ĠNe w
ĠD V
ĠB urt
r it
id dy
Fe eling
Ġsad dle
Ġmess ing
Ġbr ake
Ġadventure rs
ĠRos y
ĠJ ellie
ĠDV D
Ġ 8
u ri
ik o
Ph il
H ide
Ġunfold ed
Ġsh aken
Ġpopsic les
Ġphot og
Ġnumber ing
Ġcr anes
Ġcho ke
ĠHug s
ĠABC s
ett i
Ch arlotte
Ġun iting
Ġswir ling
Ġsqueak s
Ġrepl ies
Ġmum s
Ġhow led
Ġapp et
ĠSk ull
ĠP ain
ĠH and
ĠBo ssy
ve y
il st
id ance
f lower
com ing
Surpr ised
Ġwh ining
Ġpart ner
Ġgu idance
Ġgod mother
Ġdeep est
Ġb udd
ĠSlow poke
ĠMar cy
ĠGor illa
ĠBen jamin
in c
Ġvase s
Ġstud io
Ġstr ay
Ġsp ied
Ġred dest
Ġp ave
Ġinf ect
Ġharm ful
Ġground ed
Ġdes ire
Ġcur ved
Ġbould er
Ġaccess ories
ĠW or
ĠV e
ĠPo ke
er as
ee ch
Ġstrum med
Ġsh immered
Ġrun ners
Ġres umed
Ġra w
Ġpave ment
Ġjing le
Ġimag in
Ġbru ised
ĠMel ody
ĠG uess
Y ield
Mmm m
H ar
Ġyield ing
Ġsp eech
Ġsnort s
Ġscre ens
Ġr ink
Ġmotion ed
Ġfair ly
Ġcons id
Ġconf etti
Ġbr ats
ĠSw itch
ĠLe opard
ĠF ood
Rob ot
E ric
D e
B ert
Am anda
Ġsnow ed
Ġskull s
Ġscr unch
Ġregular ly
Ġpossess ion
Ġbudd ies
ĠS oup
ĠG as
ĠD river
p ie
m oo
Ġsw itches
Ġsand als
Ġpopsic le
Ġhall s
Ġg ulp
Ġcam eras
Ġboss ed
Ġb un
ĠN orth
v or
up ted
ri et
o xygen
gen cy
ar ked
Z oo
R el
P o
Ġt ac
Ġsuc ked
Ġspin ach
Ġpl ow
Ġgre ed
Ġfi rew
Ġer upted
Ġdis m
ĠStep h
ĠSe at
ĠNo vel
ĠG eor
ĠD ish
at ue
Ġwh isk
Ġtarget s
Ġrepl acing
Ġhorri fied
ĠN ia
ĠMust ache
ĠHe idi
ĠEliz abeth
ĠDog go
m aster
Z iggy
Cle an
Ġselfish ness
Ġgesture s
Ġdri ven
Ġcab bage
Ġaut umn
ĠWr iting
ĠS id
ĠB iscuit
re x
W ater
St itch
E ver
Ġworld s
Ġw it
Ġent ertain
ĠWednesday s
ĠPop corn
ĠLe arning
ĠBa iley
ou ble
or ia
k s
W ednesday
V al
Ġpot ential
Ġhuff ed
Ġgl imp
Ġgl ide
Ġfist s
Ġf are
Ġcareless ly
Ġcar ved
Ġaccident ly
ĠN an
ĠChick ie
nam on
in namon
he lle
P OP
M in
Ġwarri ors
Ġscri bbled
Ġp y
Ġmeasure s
Ġhon or
Ġgr umble
Ġfree ing
Ġfew er
Ġfashion able
Ġcontent ment
Ġchallen ging
Ġbiscuit s
Ġacrob ats
Ġac c
ĠV o
ĠP ed
ĠN athan
ĠH unt
ĠE llen
ĠD ylan
ĠC ol
ĠAngel a
ater pill
ac le
Ġto ot
Ġtag ged
Ġst ump
Ġpast e
ĠR ound
ĠN ap
ĠHipp o
ĠAnt y
ĠAl ison
âĢĻ .
uri osity
r upt
ising ly
Mon key
L enny
A pp
Ġview s
Ġpuck er
Ġow e
ĠOct o
ĠMic key
ĠH ot
ĠC al
re ak
f ect
Ru dy
N urse
K n
F armer
Ġstream s
Ġsn ipped
Ġscra p
Ġrep airs
Ġper ked
Ġp als
Ġfeather ed
Ġequ al
ĠRich ard
h ill
R iley
Ġwob bling
Ġresource s
Ġquar re
Ġimportant ly
Ġhung rier
Ġdef end
ĠWil bur
ĠWh ist
ĠW ood
ĠLou ie
ĠJ imbo
ĠGl ass
ĠC on
ush room
ro y
iver se
Me gan
F u
C heese
Ġtil ts
Ġjourney ed
Ġins pected
Ġhammer ing
Ġgoal ie
Ġdes cri
ĠT oni
ĠN one
ĠD ays
ĠCarl os
hi bit
J udy
Ġscarf s
Ġpeaceful ness
Ġhe ed
Ġexerc ised
Ġd ucked
Ġcle are
Ġc innamon
ĠL ime
ĠAll igator
em o
au ce
L ina
H o
Fu zzy
Ġser ves
Ġpout s
Ġlumber jack
Ġlay er
Ġfrant ically
Ġfor ty
Ġch unk
Ġcase s
Ġa h
ĠM uch
ĠM oney
ĠF lowers
ĠD anger
th ree
oe be
et ime
an ked
R uff
Ġth irst
Ġsun k
Ġsubject s
Ġsound ing
Ġsc an
Ġdesce nded
ug gy
ig her
N ora
Miss y
Ġsunset s
Ġsnat ches
Ġs ul
Ġro am
Ġpun ishing
Ġp oof
Ġn or
Ġhe ater
Ġcop ies
Ġbl urry
ĠJust in
ĠC op
sh oot
re r
irework s
ip ed
g iving
el a
b ug
az ing
a ld
St an
D ot
Brown ie
Al i
Ġt ang
Ġinfect ion
Ġhurry ing
Ġfl ipping
Ġbra g
Ġantenna e
ĠN ight
ĠMe asure
ĠB endy
zz ly
vent ure
t ie
t ick
sp ass
m ind
T re
Ġspin ner
Ġsk ates
Ġpadd les
Ġmitt s
Ġjeep s
Ġgrin ning
Ġgr umbling
Ġgl immer
Ġcur sed
Ġcar n
Ġben ef
Ġad vant
ĠW ine
ĠTom ato
ĠP ill
ĠJan ice
ĠH istory
ĠCact us
r un
r ant
at ted
app laud
D own
Ġsuck ing
Ġstomp s
Ġpri cked
Ġjog ger
Ġcar ve
ĠVal ue
ĠJu les
ĠBr ooke
ĠAs ked
ĠA bb
or ant
ic kest
ale b
St ir
Aunt ie
Ġun e
Ġped alled
Ġlif etime
Ġl ately
Ġgain ing
Ġfre ely
Ġenerg ized
Ġcrack ling
Ġcr ooked
Ġchance s
Ġcapt ivated
ĠRh ythm
ĠFr ance
Ġ 6
h aw
en ess
R ace
Mum ma
Ġwo nd
Ġjealous y
Ġhay stack
Ġexpl os
Ġem pt
ĠO y
ĠLeaf y
ssssssss ssssssss
s l
g ive
al ter
Bl oom
Ġy ay
Ġsurf er
Ġcl am
ĠCook ie
ne w
E ddie
1 1
Ġwil ted
Ġwa vy
Ġtax is
Ġrail ing
Ġpol ka
Ġk iw
Ġhe ated
Ġembra ced
Ġembarrass ment
Ġdr ople
Ġbl ossom
ĠSt atue
ĠRu de
ĠR uffy
ĠH ouse
ĠG ear
ĠBubb le
op era
oo o
Sh ut
G reen
Co pper
Ġvan ishing
Ġtight ened
Ġstun ning
Ġf rag
Ġexc use
Ġcrunch ing
Ġcon str
Ġcha os
Ġadvant age
ĠZ e
ĠD own
un ate
Whe ee
Ġtrail s
Ġrefle ct
Ġpl acing
Ġjoy ous
Ġfirew ood
Ġfe ared
Ġbright en
Ġbo oming
Ġbas il
ĠStr ong
ĠShe ep
ĠMar ty
ĠHug o
ĠBr ing
rec ord
be am
ate ver
ak ers
O ink
Gra cie
Ġt ed
Ġscientist s
Ġs ite
Ġprot est
Ġpick les
Ġouch y
Ġin ched
Ġgo bl
Ġgl ist
Ġfulf illed
Ġcough s
Ġclut ching
Ġcar riage
ĠWill ie
ĠTh ough
ĠP istol
w oof
S al
Ġtra pping
Ġseal ed
Ġmatt resses
Ġex cellent
Ġbelie f
ĠM ond
ĠM ars
Ġ9 11
y me
ay a
K evin
El iz
' ,"
Ġtr an
Ġr asp
Ġr ash
Ġpe w
Ġmust ard
Ġinvol ved
Ġins pect
Ġglist ened
Ġclin ic
Ġchann el
ĠUnder neath
ĠS ave
ĠR ush
ĠPar ty
ĠM ud
ĠL ying
up ert
l ife
a iled
P hew
C ongratulations
Ġter ror
Ġse le
Ġre ins
Ġrare ly
Ġpainter s
Ġfl ipper
Ġf er
Ġconcentr ated
Ġbill s
Ġal b
ĠPat ience
ĠL umber
ĠI vy
ĠG reat
p ilot
nd s
m aker
Will iam
Th row
O ff
Ġvict orious
Ġremain ing
Ġqu iver
Ġprod uc
Ġoverflow ing
Ġhob by
Ġex hibit
Ġbo bbed
ĠM ister
ĠM ick
ĠC able
ump kin
pt ion
in ked
cher s
ch y
b i
Ġun sc
Ġtast ier
Ġt ack
Ġstair case
Ġsneak ers
Ġscut tled
Ġre act
Ġor ch
Ġcomb ined
Ġclo ver
Ġcl asses
ĠPer cy
ĠPee k
ĠM aking
ĠJ emma
if fere
V anish
She lly
OO M
Near by
Ġvacu um
Ġunlo aded
Ġted dies
Ġt ending
Ġsurprising ly
Ġsniff les
Ġsh ades
Ġrun way
Ġh ind
Ġdism ay
Ġd azz
ĠSt art
ĠR ingo
ĠE ng
ĠD eer
Ġ (
wh o
iet y
g s
c hest
Z oey
EE P
Ġun pl
Ġsu nd
Ġspe edy
Ġsp itting
Ġsculpture s
Ġref uses
Ġiron ing
Ġfeed s
Ġf ate
Ġeff ect
Ġdig ger
ĠP urr
ĠMin ty
ĠM ason
ĠC ora
ĠBug s
iffere nt
R ebecca
D in
.' '
Ġunl ucky
Ġsty lish
Ġsill iest
Ġqu ality
Ġf ired
Ġdial s
Ġbreat hes
Ġbeh old
ĠSp ray
ĠS a
ĠR ibbit
ĠBa ld
w ow
oc ado
h ide
enn is
Pe anut
Ġtr ad
Ġshore line
Ġsh aving
Ġprotect or
Ġp ang
Ġout er
Ġham mered
Ġglimp se
Ġdia per
Ġcr umble
Ġcarn ival
Ġback ground
ĠRo d
ĠR ina
ĠMond ay
ĠI gn
p ers
ood le
Sp in
C ook
Ġpost s
Ġm ain
Ġinterest s
Ġconvers ations
Ġband aged
ĠJump ing
ĠF lower
ĠDan i
ĠC uriosity
ĠC elly
op en
St and
J u
Every body
B rian
Ġtw itch
Ġstalk s
Ġspring time
Ġshuff led
Ġpar amed
Ġopt ions
Ġkayak s
Ġinsist s
Ġhow ling
Ġgl ues
ĠSnow ball
ĠS ister
ĠN at
r ous
n ow
at t
as c
M amma
J ax
Els a
Butter fly
Ġw oo
Ġseashe ll
Ġlead ers
Ġcuc umbers
Ġch ug
Ġbubb led
ĠSt ick
ĠPip er
ĠN ellie
ĠFr uit
p ass
ord s
ix ie
c up
b ec
P ark
Ġsurrender ing
Ġsmo ot
Ġs ipping
Ġrel ation
Ġre jo
Ġmean er
Ġfloat ies
Ġco iled
ĠPrin t
ĠPed ro
ĠFork y
ĠC ate
v ia
ting u
c r
Ann abelle
Ġslap s
Ġsim ilar
Ġsharp en
Ġpast or
Ġpack s
Ġp ry
Ġo o
Ġnight fall
Ġmag pie
Ġle ashes
Ġimp act
Ġgrown ups
Ġgo bble
Ġfif teen
Ġfet ches
Ġex tingu
Ġdrople ts
Ġdemand s
Ġcre aked
Ġcaw ed
Ġcarpet s
Ġbull ies
Ġappro val
Ġalb um
ĠWin nie
ĠRad io
ĠMus cle
ĠInt rigued
z ero
Look s
A very
Ġst itched
Ġrust led
Ġmirr ors
Ġleap ing
Ġimagin ative
Ġignore s
Ġhurried ly
Ġhard working
Ġdare s
Ġbaseball s
ĠMon ica
ĠHug gy
ĠA da
az zy
ap es
Mon a
Jane y
Ġsy ring
Ġjigg led
Ġhoo ked
Ġgl inting
ĠTri xie
ĠStep hen
ĠH im
ĠG aby
ĠBall oon
ven ge
un ities
m ill
h appy
all ing
St ep
Ġune asy
Ġsheep ish
Ġrug s
Ġopport unities
Ġmeat balls
Ġlo ss
Ġjug s
Ġhesit antly
Ġfare well
Ġdoub t
Ġd il
Ġc ents
ĠY outh
ĠL auren
ĠFu el
ĠEl i
hand ed
g ling
aterpill ar
app iness
Sp icy
P izza
Ġwond rous
Ġwit ness
Ġtoug hest
Ġt iara
Ġsyring e
Ġpad lock
Ġmur ky
Ġmo ist
Ġmen us
Ġgobl in
Ġcollect ions
Ġbuzz es
Ġbless ings
Ġb ust
Ġb urp
ĠPe ppa
ĠL exi
ĠG row
ĠF ive
ĠBr ight
y er
t here
oos hing
l ost
h ave
Y oga
Ros a
Ro llie
P up
P ar
G reet
Ġunf reeze
Ġsucceed ing
Ġsqu atted
Ġsix ty
Ġsimple st
Ġris en
Ġre venge
Ġprop eller
Ġlo sers
Ġhat ing
Ġfor ming
Ġdou ble
Ġd ut
Ġcompliment ed
Ġclose st
ĠMouse y
ĠMar cus
ĠM ushroom
ĠE than
ĠC elery
oin ted
j ump
O AR
Ne w
Hel en
?âĢĿ ,
Ġstar ry
Ġposit ion
Ġpl un
Ġl ens
Ġhope fully
Ġhabit s
Ġfeed er
Ġend less
Ġeat er
Ġartist s
ĠW iggles
ĠO il
ĠGo lf
ĠF reeze
ĠEd ward
ĠB us
ĠB ecca
ph ones
n es
Th rough
T erry
Lou ise
Jo jo
Am ber
A gain
? '.
Ġwalk er
Ġunt w
Ġstrength s
Ġst umbling
Ġrid den
Ġpass age
Ġover night
Ġclum s
Ġcabinet s
ĠSee k
ĠJ ade
ĠF ast
ĠCl ar
âĢ ĺ
ur f
to es
Ġs ips
Ġgle aming
Ġforget ful
Ġdil ig
Ġcrack le
Ġchest s
ĠTr ouble
ĠMum ma
ĠMel anie
ĠM ara
ĠCh ocolate
Ġ 7
m agic
in oceros
az y
Go d
C andy
Ġte ch
Ġsp ine
Ġsecure ly
Ġcre aking
Ġbo bbing
ĠWill ow
ĠS imba
ĠK athy
ĠJes us
ĠAlf red
Ġ Yay
p air
im ate
ce l
b el
S oup
Bob bie
Ġyumm ier
Ġbar bec
Ġban ner
ĠC ont
lo at
e ers
cra ck
at rice
M arry
Ġz ig
Ġup s
Ġunw ell
Ġtre spass
Ġsw ift
Ġstrugg les
Ġpl uck
Ġflav ours
Ġaf loat
ĠPe ach
ĠP aper
ĠMar co
ĠK aitlyn
ĠFly ing
ong o
mb ur
ir anda
St upid
Re lease
R est
Jo hnnie
Ġtick lish
Ġscre ec
Ġass ured
ĠVo lcano
ĠTo ast
ĠJ unior
ĠD ing
ĠCh ina
v an
ut o
er ie
at he
Ġun ison
Ġspell ing
Ġscri bbles
Ġd ying
Ġcu pped
Ġconf using
Ġconcentr ate
Ġbud s
Ġattack ing
ĠW anda
ĠSh rimp
ĠP ray
ĠM erry
ĠJo el
isc illa
ed ience
Val ue
M ail
A NG
Ġz one
Ġwrigg ling
Ġtease s
Ġsm ir
Ġrece iving
Ġpack et
Ġmarvel ing
Ġleak s
Ġlad ies
Ġexplos ion
ĠTre vor
ĠSc r
ĠO at
ĠL o
ĠL ance
ĠDon na
isk y
T essa
P atch
L ife
L emon
Ġwarm ing
Ġthoughtful ness
Ġsp ir
Ġpo nder
Ġmother s
Ġha mbur
Ġcontented ly
Ġclever ness
Ġcleare r
ĠPo le
ĠFeather s
ĠButton s
iver s
ing ing
col oured
R on
N ate
Je an
Greet ings
Bug gy
Ġunz ipped
Ġun b
Ġsent ence
Ġground s
Ġdisplay s
Ġc y
Ġadop t
Ġadm itted
ĠY og
ĠSt one
ĠRock s
ĠO ctopus
ĠM ove
ĠBe ak
ĠB el
erc ise
ase y
R olly
P aws
Me g
Ġspot less
Ġro les
Ġreg ister
Ġpl umber
Ġorch ard
Ġmu les
Ġfo ss
Ġd ue
Ġawa ited
ĠThanks giving
yl via
t op
t able
f ying
W ink
Te acher
P ee
!' '
Ġth re
Ġsoap s
Ġd ice
Ġd ash
Ġc ities
Ġble nd
ĠT er
ĠHunt er
ĠDo c
ĠCl ap
w he
ve nder
d led
at hing
ack y
ab out
Ġwre cked
Ġsecret ly
Ġre solved
Ġqu ickest
Ġmean ings
Ġm uttered
Ġla vender
Ġint r
Ġher d
Ġhead phones
Ġgn ome
Ġcroak s
Ġco ast
Ġbet ray
Ġappet ite
ĠSc ale
ĠD iana
pp ly
isapp ointed
ik ki
id en
hel p
f our
bb ling
Who ever
T oy
S asha
B elieve
Ġviol ins
Ġpost ers
Ġponyt ail
Ġobst acle
Ġn ibbles
Ġluck ier
Ġfle x
Ġbat ch
Ġb on
Ġarm or
Ġadventure r
ĠUn iverse
ĠIn k
ĠFr ustrated
ĠA ren
z ip
ul ty
stick s
ic ense
d les
P ay
B un
Ġz ap
Ġpo d
Ġpe st
Ġmo an
Ġm ended
Ġkey board
Ġha lo
Ġgra zing
Ġdear ly
ĠWh ip
ĠSm iley
ĠF lex
ĠC om
se ed
or i
itt ers
at a
S andra
Jan et
Ġwh ilst
Ġstall s
Ġradi os
Ġne ared
Ġluxu rious
Ġlittle st
Ġcow g
Ġch ore
Ġbarbec ue
Ġant hill
Ġaim s
ĠSt ory
ĠNo sy
ĠMat ches
ĠBeep y
ll i
h ot
U m
T onight
Mat ilda
In c
Ġtray s
Ġswe ating
Ġsur ge
Ġsunb urn
Ġspat ula
Ġsa uc
Ġr umm
Ġper ch
Ġor ig
Ġopt ion
Ġhome made
Ġcollap se
Ġco cked
Ġchimney s
Ġbull s
Ġbedroom s
Ġball et
ĠRub ber
ĠR est
Ġ1 5
t les
shadow ing
j i
an cing
Rain bow
R andy
Jo an
E lle
Bird s
A rr
Ġwh ooshing
Ġwater y
Ġvend ors
Ġst umbles
Ġspl in
Ġsk ating
Ġsc oring
Ġrh yme
Ġh yd
Ġgreen s
Ġcr itter
Ġcop ying
Ġco ck
Ġam use
ĠT urkey
ĠK elsey
ĠE ast
ĠDin osaur
ĠCube y
ĠC ross
ĠBe ary
ĠApp les
ul ously
t ac
if ted
ab rina
T yler
Ru fus
Liz a
Fred die
A A
Ġtravel er
Ġtr ades
Ġste ad
Ġscra pes
Ġpar ades
Ġinsist ent
Ġcl amber
Ġchatter ing
Ġbeg ins
ĠT ad
ĠT abby
ĠRh inoceros
ĠR upert
ĠH alfway
ĠGrand ad
t est
m aking
h op
al king
Q uit
Q ueen
K ip
E d
CRA SH
B ring
Ġwh irring
Ġund erest
Ġsun beam
Ġsu p
Ġstr ut
Ġsnar ling
Ġrin ses
Ġprotect ive
Ġla z
Ġfulf ill
Ġcorn field
Ġconsid ered
Ġchild hood
Ġc ork
Ġbird seed
ĠNo d
ĠJ asper
r op
ig ed
e ze
b ies
b ag
ax i
arn ey
G l
G ary
F ather
Ġy anked
Ġstory book
Ġsque aking
Ġrh ym
Ġp uffy
Ġmean ie
Ġfl ush
Ġfif th
Ġdire ct
Ġbl ind
Ġadmire s
ĠZ eb
ĠSn ee
ĠSc ott
ĠS our
ĠL ions
ĠFo ot
ĠEm mie
ĠB iff
ĠAny a
n ut
iz mo
Ġyach ts
Ġvol unt
Ġunc ertain
Ġrem ark
Ġjourn als
Ġflo pped
Ġecho ing
Ġde ath
Ġcollect s
Ġcigarett es
Ġbull et
Ġarri ving
ĠTh row
ĠN ell
ĠM anny
ĠCloud y
ĠBar ber
ĠB oris
ĠAl icia
s ix
ol k
an as
ag ing
T ia
H istory
Ġsuggest ing
Ġstro king
Ġspr inted
Ġscreec hed
Ġpost c
Ġnew ly
Ġk o
Ġgreet ing
Ġfight ers
Ġent ers
Ġdon ate
Ġd ates
Ġcon so
Ġc urse
Ġbra ids
Ġar c
ĠP ippy
ĠP ilot
ĠHar old
ĠD ark
w ing
ra ser
n umber
am ent
W ise
Th ough
Sw im
P uppy
G as
Ġwiz ards
Ġtag s
Ġsilk y
Ġs om
Ġre el
Ġquarre lling
Ġhob bies
Ġgrown up
Ġgra ve
Ġgap s
Ġboo st
ĠPick les
ĠPh oebe
ĠP aw
ĠL acey
ĠH igh
ĠH ard
ĠH anna
ĠAv ocado
bel ief
R ita
Ol ivia
J elly
Ġwild er
Ġtra ce
Ġre nt
Ġprep ar
Ġobl iged
Ġlay ers
Ġfunn ier
Ġdem on
Ġclip board
Ġbetray ed
Ġbenef it
Ġachie ving
ĠSt ars
ĠSm ile
ĠOw en
ĠMic helle
ĠH aving
ĠFr iday
ĠE ag
ĠC aleb
ĠAr chie
Ġ10 0
wh oosh
ty le
ow s
os quito
et work
em ons
ctop uses
R a
Pe ggy
M ath
K ara
A pril
Ġplay mate
Ġman go
Ġfing ert
Ġdiffic ulty
Ġcook out
Ġc it
Ġapart ment
Ġany ways
Ġamuse ment
ĠSh arky
ĠPet al
ĠN emo
ĠLe arn
ĠJack son
ĠCh alk
ĠC up
ĠBeth any
ĠB umble
Ġ ic
w ear
ulif lower
j a
ivers ary
Dr op
Chew y
A P
Ġwild ly
Ġwh irl
Ġvillain s
Ġvillag er
Ġun cover
Ġt ut
Ġt iles
Ġsw ell
Ġsmart s
Ġs ighing
Ġregret ful
Ġpersu ade
Ġex isted
Ġcooper ative
Ġclick ing
ĠT ag
ĠP aint
ĠI ndy
ĠFr idge
ĠAd venture
ĠĠ ĠĠ
ver ance
t weet
s ure
mind ed
R oo
N umber
N O
E lephant
Ġst ab
Ġspo ilt
Ġru by
Ġrejo iced
Ġrake s
Ġkiw i
Ġfond ly
Ġcr ump
Ġcan n
Ġcan es
Ġbe ats
ĠRe g
ĠOr iginal
ĠIm agine
ĠG uppy
nn ess
im a
ar let
R ia
M int
M artin
En ough
Ġunsc rew
Ġtoug her
Ġtang y
Ġshy ness
Ġscoot ed
Ġprefer red
Ġmast ered
Ġj ay
Ġha irsty
Ġgentle man
Ġdrift ing
Ġax es
ĠMix er
ĠM iles
ĠJul iet
ĠH ome
ĠDe bbie
ĠB es
or ty
n s
br ushes
beh aved
a nder
T ammy
S ix
P ig
K enny
Ex it
Ġthre ats
Ġthousand s
Ġsup erp
Ġsqu irm
Ġsevent y
Ġrat tling
Ġperse verance
Ġpar ting
Ġnin ety
Ġneed ing
Ġmo pped
Ġlion ess
Ġk ettle
Ġk ern
Ġg al
Ġfruit y
Ġdemon str
Ġcar rier
ĠW ild
ĠPast a
ĠK ara
ĠD ifferent
ĠCl aws
ri cket
ret ched
m i
ir ley
ious ly
cr umb
be ar
F ore
Ch ange
C ould
Ġvis ible
Ġtrain er
Ġtid ier
Ġsw ish
Ġsuit able
Ġsauce s
Ġpout ing
Ġphotog rap
Ġlo af
Ġgl immered
Ġfi zz
Ġeight y
Ġdis belief
Ġdes pair
Ġch ant
Ġblouse s
Ġannounce ment
Ġad just
ĠW indy
ĠR epeat
ĠJ og
ĠCont est
ĠC and
ĠBl ood
uck le
se ven
s plash
or nness
n ine
b aa
Jen n
Cl ap
Bra vo
And rew
Ġwaist s
Ġwa iled
Ġstre ak
Ġsom ers
Ġp oo
Ġl itter
Ġk il
Ġho pper
Ġhand led
Ġfanc iest
Ġcomp ost
Ġcit iz
Ġbread crumb
ĠWhere ver
ĠSp aghetti
ĠMax ine
ĠKay lee
ĠK e
ĠJo hnnie
ĠF ine
ĠE rin
ĠDuck s
ĠDream s
ĠC aterpillar
po le
be at
K ay
Ġsurf ers
Ġrecommend ing
Ġin qu
Ġimpatient ly
Ġd u
Ġcomb ination
Ġch ief
Ġb ay
ĠSweet ie
ĠSam i
ĠPr iscilla
ĠLiz ard
ĠLeave s
ĠF our
ĠDo lph
un iversity
sp ell
r uck
kn ob
Will ow
S e
G erry
Ġwait ress
Ġtr ous
Ġst ash
Ġprov ides
Ġp ier
Ġover he
Ġout st
Ġmin i
Ġmerma ids
Ġjugg ling
Ġjing led
Ġigloo s
Ġgrump iness
Ġfaith ful
Ġdet ail
Ġco aster
Ġcap able
Ġbless ing
ĠP umpkin
ĠMe i
ĠFire man
ĠDo ve
ĠCle o
oc co
l aw
in n
ent ions
ch ors
al ities
W ind
W illy
W arning
R ub
Pe ace
K elsey
Ġwhir led
Ġthank fully
Ġstubb ornness
Ġso bs
Ġreind eers
Ġpick y
Ġphotograp her
Ġoutst retched
Ġglee fully
Ġexper iments
Ġdrum mer
Ġdoor knob
Ġdazz ling
Ġare as
ĠPr unes
ĠFo ld
ĠF ace
ĠD ance
ĠAn chor
ĠA ri
ro ll
or get
lu de
j ected
gra ndma
e ight
an anas
al i
W r
Tr uck
St ri
Quick ly
K it
F el
Carl a
C ari
Ġtrous ers
Ġt umble
Ġsi bling
Ġsheepish ly
Ġprod uct
Ġnorm ally
Ġmo ss
Ġg arl
Ġdump s
Ġcompl iments
Ġcloset s
Ġcamp s
Ġann iversary
ĠSome where
ĠRo ly
ĠHe art
ĠGl oria
ĠDo lls
ĠButter fly
z er
no vel
d anger
U ntil
St even
S pid
S T
Fr ustrated
B iggie
B ess
Ġslipp ers
Ġsi xt
Ġru ins
Ġremark able
Ġrecogn ised
Ġquarrel s
Ġpers isted
Ġlong ed
Ġinju ry
Ġhen s
Ġgrunt ed
Ġf res
ĠSqu ash
ĠPo ison
ĠM oe
ĠM isty
y um
s ized
n or
igg le
g row
ert ime
Sp ray
Pee k
L ong
Fl op
B arky
Ġtul ips
Ġsquaw king
Ġside ways
Ġround ed
Ġpoison ed
Ġp unch
Ġmo pping
Ġgreen er
Ġgl ory
Ġempt ied
Ġdis res
Ġcr itters
Ġcheetah s
Ġbull ets
ĠTh umb
ĠS pl
ĠRel ax
ĠPe ppy
ĠBe et
orget table
as ons
a uliflower
Spe ed
D ina
Ġyouth s
Ġwind mill
Ġthrill ing
Ġsnow s
Ġshiver s
Ġsens ible
Ġrecommend ations
Ġre qu
Ġpol icy
Ġins ides
Ġcolour ing
Ġbl ues
ĠSpark les
ĠM iranda
ĠLaw yer
ĠKn owing
ĠCra bbie
ĠC ord
ĠAg nes
Ġ3 0
Ġ $
rr rr
O xygen
H ot
D ance
Ġy e
Ġwrigg le
Ġtight en
Ġplug s
Ġpaw ed
Ġm ult
Ġdrum ming
Ġdroop y
Ġdilig ently
ĠU sing
ĠM uffy
ĠListen ing
ĠK ippy
ĠC ee
Ġ .
umb ly
sh ake
Tw ist
Ġunf orgettable
Ġun ra
Ġsafe st
Ġround about
Ġrecord ings
Ġr ushes
Ġpond s
Ġoutdo or
Ġm ash
Ġdist ress
Ġdirect ly
Ġdandel ion
Ġch ugged
Ġbri ef
Ġbreadcrumb s
Ġb ared
Ġatt racted
Ġassist ant
ĠO aky
ĠMad eline
ĠCra w
ĠB EEP
to ot
or othy
let e
Pen elope
G inger
Bu bb
Ġsupp ose
Ġsuggest ions
Ġsl edding
Ġsizz le
Ġscri bble
Ġs is
Ġparamed ics
Ġo ctopuses
Ġn ug
Ġmoder ation
Ġlight house
Ġg ad
Ġfo il
Ġfast ened
Ġe erie
Ġdi aries
Ġcool ness
Ġclamber ed
Ġble nded
ĠSteph anie
ĠStand ing
ĠSquee zy
ĠS et
ĠPain ting
ĠJes se
ĠF ar
ri p
ri lly
ere k
al ance
S ing
Le ah
He idi
Do do
Ch ocolate
Ġunpl ugged
Ġteam mates
Ġsumm ertime
Ġslither ing
Ġpl ump
Ġne g
Ġmeaning ful
Ġloop ed
Ġgu iding
Ġdra ped
Ġcle ve
Ġan chors
Ġam bit
ĠL y
ĠF ireworks
ĠBar b
ĠA llowed
ur ly
se l
ric anes
o le
ion ate
ged y
O t
H ank
G reg
Fl o
Ġvol ume
Ġtired ness
Ġsqueal ing
Ġpri zed
Ġmix ers
Ġmechanic s
Ġj ig
Ġhoot ed
Ġgarden ers
Ġcaf Ã©
Ġador ed
ĠS eth
ĠN etwork
ĠMoo Moo
ĠBe atrice
ĠAnn abel
ĠAbb i
sc apes
ot ions
ish a
ig uel
era ld
er gency
ar ch
ac on
N AP
Jo sie
Got cha
B arry
Ġwas her
Ġtul ip
Ġtornado es
Ġsurv ived
Ġsp out
Ġsome place
Ġsn oo
Ġs ession
Ġple a
Ġlay s
Ġencourag es
Ġdr unk
Ġcro aking
Ġcr ad
Ġbuy er
Ġbo ing
Ġapproach ing
ĠZ ebra
ĠWood y
ĠTr unk
ĠPill ow
ĠP ri
ĠP illy
ĠP al
ĠI nd
ĠHo pp
ĠD ennis
ĠC ongratulations
own er
om i
o ses
less ly
iff y
f ashion
ere al
ar r
S kelly
L A
F rosty
Ġshoot er
Ġpeel ing
Ġpast ure
Ġm oose
Ġimag ines
Ġem otions
Ġeld est
Ġcoop eration
Ġcact uses
Ġble ated
Ġal ph
Ġal as
ĠTh inking
ĠS eal
ĠR eal
ĠHar riet
ĠGr adually
ĠFore st
ĠE specially
ĠE raser
s un
ra ph
osaur us
P ol
Mar ch
L i
Din ner
Ġwa ry
Ġsw arm
Ġsplit s
Ġsear ches
Ġlimp ing
Ġgal ax
Ġdan gling
Ġd ents
Ġcamps ite
ĠT utor
ĠPa ige
ĠNe igh
ĠHe ather
ĠH ide
ĠGl ue
ĠDon ny
ĠCount ing
ĠC elia
ott ie
it z
i qu
b ecause
ang les
ale y
ab et
Z ee
Sh ake
M ick
J asmine
Ġyogurt s
Ġwhimp ering
Ġspeech less
Ġslow s
Ġpr ed
Ġpath way
Ġm ower
Ġland scapes
Ġfingert ips
Ġfe ature
Ġeager ness
Ġconso le
Ġbeam s
Ġbar bers
ĠTry ing
ĠRe ggie
ĠPig e
ĠPen gu
ĠIs abelle
ĠG un
ĠCass ie
ĠBob bi
ĠBaa Baa
ort ing
l icense
ive ly
in i
f or
asket ball
al ie
ach t
Sh adow
P ull
M a
K en
Ġv ig
Ġsw er
Ġre asons
Ġple ading
Ġoo hed
Ġim it
Ġgrasp ed
Ġfort une
Ġfl icked
Ġf ished
Ġer ra
Ġdetect ives
Ġcrow s
Ġbee keeper
ĠTra in
ĠS auce
ĠP ingo
ĠMill er
ĠD raw
ĠCra zy
ĠBl ocks
zz le
us age
oph ones
irr or
ig o
f r
ec ord
Stan ley
Pr ince
Bubb a
B onnie
Ġv ain
Ġunderest imate
Ġri chest
Ġpre y
Ġpar ach
Ġopen er
Ġob vious
Ġmen acing
Ġlow est
Ġin ser
Ġhelpless ly
Ġalph abet
ĠTe aspoon
ĠT am
ĠS tyle
ĠP an
ĠL illie
ĠDough y
ĠBear s
u le
s k
row s
ro ar
p her
l iest
Mel issa
Jo seph
C ats
C K
Ġwood land
Ġwise st
Ġtor ch
Ġsm eared
Ġraven s
Ġprison er
Ġpre c
Ġperm itting
Ġob edience
Ġmem or
Ġko ala
Ġgr ade
Ġfarm house
Ġcomfort ably
Ġbak ers
ĠW anna
ĠTrust y
ĠSt acy
ĠSal ad
ĠJu an
ĠD ust
ĠB on
ĠB itter
ĠA ddy
zz z
iz er
c atch
ag on
Will ie
R ory
R OAR
Car ly
Ġwonder land
Ġsund ae
Ġscrap s
Ġpot ty
Ġmarry ing
Ġinser ted
Ġg own
Ġcraz iest
Ġcigarett e
ĠSo cks
ĠSm iling
ĠL ara
ĠGen ie
ĠF ake
ĠCl ucky
oop ed
id get
ent er
d own
au nt
ail a
R ick
Min nie
M uffin
M indy
Kn ock
Eliz a
Br other
Al most
Ġwhizz ed
Ġtot al
Ġspeck led
Ġsho ved
Ġout run
Ġn umb
Ġl atch
Ġhandful s
Ġgl ance
Ġfind er
Ġcr umbled
Ġconqu er
Ġcan ce
Ġbold ly
Ġbelie ves
Ġbad ges
ĠV an
ĠT own
ĠSh irley
ĠR at
ĠL acy
ĠH ay
ĠG izmo
ĠC ray
ĠBl u
ĠAny time
ĠAl so
ĠA aron
ster y
rink les
ico le
h ony
az el
W as
Ne igh
Ġwhimp er
Ġtrain ed
Ġstitch ing
Ġst ressed
Ġsprout ed
Ġsprink ler
Ġskate board
Ġsharp ened
Ġpause s
Ġmeasure ments
Ġj er
Ġheed ed
Ġgri zzly
Ġel ves
Ġcock pit
Ġco z
Ġappear ing
ĠT ouch
ĠT igger
ĠP ush
ĠP in
ĠNe ck
ĠG ame
ĠCh oose
ĠCall ie
s omet
eter n
b owl
L a
Dog s
Ġwild life
Ġun even
Ġtech n
Ġt ad
Ġscatter s
Ġmajest y
Ġm mm
Ġlong ingly
Ġcl ang
Ġchuck le
Ġbored om
Ġav ail
ĠZ oo
ĠSn appy
ĠS er
ĠP art
ĠNeed le
ĠN ala
ĠL unch
ĠL ill
ĠDan cer
ĠA rm
Ġ ome
le nd
id den
epend able
en ch
aa ah
Ang el
Ġup coming
Ġtrick ing
Ġtack le
Ġtac os
Ġsm ashing
Ġshut ting
Ġrain water
Ġim m
Ġflick er
Ġfl ushed
Ġdiv ided
Ġcra fted
Ġclick s
Ġbust ling
ĠK arl
ĠG arry
ĠD en
ĠBu ry
ĠBu d
Ġ etern
to ed
se e
reck les
ess or
em s
danger ous
ave s
any a
T uesday
J imbo
D ay
B OOM
A ha
Ġt it
Ġscar iest
Ġrun g
Ġro sy
Ġring master
Ġmin ty
Ġjugg led
Ġcrump led
Ġcitiz ens
Ġcalend ars
Ġbeat en
ĠSh iny
ĠMail man
ĠCook ing
ĠB ack
m ary
h am
art ment
aff y
L iam
K athy
Ġwhip s
Ġw ilt
Ġv irt
Ġtrim med
Ġsym p
Ġstory t
Ġsnug gly
Ġramp s
Ġpass er
Ġdisres pect
Ġbr ist
Ġbehave s
Ġal ike
ĠWh ippy
ĠW alter
ĠTr udy
ĠT all
ĠSurpr ise
ĠSh op
ĠMic rophone
ĠGrand mother
ĠCow y
ĠBes ides
ĠB ike
yd ney
p ing
g ent
bb it
V iolet
Sh oot
Sh all
J eremy
F ighting
F etch
B oy
B elle
Aw w
' !
Ġtra gedy
Ġstead ily
Ġsplin ter
Ġsaw ing
Ġocc ur
Ġo val
Ġmic r
Ġlap s
Ġjigg le
Ġculture s
Ġcl ient
Ġas se
Ġambulance s
ĠO asis
ĠN apping
ĠIs abel
ĠGo ing
ĠG um
ĠG host
ĠCo le
ĠCo dy
ob ble
ic ity
er ous
ch ant
c are
Stri ke
M ic
Ġvill ages
Ġspell ed
Ġshoe box
Ġpick le
Ġoverhe ard
Ġoutsm arted
Ġmum bled
Ġmicr ophones
Ġmatch box
Ġinc ident
Ġfright en
Ġfar my
Ġch am
Ġarr anging
ĠC onnie
ĠB ongo
ud ges
m it
ir cus
bl ue
a omi
Th under
Sn ake
Rob o
R ich
Els ie
Cl uck
B rr
Ġvar iety
Ġrep ay
Ġpolice men
Ġped alling
Ġnug gets
Ġlay ed
Ġh uh
Ġfine st
Ġfarmy ard
Ġf ain
Ġdisturb ance
Ġcur ry
Ġbo l
Ġbasketball s
ĠS ign
ĠM osquito
ĠH oop
ĠF aster
ĠCro cky
Ġ Yuck
udy ing
ker chief
ast ing
T ick
Ġwet ness
Ġunder wear
Ġroast ed
Ġrecogn izing
Ġpun ched
Ġlo lly
Ġimm ense
Ġhand kerchief
Ġfest iv
Ġfaucet s
Ġey eb
Ġatt end
Ġarri val
ĠSam uel
ĠRo ary
ĠR ice
ĠN ikki
ĠMel inda
ĠH appiness
ĠFr isky
ve re
sp icy
m aybe
ipp ee
il ia
h oo
Sweet ie
Mo le
Che ers
Ġzigzag ging
Ġvar ious
Ġt ur
Ġswallow s
Ġspl attered
Ġprof ession
Ġpor cup
Ġpo ll
Ġplum s
Ġjoy s
Ġeven ly
Ġco ax
Ġapolog izing
ĠSurpr isingly
ĠMar c
ĠG inny
uc ted
t re
qu ack
p itched
ot or
ork y
les h
d isappear
c uff
b aby
arlet t
T ag
H ours
H oo
Car ol
Ġsens ed
Ġsaw ed
Ġreply ing
Ġpump ed
Ġprod uce
Ġpe ering
Ġo oh
Ġmad der
Ġhand cuff
Ġf lesh
Ġcl asp
Ġbr im
Ġboom s
Ġbo b
ĠVe ggie
ĠS issy
ĠS aid
ĠR occo
ĠP age
ĠK not
ĠEx ercise
ĠE lli
ĠD awn
ĠB aking
ĠAn cient
ri bbit
iv id
isp y
ant ic
T a
M anny
Luc as
An imal
Ġto sses
Ġthe rap
Ġter rit
Ġsp arked
Ġshoelace s
Ġround s
Ġrec ently
Ġr um
Ġnew est
Ġmoo ing
Ġhur ricanes
Ġha unt
Ġfr ol
Ġfish bowl
Ġfail ure
Ġex ist
Ġd itch
Ġconstr uction
Ġbrist les
Ġbaa ed
ĠTo e
ĠSte ak
ĠSn ail
ĠSl ide
ĠS af
ĠR everse
ĠP uzz
ĠN ation
ĠMo llie
ĠLast ly
ĠG rey
ĠCe ce
ĠBeet le
yl ie
w ord
per ation
owl ed
ll er
kn ow
ish y
ire s
No ah
Mon ths
J udge
I gn
G emma
Ġvirt ue
Ġtodd led
Ġspir al
Ġsmooth ie
Ġpress ure
Ġpo sed
Ġp ure
Ġmass ive
Ġkern els
Ġhas n
Ġflick ered
Ġengine er
Ġc ack
Ġbound aries
ĠY acht
ĠT en
ĠLe go
ĠGeor gie
ĠC ory
ĠB arney
iz ation
g reen
g a
arm ed
Or der
Ġwag gy
Ġwadd ling
Ġtipto e
Ġt ipping
Ġsul ked
Ġsug ary
Ġstrut ted
Ġsho ve
Ġseatbelt s
Ġreplace ment
Ġome let
Ġjuice s
Ġgolf er
Ġgentle men
Ġfell ow
Ġencount er
Ġde w
Ġd art
Ġcowg irls
Ġcold est
Ġbill boards
Ġbat tles
ĠTr ina
ĠSte am
ĠSn ip
ĠH onk
ĠH am
ĠC orn
um bo
irt een
ap on
ag ged
T ra
O ther
K ai
F le
Cl are
C r
A lf
Ġv ows
Ġsl ope
Ġre v
Ġjud ged
Ġhumming bird
Ġharb our
Ġdash board
Ġcollect or
ĠThe o
ĠS ylvia
ĠS and
ĠS abrina
ĠPl an
ĠP ower
ĠOt ter
ĠM ika
ĠKn ives
ĠJ em
ĠGra pe
ĠF ashion
ĠCl ock
ĠChick en
ĠCar ty
ĠBra ndy
Ġ `
z el
the w
ret t
ord an
irac ulously
ill ip
if ic
c ling
Ro ll
Mat thew
H onk
Every where
Do ll
Be a
B ingo
Ġwhist ler
Ġtut u
Ġswings et
Ġsmooth ness
Ġslow ing
Ġporcup ine
Ġneigh s
Ġleaf y
Ġitch ing
Ġfort unate
Ġeven ings
Ġcool s
Ġcaptain s
Ġbutter y
Ġbr ow
ĠSa usage
ĠEng lish
ĠCh air
t ract
sl ap
l ie
ir us
Y ellow
T hings
N avy
Her b
Fore shadowing
Ġuntw ist
Ġto urn
Ġsu pper
Ġspeak ers
Ġsmoot hed
Ġph ra
Ġn ailed
Ġlim it
Ġlate st
Ġjudge ment
Ġill ness
Ġhi ked
Ġextingu isher
Ġcham bers
Ġcamel s
Ġbr at
Ġbed side
ĠShe ila
ĠShark s
ĠR iding
ĠPl us
ĠPine y
ĠMag gy
ĠJeff rey
ĠGra b
ĠG iggles
ut er
ract ice
d i
am ole
ach ine
ac amole
Win ter
Sque ak
M op
M ara
He aring
Ġveil s
Ġtink ling
Ġsqu ashed
Ġscan ned
Ġpur ses
Ġmath s
Ġhesit ate
Ġgir ly
Ġg ur
Ġg ig
Ġfootball s
Ġescap es
Ġdar kest
Ġchess board
Ġbe ings
Ġb umble
Ġavoid ing
Ġatt ent
Ġalarm s
ĠSwim ming
ĠSpin ning
ĠS ec
ĠS at
ĠIt chy
ĠF air
ĠBr ady
or ay
it eness
ist ic
g h
c um
L ast
Jon athan
Bo at
Ġterrit ory
Ġscen es
Ġrain storm
Ġmark ings
Ġman ner
Ġint entions
Ġgu acamole
Ġgrill ed
Ġfear less
Ġcoconut s
Ġche m
Ġb oop
Ġappl ied
ĠT y
ĠSw ans
ĠSw an
ĠSm elly
ĠSl ippy
ĠS P
ĠP itch
ĠL otion
ĠHoot y
ĠCl over
ĠA iden
w is
p ensive
ar ium
Sm ile
M erry
J am
Fl ora
D isappear
Cl oud
Bee f
Ash ley
Ġweak ly
Ġtre et
Ġspec tac
Ġsh ifted
Ġscowl ing
Ġsav ored
Ġrece ption
Ġpro ven
Ġlo cket
Ġh y
Ġfurt hest
Ġfl itting
Ġevery time
Ġcalm ness
Ġa ward
ĠZ ac
ĠT ape
ĠStri pe
ĠSte el
ĠS ari
ĠRock o
ĠO ats
ĠL ula
ĠG ab
ĠD orothy
ĠCh ildren
ĠBoun cing
ĠB er
âĢ ĵ
uccess ful
night mare
know ingly
ier re
eter ia
ee e
amp s
L ad
Gr umpy
Be es
Ġspectac ular
Ġseesaw s
Ġrhin ocer
Ġre se
Ġnood le
Ġkil os
Ġinter rupt
Ġgad gets
Ġg inger
Ġfanc ier
Ġdog house
Ġcr op
ĠWh atever
ĠS el
ĠRo ll
ĠPol ice
ĠPhil ip
ĠPe bble
ĠJ ada
ĠH en
ĠFran c
ĠF rench
ĠButter flies
ĠBlue berry
ĠA corn
Ġ ident
the y
ren ce
inn ied
im id
Z ap
W il
Lemon ade
L u
Go ld
Ex cellent
Ġwh innied
Ġt icked
Ġstamp ing
Ġpred ator
Ġmight iest
Ġkeep ers
Ġje well
Ġint imid
Ġfre es
Ġfeature s
Ġdo cum
Ġdisrespect ful
Ġcoo ing
Ġcaf eteria
Ġc av
ĠWhe at
ĠTe a
ĠSo ld
ĠScr uffy
ĠOy ster
ĠM oral
ĠH umble
ĠD es
ĠD ependable
ĠCloud s
ĠC urly
ĠB ook
ĠB asketball
ĠAfter ward
ĠA ly
re lease
l ong
is itive
cl oud
ad dy
Wo nder
V icky
Mom ents
Jenn ifer
Hmm m
Danger ous
D oug
Ch ild
?' '
Ġwrink les
Ġwatch ful
Ġv irus
Ġtail or
Ġstri ve
Ġstorm ed
Ġshort ly
Ġsaw s
Ġpy jamas
Ġpound ed
Ġpol iteness
Ġpin ec
Ġpasser by
Ġparach ute
Ġmedic ines
Ġexplo des
Ġear ring
Ġdescri bed
ĠWorm s
ĠWoof y
ĠSt reet
ĠSmo oth
ĠSc reen
ĠNeed les
ĠEl isa
ĠE le
ĠC ricket
ĠB anana
ĠB ab
ĠAm ie
Ġ ir
ow der
ou rage
or gan
ger y
ere sa
ass ionate
R R
Jo Jo
Any thing
Al an
?' "
Ġwheel ed
Ġvolunt eer
Ġtran sp
Ġting ly
Ġtal ons
Ġsting ing
Ġsomers aul
Ġschool s
Ġrelation ships
Ġqu alities
Ġponder ed
Ġp ity
Ġinqu isitive
Ġhairsty le
Ġhaircut ter
Ġfabric s
Ġdaydream ing
Ġcom ment
Ġcann on
Ġashtray s
Ġash ore
Ġar cher
ĠTruck o
ĠTruck ie
ĠTe am
ĠMail box
ĠM itch
ĠLe an
ĠL og
ĠF all
ĠDe an
ĠC ereal
ĠC auliflower
ĠB itty
st one
in ated
he althy
Y ippee
O scar
B ro
Ahh h
Ġwhe e
Ġstrang ely
Ġsoot he
Ġsl ings
Ġsent ences
Ġsa les
Ġpu bl
Ġprofession al
Ġpostc ard
Ġover c
Ġnight time
Ġmost ly
Ġmar ches
Ġlast s
Ġic ic
Ġetern ity
Ġconcer n
Ġcheek y
Ġchalk board
Ġbuild s
Ġbreak able
Ġaim ing
ĠY ield
ĠV ictory
ĠTer ri
ĠS NAP
ĠR ep
ĠPl ant
ĠLady bug
ĠHonest y
whe el
t urn
s pe
h ate
cl ap
T ri
Sweet heart
P iggy
N ed
Le ft
H ug
Be aky
Ġwh is
Ġtrespass ing
Ġtit le
Ġthreat ening
Ġsword fish
Ġsn arl
Ġsh rie
Ġrefle ctions
Ġre eds
Ġre cy
Ġfasc ination
Ġd ise
Ġbright ness
Ġapp oint
Ġad ver
ĠSp ace
ĠSk ipping
ĠPar rot
ĠNovel s
ĠMar io
ĠLuc a
ĠL azy
ĠK iss
ĠJ ed
ĠH orn
ĠF reckles
ĠF isher
ĠDi amond
uxu ry
st age
ht aking
en e
en ched
co ot
aw r
ather ine
Z ack
L ight
G irls
Be have
Ġvan s
Ġun knowingly
Ġth irteen
Ġt ilt
Ġsupport s
Ġstrong ly
Ġs ke
Ġri pping
Ġrhym es
Ġprice less
Ġperson ality
Ġpay ment
Ġow ie
Ġno is
Ġm akers
Ġheart beat
Ġexcept ion
Ġed uc
Ġdis like
Ġcomplain ts
Ġch ugging
Ġbreat htaking
Ġbol ts
Ġb id
Ġad j
Ġa ah
ĠW ool
ĠS hip
ĠQ uit
ĠGun s
ĠF ancy
ĠD is
ĠBlack y
ĠBalloon s
w orth
se a
r ist
ound s
inc rease
f ight
Wo ah
V ictory
T iger
O p
N icky
M s
M ild
B ooks
, âĢľ
Ġwe ave
Ġunh armed
Ġtransform ation
Ġswim mers
Ġsteam y
Ġsprink ling
Ġslurp ed
Ġshr ugging
Ġro le
Ġpers pect
Ġmer cy
Ġle aked
Ġher mit
Ġforce s
Ġeng ulf
Ġdra ins
Ġdin ners
Ġd read
Ġbut cher
Ġab s
Ġa choo
ĠW ashing
ĠV inny
ĠSp rinkles
ĠMe ena
ĠJo se
ĠC am
ĠBel inda
w ed
um sy
raw berry
om en
es ky
d ough
b reak
az ingly
aut iously
W ar
T ess
Car rie
? !âĢĿ
0 0
Ġyellow s
Ġwhizz ing
Ġtourn ament
Ġsuper vision
Ġslings hot
Ġsel ves
Ġsa m
Ġrul ers
Ġreal ising
Ġp esky
Ġobe ying
Ġne ater
Ġint ense
Ġgrow th
Ġgig antic
Ġgest ured
Ġfrog gy
Ġflood ing
Ġcow ard
Ġcool ing
Ġconvin cing
Ġcarp enter
Ġb i
Ġaw ait
Ġadj usted
ĠSt upid
ĠSal ty
ĠHel per
ĠGr uff
ĠDi ane
y s
st ream
Spid er
Rest ore
Lad ies
Cra b
Co ffee
Ġtopp led
Ġstaff s
Ġst am
Ġspl at
Ġret rie
Ġreflect ing
Ġprof essor
Ġmatey s
Ġm az
Ġin tern
Ġhunt ed
Ġfain ted
Ġexpress ing
Ġcleve rest
Ġblossom s
ĠT alk
ĠSt inky
ĠPray ing
ĠPen cil
ĠP ixie
ĠLou is
ĠD ale
ĠCh airy
ĠBlack ie
ĠBl aze
ĠBee bee
ĠB athing
ĠA round
v anish
oy o
oy d
ow ers
or my
ign orant
hn ess
fe ree
er al
em ergency
at ience
art en
St e
S uper
Pl ant
K at
Jo ke
Fel ix
Ch ick
Be st
Ġstoryt eller
Ġsharp er
Ġsea side
Ġrhinocer oses
Ġre feree
Ġraft s
Ġpy ram
Ġpr os
Ġpool s
Ġplank s
Ġpe aked
Ġpass word
Ġoutsm art
Ġo ar
Ġmer rily
Ġgl orious
Ġfour teen
Ġf ang
Ġe ss
Ġdrum sticks
Ġdrip s
Ġd iet
Ġche ery
Ġb ul
ĠT ug
ĠT uffy
ĠT onight
ĠPige on
ĠP u
ĠJog ging
ĠE aster
ĠCon nor
ĠC arry
ĠA ir
u a
p ower
ile ts
i ya
i us
h at
Thank fully
ST OP
Jen nie
B ANG
Ġwh om
Ġsn ored
Ġsm udged
Ġsh im
Ġrel uct
Ġpuck ered
Ġpin ned
Ġpat s
Ġmention ing
Ġmaz es
Ġlong ing
Ġin h
Ġgl int
Ġbl oss
ĠP ay
ĠK ari
ĠJul ian
ĠGeor g
ĠCl uck
ĠCh ug
ĠB aker
y ay
s u
p le
nt er
k ie
ir ation
g ies
fere nce
f y
b ack
all s
Per fect
P ink
G wen
Flop sy
? !".
Ġunt idy
Ġtrad ition
Ġtent h
Ġsn out
Ġsmo ked
Ġsmir k
Ġsl iced
Ġshe pher
Ġr ap
Ġpot ions
Ġpat ched
Ġobser ves
Ġhot dog
Ġhambur ger
Ġh ula
Ġgrand ad
Ġdemonstr ated
Ġcelebr ations
Ġa qu
ĠUp on
ĠSn akes
ĠSh aron
ĠM ist
ĠM iguel
ĠH igher
ĠE asy
ĠCol ors
ĠCarrot s
ĠCar ley
ĠAnt hony
ĠA h
v ation
ssssssssssssssss ssssssssssssssss
ro lled
f ty
aff od
Tim othy
Sque eze
Sh ark
S end
Jo lly
C ake
At t
Am i
Ġty ping
Ġtwitch ing
Ġsw ished
Ġshut s
Ġshepher d
Ġscared y
Ġs outh
Ġrest s
Ġpubl ic
Ġpoor ly
Ġpleas antly
Ġpest s
Ġpart ied
Ġnuzz le
Ġintern et
Ġgarl ic
Ġfountain s
Ġflood s
Ġfive s
Ġeyeb rows
Ġdiv ide
Ġba les
ĠV ict
ĠPrin ty
ĠGood night
ĠGo at
ĠF ree
ĠE ggy
ĠE ar
ĠB and
ĠAnt s
worth y
w in
ur s
ur ray
udd le
ub s
st em
st ance
somet imes
ro l
ri ve
or ny
o il
keep ing
in ished
ila h
ck ing
C ro
B uster
B a
App le
A aaah
Ġwar s
Ġtriumph ant
Ġsh immer
Ġseat ing
Ġre ve
Ġrat tled
Ġmel o
Ġla unched
Ġla pped
Ġjig saw
Ġhyd rant
Ġglo ssy
Ġerra nds
Ġdream land
Ġcre vice
Ġcontain ers
Ġcast ing
Ġbon fire
Ġappearance s
Ġaccomplishment s
ĠZ ed
ĠWhist ling
ĠRun ning
ĠM art
ĠM ack
ĠF er
ĠD erek
ĠB ananas
t r
t aker
on ica
oc key
d ely
at ops
Woo ly
The o
Sp arky
S ister
R aven
M aisie
Jo dy
I nt
I NG
H igher
G ret
E rnie
D ragon
Ġtend er
Ġsur gery
Ġstab bed
Ġsoot hed
Ġsk ated
Ġrumm aged
Ġru dely
Ġreassuring ly
Ġoverc ame
Ġoper ations
Ġmelo dies
Ġheaven s
Ġgl are
Ġflower y
Ġfish y
Ġfang s
Ġdr ool
Ġdise ase
Ġcho ppy
Ġbund led
Ġback up
ĠWhist ler
ĠW ipe
ĠR ot
ĠLuc ie
ĠL olly
ĠHe ad
ĠG ently
ĠC amp
ĠBl ow
le as
go ing
ar is
Po ison
D ream
Ġwhir red
Ġwe aving
Ġvig or
Ġun ne
Ġtug s
Ġto ns
Ġt amb
Ġsting y
Ġsp a
Ġsouvenir s
Ġshrie ked
Ġreturn s
Ġretrie ved
Ġper haps
Ġold s
Ġmold s
Ġlast ing
Ġl ure
Ġhouse work
Ġgod s
Ġfi ery
Ġer asing
Ġeduc ation
Ġcontin ues
Ġboss ing
Ġar f
Ġapolog izes
ĠWatch ing
ĠM is
ĠJ azzy
ĠFrog s
ĠF ear
ĠCan ada
ĠB est
y uck
g ged
d is
d ened
Tweet y
Sun shine
Pat rick
M aking
J emma
Gl ad
D aughter
C ircus
Ġun healthy
Ġto ken
Ġtherap ist
Ġtamb our
Ġpar cel
Ġo int
Ġn udge
Ġjust ice
Ġinstr ucted
Ġfig uring
Ġext ended
Ġdut y
Ġdandel ions
Ġd affod
Ġcr an
Ġcan ary
Ġc ure
Ġband ana
Ġappoint ment
ĠWe ar
ĠT est
ĠSold ier
ĠSc rew
ĠR oom
ĠQu iz
ĠPlan et
ĠPee king
ĠP iece
ĠOr gan
ĠNight mare
ĠMatt ie
ĠMar ry
ĠLe a
ĠG reed
ĠCra sh
ĠC acky
ĠAm elie
ump ed
pec ts
ool ish
itt ered
al t
P ray
P et
M an
L oop
It s
H oot
F ood
D ora
C aptain
Bl ast
Ġzigzag ged
Ġy eah
Ġwoo lly
Ġt us
Ġsub tract
Ġsatis fying
Ġs id
Ġrece ip
Ġran cher
Ġpur s
Ġprotest ed
Ġproduc ed
Ġpol ishes
Ġperformance s
Ġpar lor
Ġhung rily
Ġfa bul
Ġf al
Ġen sure
Ġconf ron
Ġbrilliant ly
Ġble nder
Ġadver t
ĠTra cy
ĠM iraculously
ĠM arian
ĠKn ife
ĠD eep
ĠCraw l
ust ing
ric ia
m in
id ers
f ragile
ent ed
enn as
b a
all ory
Tweet ie
R em
Pop corn
D ylan
Che ck
C omp
C olin
Ġunscrew ed
Ġun ity
Ġstubborn ly
Ġske pt
Ġsho pped
Ġsauc ers
Ġrow boat
Ġrefle cted
Ġoint ment
Ġoccur red
Ġo ily
Ġn ick
Ġmoo s
Ġlun ches
Ġin ner
Ġhelpful ness
Ġhandcuff s
Ġgr ades
Ġgener ations
Ġgaz es
Ġform s
Ġfight er
Ġfabul ous
Ġf ry
Ġdra ined
Ġdev oured
Ġcho ked
Ġattem pted
Ġarm our
Ġant ennas
Ġadop ted
Ġaddress ed
Ġa a
ĠWe apon
ĠS ydney
ĠP orky
ĠM er
ĠL emons
ĠJo in
ĠG oo
ĠC oop
ĠA uto
the less
ne ck
leas ant
it or
Wo lf
W ork
Ot to
Me et
Mar ley
L ee
E R
Cra sh
Br ad
! ?"
! !"
Ġwild est
Ġwash cloth
Ġunt ouched
Ġtweet ing
Ġsteep er
Ġshim m
Ġresponsib ly
Ġpuff ing
Ġpermit s
Ġn orth
Ġlike ly
Ġh ars
Ġgum ball
Ġg ut
Ġflag pole
Ġfer oc
Ġengulf ed
Ġdisobey ing
Ġcr unched
Ġcontro ls
Ġbrief case
Ġbe ady
ĠT eresa
ĠStu art
ĠSqu ishy
ĠS ully
ĠOy sters
ĠM arla
ĠL ili
ĠKeep ing
ĠFisher man
ĠFel icity
ĠC asey
ĠBl ossom
v able
r ude
op eration
olo getic
im et
ative ly
at ers
Mat ty
Jo anna
D i
Ar thur
Ġw ed
Ġunne cessary
Ġtrot ting
Ġteleph ones
Ġtac o
Ġt attered
Ġsw um
Ġstra nded
Ġste als
Ġspin ny
Ġsn oop
Ġsafe keeping
Ġreluct ant
Ġrelax ation
Ġreg ard
Ġmis beh
Ġinsp iration
Ġhonest ly
Ġharsh ly
Ġfor mer
Ġfair ness
Ġdisturb s
Ġdec rease
Ġcrowd s
Ġconnect s
Ġconfron ted
Ġboat man
Ġadv ised
Ġa ched
ĠZ ane
ĠSun flower
ĠSo ary
ĠS uccess
ĠPup il
ĠP ierre
ĠO aty
ĠM al
ĠLy nn
ĠL ock
ĠFl ip
ĠEn ormous
ĠE ddy
ĠD isappointed
t a
rn old
p re
ok o
m on
l ot
ape st
S ummer
R awr
C hip
Ġtrust worthy
Ġtreat ing
Ġsw iped
Ġsp iciest
Ġslurp ing
Ġshow ered
Ġrecogn izes
Ġreception ist
Ġrasp berries
Ġpre ference
Ġplun ge
Ġperse vered
Ġorig ami
Ġjer sey
Ġimp atience
Ġignor ance
Ġdark en
Ġcent imet
Ġb ale
Ġaqu arium
Ġapolog ise
Ġap ologetic
Ġallow s
ĠY oyo
ĠT ow
ĠSt ore
ĠSh ape
ĠSP LA
ĠMa jest
ĠLu isa
ĠL yla
ĠL ord
ĠL ead
ĠL a
ĠKe ith
ĠH azel
ĠFl it
ĠEvery time
ĠClar issa
ĠCat y
ĠBubb ly
ĠB uckle
ĠB ath
Ġ vers
v is
re a
o ken
len ess
le ct
ink s
ind eer
h istory
ch ug
T iti
R es
P inch
Or ange
H alfway
D ead
Ġwadd le
Ġvigor ously
Ġunp leasant
Ġto pping
Ġsp ool
Ġsk id
Ġsixt een
Ġsav oring
Ġru bble
Ġreceip t
Ġrag ing
Ġproud er
Ġlight est
Ġkick ball
Ġfetch ing
Ġey el
Ġentertain ed
Ġelse where
Ġeach other
Ġdri er
Ġdo omed
Ġdark ened
Ġd ipping
Ġcrad led
Ġcost ly
Ġclever ly
ĠWil son
ĠSt ormy
ĠSh awn
ĠReg ret
ĠRa j
ĠNat alie
ĠLe on
ĠL aila
ĠKim my
ĠGrow ly
ĠGold y
ĠEl ena
ud ging
ren ched
red ible
ob web
iz i
iv a
il izer
f ume
f aced
Surpr isingly
P ear
M us
M uch
K yle
Jelly fish
J umpy
G irl
C ici
Ġunra vel
Ġtuck ing
Ġto ilets
Ġthro ats
Ġstam mered
Ġshortcut s
Ġsharp ening
Ġsew s
Ġrect angles
Ġrack et
Ġpreference s
Ġped dled
Ġo inked
Ġgreen est
Ġgold fish
Ġfoss ils
Ġfestiv als
Ġel ated
Ġdri bble
Ġdelic ately
Ġcre st
Ġcluck ing
Ġcare taker
Ġbomb s
Ġbe llowed
Ġbe ck
Ġar ch
Ġamazing ly
ĠYog urt
ĠT ob
ĠSl im
ĠSat urn
ĠM icky
ĠL ana
ĠHold ing
ĠG ri
ĠF il
ĠDuck ie
ĠCl umsy
ĠC uppy
ss a
ne el
d ictionary
b ike
aught ers
am s
Rel uctantly
Rel ax
O il
O U
K ick
G illy
E rin
Dot ty
Car oline
Bl inky
B on
Ġspeed ed
Ġspace ships
Ġsomersaul ts
Ġskill ed
Ġrose mary
Ġripp le
Ġpr oc
Ġpr anced
Ġphra se
Ġmilk shake
Ġm ould
Ġimit ate
Ġhe ap
Ġfrag rant
Ġf ame
Ġess ential
Ġdepend ing
Ġche apest
Ġbumble bee
Ġb acon
Ġatt aches
Ġargum ents
Ġappreci ating
ĠV era
ĠT reat
ĠT id
ĠT anya
ĠSp iders
ĠSh ock
ĠPr un
ĠPinch ing
ĠP urry
ĠP umpy
ĠP erry
ĠMajest y
ĠLe wis
ĠGreen ie
ĠDraw ing
ĠComp y
t ails
ro ck
ric ate
l iness
U gh
T ouch
St ealing
F a
C her
C ammy
Ġsy stem
Ġsnow storm
Ġslow est
Ġregret s
Ġre cover
Ġpe gs
Ġp ulp
Ġknowing ly
Ġkne ad
Ġkn itted
Ġimprove ment
Ġhead band
Ġg iddy
Ġdep artment
Ġday time
Ġcr ush
Ġcar go
Ġbrown ies
Ġbro ad
Ġbat ted
Ġbas ics
ĠTe acher
ĠSw ing
ĠSk ye
ĠS orting
ĠGuard ian
ĠG rill
ĠFranc is
ĠF am
ĠD ella
ĠBrush y
ĠBl ake
ĠBen ji
ĠB ucky
ĠB re
Ġ ou
to gether
stri ke
sm ith
rest ore
ot ic
ot hes
ic als
g arten
d ges
ap le
Wh ale
S il
Ro xy
Re al
P ast
Miss ile
K iss
Jo in
E le
B iggy
B anana
1 0
Ġy olk
Ġv iolet
Ġunf ro
Ġtwink ly
Ġtus ks
Ġtower ing
Ġspoil s
Ġscree ching
Ġround er
Ġrace car
Ġprog ram
Ġposs ibly
Ġp i
Ġon board
Ġl ane
Ġkinder garten
Ġint ricate
Ġgrill s
Ġgr ouch
Ġflick ering
Ġfat ter
Ġfash ions
Ġdroop ing
Ġdelay s
Ġd renched
Ġconcentr ation
Ġban ners
Ġacc ord
ĠW ords
ĠSplash y
ĠSh ade
ĠLance lot
ĠDolph in
ĠBo ot
t asting
rop ri
ro ve
ro se
ri ving
r id
p aper
it er
gra ndpa
eb ast
ebast ian
der n
Turn s
Pat ience
P eep
F aye
D raw
Bro ccoli
B ally
Ġwallet s
Ġtreet ops
Ġthunder ing
Ġsuperp owers
Ġstra pped
Ġsl umped
Ġser ver
Ġrese arch
Ġprepar ation
Ġpaint brushes
Ġp iling
Ġjud ging
Ġhospital ity
Ġfr amed
Ġfo l
Ġcro iss
Ġcommand s
Ġclums iness
Ġchem icals
Ġbra ked
Ġblack smith
Ġbl ister
Ġbelong ing
ĠSnee zy
ĠS coot
ĠP ret
ĠN aomi
ĠMake up
ĠL uxury
ĠK id
ĠJu ly
ĠJ ordan
ĠGl ove
ĠFlex i
ĠF izz
ĠE vie
ĠComp uter
ĠComp assionate
ĠChe ap
ĠCh ad
ĠCD s
ĠB ry
ĠB ri
ĠA head
op her
o ise
ly de
a vers
Z ippy
Wh atever
Sal t
Rob in
Del icious
Cra ck
Ch ar
Ġtrumpet ed
Ġtiss ues
Ġth aw
Ġtambour ine
Ġspoon ed
Ġspark lers
Ġsnack ing
Ġpre vious
Ġpig tails
Ġpa using
Ġp ul
Ġover coming
Ġmuff led
Ġl l
Ġjump y
Ġinvol ve
Ġey ed
Ġdifficult ies
Ġcor als
Ġcance lled
Ġcamp ers
Ġbe aches
ĠTw ink
ĠSt ories
ĠSc arlett
ĠS urrender
ĠS urf
ĠR em
ĠR ecord
ĠP ort
ĠN icole
ĠN O
ĠLe ila
ĠL ay
ĠH ad
ĠG il
ĠE van
ĠBe aver
ty ard
th ump
s pl
po les
p ool
orm s
ight ened
gr oup
el ines
athe t
T urt
S our
Mon ica
Car rot
A v
Ġu lt
Ġtr ink
Ġsplash y
Ġsill ier
Ġsid elines
Ġsaf aris
Ġsa p
Ġrep orter
Ġreel ed
Ġpract ise
Ġplay mates
Ġorder ly
Ġno zzle
Ġman t
Ġkid n
Ġham per
Ġclass mate
Ġch or
Ġboard ing
Ġb alm
Ġamount s
ĠWith in
ĠT asty
ĠSt udying
ĠSe aty
ĠR ino
ĠPir ates
ĠPengu in
ĠP uddles
ĠP rice
ĠOl af
ĠN appy
ĠL aug
ĠJess y
ĠHand le
ĠGen erous
ĠFr ightened
ĠEarth quake
ĠE gg
ĠCat ie
ĠBald y
Ġ" '
w ould
w ill
unk y
sp in
sol ve
ress ive
r ont
oo oo
o iled
la im
ilar ious
g led
fort unate
ek s
d ad
b ig
app ily
ag s
We ee
Mar ty
, âĢĻ
Ġunf inished
Ġtravel ers
Ġtran qu
Ġswoop ing
Ġsh ack
Ġret ri
Ġresponsib ilities
Ġrecy cling
Ġperspect ive
Ġp oodle
Ġmass aged
Ġm am
Ġlad le
Ġhold er
Ġhide away
Ġgrump ier
Ġfor ked
Ġfluff ed
Ġcur vy
Ġcraz ier
Ġbun s
Ġbouquet s
Ġbookshe lves
Ġaw oken
Ġapp ropri
ĠSt acey
ĠSp ooky
ĠSc ore
ĠPl ane
ĠPer fect
ĠPaul ine
ĠP oint
ĠOther s
ĠNear by
ĠL ala
ĠJen kins
ĠInch y
ĠHoot ie
ĠG arden
ĠCact i
ĠĠ Ġ
âĢ¦ âĢĿ
orm al
l antern
iped e
ic he
ib ility
g as
ah h
Z ebra
Y ep
V o
T ock
S ounds
Prin t
Mix y
M oney
M oe
Look ing
Let s
G ray
Bl ack
Al ison
." .
Ġsw ore
Ġsurf boards
Ġstraight ened
Ġst ooped
Ġso f
Ġreve als
Ġrespond ing
Ġpres ident
Ġn av
Ġmotor bike
Ġmold y
Ġmemor able
Ġjing ling
Ġhe dges
Ġhand ling
Ġh ilarious
Ġgri nd
Ġfoolish ness
Ġf itted
Ġdragon flies
Ġdepend s
Ġd un
Ġcour tyard
Ġconf ront
Ġclub house
Ġcentimet ers
Ġcab oose
Ġbe avers
Ġaffect ion
ĠYog i
ĠWr ite
ĠSome how
ĠSm udge
ĠS ix
ĠP ull
ĠLe ft
ĠKing dom
ĠK itten
ĠH air
ĠDish washer
ĠD O
ĠCle ver
ĠAl ina
pp ort
ourn al
if ied
f un
d s
cl ick
arp er
Y awn
Sw ing
Spark le
Sam uel
Par ty
Par rot
Op era
N elly
N ellie
F uel
E S
Care fully
C ount
Alf ie
A d
Ġv ivid
Ġsnatch ing
Ġsad dened
Ġpod s
Ġjewell ery
Ġill um
Ġfunn el
Ġfoss il
Ġfil th
Ġemb ark
Ġdislike s
Ġcont ra
Ġc al
Ġbl ushes
Ġbarbers hop
Ġbar gain
Ġbalance s
Ġback stage
Ġapp ly
ĠSt ir
ĠSc ary
ĠMo dest
ĠM otor
ĠM or
ĠK night
ĠHer bie
ĠElli ot
ĠChe l
st art
pe w
oo ch
is m
d ong
ch airs
cer atops
ce p
bl ock
b ulb
W ine
Ros y
Light ning
L ady
Har riet
Grace ful
F airy
D is
CRA CK
Ba iley
A llie
Ġunlo ading
Ġu gl
Ġtri ceratops
Ġtad poles
Ġst uttered
Ġsqu ishing
Ġso b
Ġsim pl
Ġsens itive
Ġs cep
Ġripe st
Ġpuff s
Ġplay group
Ġn udges
Ġmar chers
Ġl itt
Ġin it
Ġgra ze
Ġfo e
Ġcla im
Ġcareless ness
Ġbump er
ĠSp ud
ĠRain y
ĠP ipe
ĠL ori
ĠL il
ĠJe wel
ĠJ umbo
ĠFl our
ĠDen ise
ĠCol or
ĠChalk y
ĠC ool
ug s
pers on
m ath
k ick
ec or
aff les
ad s
a ac
P a
Le af
L ydia
Do lls
D iana
Cl ock
C elery
B ark
Ġye ast
Ġwre st
Ġwre cks
Ġun fortunate
Ġtouc an
Ġsymp athet
Ġst uffy
Ġsm udge
Ġscep ter
Ġre cycle
Ġpredator s
Ġpow ders
Ġpink y
Ġpin ata
Ġpartic ip
Ġheal er
Ġgent ler
Ġfrag rance
Ġerase s
Ġcou ches
Ġcon stantly
Ġad am
ĠZe bby
ĠW ay
ĠS afe
ĠRo ot
ĠPri ze
ĠP ia
ĠM u
ĠM id
ĠJoy ce
ĠH an
ĠFr anny
ĠF ia
ĠEl mo
ĠDel icious
ĠC ane
ĠBrown y
ĠBo ots
ĠB ump
t ree
su pply
l in
ing erly
ill s
al ed
Wr ite
W ear
V ivi
O peration
L o
I nd
Gret a
G ert
B illie
As k
." ,
Ġtoast y
Ġt art
Ġsun r
Ġstrum ming
Ġsp an
Ġsoup s
Ġsn or
Ġskept ical
Ġscut tling
Ġscr uffy
Ġpro ving
Ġpost ed
Ġperf umes
Ġn ook
Ġmotion less
Ġmarvel ous
Ġhut s
Ġgallop ing
Ġfriend lier
Ġentire ly
Ġcorn s
Ġchor us
Ġc ert
Ġafter ward
ĠRad ish
ĠQu iet
ĠP alm
ĠOr der
ĠN aps
ĠFl ute
ĠDi ary
ĠCra ck
urs day
ud ers
ret ruck
ren e
re p
qu it
lest e
isp er
g usting
Y up
Sh iver
N ight
M iles
L ayla
J et
De af
D es
Che ap
Ġwet ting
Ġwe aved
Ġtriumph antly
Ġsun ning
Ġstream ed
Ġsnort ing
Ġsnor ke
Ġsh atter
Ġrelation ship
Ġreass ure
Ġran ge
Ġpig let
Ġpian os
Ġmarket place
Ġloop ing
Ġhesit ating
Ġhe e
Ġhaunt ed
Ġfi retruck
Ġfast en
Ġcre aky
Ġcomfort s
Ġcl ink
Ġch omp
Ġc urb
Ġc ore
Ġbird y
Ġassist ance
Ġabs or
Ġa ye
ĠZ izi
ĠW ord
ĠW itch
ĠStri pes
ĠR ae
ĠP ie
ĠK angaroo
ĠJ ing
ĠIm p
ĠFer ris
ĠEl mer
ĠB in
ĠAr row
ĠAng us
ĠA ut
z o
t ap
op ed
om ped
lcan os
k ward
ine a
iff any
eter red
ce y
bo ve
aw are
ad en
Wheee e
T est
Per haps
N ope
N ap
N an
M ason
L unch
Ho pper
F ill
F aster
Ed ward
Cra zy
C all
Bra ve
Ġwr inkle
Ġwonder fully
Ġwig s
Ġwheel chair
Ġwe bbed
Ġtruth ful
Ġtin iest
Ġthump ing
Ġspin es
Ġspark ler
Ġsimpl er
Ġsa cked
Ġraft ing
Ġraccoon s
Ġprop osed
Ġport al
Ġpoin ter
Ġpin chers
Ġphotog raph
Ġn on
Ġmult ip
Ġlamb s
Ġjog gers
Ġincrease s
Ġh ired
Ġgu inea
Ġgrunt s
Ġgl inted
Ġgalax ies
Ġdut ies
Ġd aughters
Ġclimb ers
Ġcliff s
Ġaw kward
Ġappropri ate
Ġadventur ing
Ġadam ant
ĠWould n
ĠW ire
ĠU r
ĠT ower
ĠT ide
ĠSqu ir
ĠMis erable
ĠMar sh
ĠL in
ĠJoke s
ĠJe alous
ĠIn c
ĠF ragile
ĠEl ise
ĠD rag
ĠD ead
ĠChel sea
ĠBark ley
ĠAg ent
Ġ5 0
th ud
ri ff
qu iz
o vers
inc lude
aut iful
ast le
arl ene
Sof ty
Sm all
Sl ap
J ade
Fl oppy
Fl ick
D one
D isappointed
Cl ass
C act
Butter flies
A udrey
A da
' '
Ġvers ion
Ġupset ting
Ġtroll ey
Ġsting er
Ġsnee zy
Ġsmoke s
Ġsele ction
Ġregard less
Ġrecogn ise
Ġre new
Ġpath ways
Ġover alls
Ġintroduce s
Ġgrouch y
Ġflex ibility
Ġdia pers
Ġde jected
Ġcourageous ly
Ġbloss omed
ĠUn known
ĠTh ursday
ĠT axi
ĠSPLA SH
ĠRock et
ĠR ac
ĠN ad
ĠI ggy
ĠHen ri
ĠHam mer
ĠFin s
Ġ12 3
Ġ ,
z ens
se at
r d
nut s
kay la
c aw
ac ty
Turt le
Th ink
T rain
Sp ace
Ra ise
P ress
P anda
Max ine
Help ing
E mer
Che ss
C ars
Bu bble
A ye
Ġtent atively
Ġstrap s
Ġstore owner
Ġsele cted
Ġsec ured
Ġscri bbling
Ġrep res
Ġprec aut
Ġmur al
Ġmin ers
Ġlight bulb
Ġgent leness
Ġgate keeper
Ġfoot ing
Ġf rench
Ġcrumb ly
Ġcomplain s
Ġco als
ĠTw ig
ĠSte vie
ĠPo ems
ĠMad ison
ĠL oud
ĠL amp
ĠHe aring
ĠH al
ĠG erald
ĠC ub
ĠC aw
ĠC ard
ĠBu ild
t ale
s que
rot ect
pp o
p ay
in ts
ill e
ic ier
em ory
Y et
St art
R ep
P ot
P oke
Im mediately
Emer gency
C alm
B ecca
Ang ela
!' ,
Ġwre ath
Ġwealth ier
Ġun imp
Ġsw ipe
Ġspend s
Ġquestion ing
Ġqu ench
Ġpinch y
Ġpar ad
Ġp om
Ġou chie
Ġnav ig
Ġle aky
Ġgum s
Ġgra sses
Ġgem stone
Ġg e
Ġfur row
Ġfeather y
Ġfe at
Ġf rilly
Ġdeliver ies
Ġcompet ed
Ġcar ri
Ġboo ed
Ġarm chairs
Ġacc ur
Ġaa hed
ĠTruck s
ĠStretch y
ĠSp ell
ĠPe aches
ĠM acy
ĠJ ungle
ĠJ ak
ĠHop sy
ĠFluff les
ĠF an
ĠBu bby
v i
st ore
st ay
ser ve
ry er
m om
iz ard
ight ed
ha ired
h an
g le
er os
com es
b arrass
az ed
av ailable
aud ia
Wh oosh
W affle
T aylor
T axi
S ugar
O ooh
M irror
L auren
Jo die
C ally
Beth any
Ġyield s
Ġun aware
Ġtoast ed
Ġter m
Ġt arp
Ġstor k
Ġsquawk s
Ġspong es
Ġsof as
Ġresc u
Ġrequ ires
Ġremo ves
Ġrasp berry
Ġr age
Ġpray s
Ġprank s
Ġport s
Ġparad ise
Ġobser vant
Ġm il
Ġled ge
Ġintr u
Ġham m
Ġhair brush
Ġexha ust
Ġen chant
Ġcy cle
Ġcreat es
Ġcount ers
Ġcon cl
Ġcol ony
Ġburst ing
Ġawa iting
Ġa uth
Ġa ching
ĠW et
ĠW all
ĠTuck er
ĠT roy
ĠT an
ĠSe a
ĠR oby
ĠMo del
ĠMa ia
ĠKay a
ĠJosh ua
ĠI an
ĠF inger
ĠCom fort
ĠAnd rea
ĠA mer
Ġ2 5
w ood
un ches
ri el
r ated
mm m
if act
f olk
ess y
che ck
av in
ar f
Un iversity
T oni
S ave
R avi
N at
Mar riage
G inny
E llen
Bo x
App les
Animal s
Ġvo lcanos
Ġtre k
Ġsnug ly
Ġshe riff
Ġshap ing
Ġpost box
Ġopp on
Ġmap le
Ġll ama
Ġlarge st
Ġhon our
Ġhamm ock
Ġhambur gers
Ġgr ime
Ġfocus ing
Ġfa ire
Ġent r
Ġdin er
Ġdeliver s
Ġcrawl er
Ġcor rid
Ġcent ipede
Ġburp ed
Ġboast ful
Ġblack bird
ĠWhe els
ĠW rap
ĠT igers
ĠSl ip
ĠSh ar
ĠR ico
ĠPl anes
ĠO mar
ĠJ or
ĠD ry
ĠCro c
ĠCl iff
Ġ ver
uff ing
the se
se ct
ne igh
le gged
io lets
i work
enn el
den ess
col m
b read
ass age
Te ach
Sp irit
Sp aghetti
S usy
Res ist
R ot
Phil ip
P urple
Mat ches
G ently
E asy
E arth
Ball oon
Any a
A c
Ġz eros
Ġwilling ness
Ġv en
Ġtowns folk
Ġswat ted
Ġsizz ling
Ġsc or
Ġsc ars
Ġsauc er
Ġro aming
Ġprepar ations
Ġp el
Ġout comes
Ġnervous ness
Ġmur m
Ġmeant ime
Ġmagician s
Ġlid s
Ġl ou
Ġkid do
Ġintr uders
Ġhand iwork
Ġgrill ing
Ġfind ings
Ġfest ive
Ġf ert
Ġem otion
Ġele g
Ġed ged
Ġdu o
Ġdo zens
Ġdisagreement s
Ġclin ked
Ġch art
Ġcack led
Ġbo ar
Ġbl azing
Ġbaby ish
Ġauth or
Ġasse mble
Ġalley way
ĠWhe ther
ĠWh ose
ĠW ing
ĠT ino
ĠStitch y
ĠSec ond
ĠP addy
ĠOrgan izing
ĠMy a
ĠDish y
ĠD ive
ĠCl othes
ĠC ami
ĠB read
ĠAm azingly
ĠA rnold
ĠA ppy
y ah
w w
ul ous
n esses
m ond
lem n
ld a
ip ing
he y
bo ing
act ly
Y o
Wh ite
W alter
Sc issors
Sal ad
P ause
M ousy
M ilk
G iraffe
D eer
Cl osed
Bu y
Al bert
Ġwitness ed
Ġtweet ed
Ġsunr ises
Ġstraw s
Ġso lemn
Ġslither s
Ġru deness
Ġroyal ty
Ġrhin os
Ġrestaurant s
Ġred s
Ġproduc ts
Ġprick les
Ġpractice s
Ġoverwhel ming
Ġobvious ly
Ġobl ige
Ġmat es
Ġjam s
Ġis s
Ġinvent ed
Ġindependent ly
Ġimmense ly
Ġhaird ryer
Ġha st
Ġfor b
Ġf erry
Ġexam ines
Ġearth worm
Ġdust ing
Ġdump ing
Ġdisc ount
Ġcut er
Ġcook book
Ġclums ily
Ġclasp ed
Ġbuzz er
Ġast ound
Ġart ifact
Ġang les
Ġafternoon s
ĠW avy
ĠStretch ing
ĠSpring y
ĠSk ully
ĠSc out
ĠSail or
ĠPh one
ĠP ress
ĠP ing
ĠOn ions
ĠNap kin
ĠMy stery
ĠMar vin
ĠMar go
ĠH ours
ĠF ern
y ummy
y our
per ate
ord on
iv y
getable s
angu age
ag gy
Tre asure
T ippy
T aking
M ighty
Ign ore
H ome
Ex actly
D illy
C e
Br uce
B ibi
Ang ie
A ly
A bb
Ġwasp s
Ġunt ies
Ġsl ug
Ġsign ature
Ġseem ingly
Ġpul se
Ġmiss ions
Ġmarve lled
Ġjunk yard
Ġinfant s
Ġimpress ion
Ġhive s
Ġgra cious
Ġfavour ites
Ġent ry
Ġeight een
Ġdroop ed
Ġdo ze
Ġdef ended
Ġde vel
Ġcr ime
Ġcr ate
Ġblood y
Ġal together
Ġachieve ments
ĠYour s
ĠSurpr ised
ĠSqu awk
ĠPer haps
ĠP ractice
ĠP ost
ĠJu de
ĠF ay
ĠC obweb
z i
tre ating
st ar
re quest
on a
oc us
ob by
o de
l ist
f uel
f ind
er als
d rop
c led
arn ed
am er
Squ awk
Sh rimp
S id
M acy
Jo el
Go at
F ear
Don ald
Cook ies
B ar
Ġweekend s
Ġtink ering
Ġte en
Ġte ary
Ġso cket
Ġso ars
Ġro bbed
Ġreg ain
Ġrebu ilt
Ġpret zel
Ġpow ered
Ġponyt ails
Ġple ad
Ġplain s
Ġpe ed
Ġoven s
Ġmoan ed
Ġman s
Ġleft over
Ġk ennel
Ġit ched
Ġincreasing ly
Ġgrump ily
Ġfurrow ed
Ġf ried
Ġeducation al
Ġecho es
Ġday care
Ġcoo s
Ġchill i
Ġbroom stick
Ġa rose
ĠWin ning
ĠWill a
ĠTony a
ĠS omeday
ĠRes ist
ĠPo kie
ĠMar riage
ĠK oko
ĠJem ima
ĠIs land
ĠHe al
ĠDinosaur s
ĠDan a
ĠD ar
ĠCoop er
ĠCh urch
ĠC y
ĠC astle
ĠC alm
th row
sh irts
s urpr
l ion
i kayla
ent ine
b oy
Step h
Sl ide
O W
O N
Mar cus
M ack
K aitlyn
I cy
Grand mother
G ail
F old
C ut
C oby
C ircle
Ġunlike ly
Ġswift ly
Ġsub mar
Ġshimm ery
Ġsepar ately
Ġse vere
Ġroo ft
Ġrenew ed
Ġregret ting
Ġr oug
Ġquar ter
Ġpr oof
Ġoper ator
Ġluxu ries
Ġl ack
Ġinspect ion
Ġharvest ed
Ġgrandd ad
Ġfierce st
Ġfeast ed
Ġfairy tale
Ġextingu ished
Ġexc laim
Ġentr anced
Ġelevator s
Ġeat ers
Ġdelivery man
Ġcontro ller
Ġco y
Ġclothes p
Ġcl ank
Ġch urn
Ġcert if
Ġbud get
Ġbre wing
Ġang le
ĠZ ach
ĠTh ump
ĠT ink
ĠSp r
ĠSon ia
ĠSc ared
ĠRel uctantly
ĠRe ach
ĠR ubby
ĠR ake
ĠMar gie
ĠM aple
ĠLuc ia
ĠLill i
ĠH aley
ĠGri zzly
ĠEag le
ĠD enny
ĠC row
ĠBun Bun
ĠB al
ĠA dd
ĠA bove
w hen
sw er
ster ious
pl oring
p ol
our ing
ood les
n is
ime e
h onk
h old
g um
ete en
b ra
ay ed
So ap
S is
S ell
Rainbow s
P ony
Li bby
L aser
K neel
Ind eed
He ather
Eliz abeth
Co coa
B OO
Ġwill ow
Ġv iolets
Ġun att
Ġtra ced
Ġtoothp ick
Ġten nis
Ġsumm it
Ġstr ate
Ġsoak s
Ġsign als
Ġsh aved
Ġrid dles
Ġretri eve
Ġresource ful
Ġreceive s
Ġradi ating
Ġplayd ough
Ġorig in
Ġhero ic
Ġhall ways
Ġh umbly
Ġgreat ly
Ġgr ins
Ġg ingerly
Ġfly ers
Ġferoc ious
Ġdown stream
Ġcont ri
Ġcomb ine
Ġcl enched
Ġchild ish
Ġch anted
Ġcertif icate
Ġass ign
ĠUr ge
ĠTre asure
ĠSweet heart
ĠStri p
ĠR acy
ĠP OP
ĠO k
ĠMart a
ĠLou isa
ĠL olo
ĠK ick
ĠJ a
ĠGr amps
ĠDel ilah
ĠDeaf y
ĠCass y
ĠC lyde
ĠB ush
ĠB rett
w reck
spec ial
p iece
ong s
om a
o ink
id ly
ict able
h y
ex pensive
er ved
ct ing
and om
ac ted
Through out
N ut
N ia
H anna
G eor
Cook ie
Climb ing
Ġwr iggly
Ġwid en
Ġwhis ked
Ġwhirl pool
Ġw omen
Ġuns uccessful
Ġtreat ment
Ġsuperp ower
Ġsuc ce
Ġstra ined
Ġsqu inting
Ġsav annah
Ġred der
Ġreal istic
Ġproc laimed
Ġpo et
Ġpinec ones
Ġn ar
Ġm ending
Ġlump s
Ġloc ation
Ġinvent ions
Ġign ition
Ġhi king
Ġfull er
Ġfreez es
Ġeleg ant
Ġdescri be
Ġcrack led
Ġconn ecting
Ġcommun ic
Ġch omped
Ġcere als
Ġcaw ing
Ġcav ities
Ġbi king
Ġbake s
Ġambit ious
ĠW ren
ĠT ummy
ĠT hing
ĠSquirrel s
ĠSnee ze
ĠSleep ing
ĠSl iding
ĠO b
ĠL au
ĠIgn orant
ĠHar vey
ĠFrance s
ĠFr itz
ĠFlo ssy
ĠFle as
ĠEm mi
ĠBo ats
w r
to e
s ides
rmomet ers
ret s
lebr ate
l by
im ately
iche ver
ic an
ed ge
eat en
br idge
app er
an or
ag er
Z ipper
Wonder ful
Is abella
G ia
Fl appy
E ve
Co al
C omet
Br uno
B umpy
B el
Am azing
A Y
! !
Ġuntw isted
Ġunt ying
Ġunp red
Ġunfro ze
Ġtooth brushes
Ġterri fying
Ġt v
Ġswer ved
Ġsmoke stack
Ġr andom
Ġprecaut ions
Ġoffic ial
Ġnew er
Ġn a
Ġmight ier
Ġlaz iness
Ġlast ly
Ġjack s
Ġintimid ating
Ġinstruct or
Ġhoof s
Ġh ull
Ġgri pped
Ġfull est
Ġfl aming
Ġdog gies
Ġdis p
Ġdire ctor
Ġde b
Ġcreep ing
Ġcompl ied
Ġchunk s
Ġcharm ed
Ġastound ed
ĠY arn
ĠTr uth
ĠTob i
ĠT ie
ĠSe agull
ĠPiece s
ĠPh illip
ĠM outh
ĠK irsty
ĠJump er
ĠH ockey
ĠGert rude
ĠCow s
ĠCh atty
ĠB art
Â ł
v ity
ter y
sp ray
right ened
out s
oof y
ng ing
f ives
est roy
e in
ath a
art z
Zoom ie
T er
S pl
Quack y
Pen gu
My a
Inc rease
H orsie
F reya
F ragile
E than
C autiously
Ġw ick
Ġunpred ictable
Ġswoop s
Ġsurface s
Ġsubmar ine
Ġsto ves
Ġspot ting
Ġsnoo ze
Ġsc ents
Ġs ooo
Ġpoll ut
Ġpink s
Ġmis under
Ġmail men
Ġm asc
Ġloo ser
Ġlo oming
Ġl ing
Ġknot ted
Ġicic le
Ġho ard
Ġhe x
Ġgr an
Ġg ang
Ġfour s
Ġflower bed
Ġex ited
Ġencouraging ly
Ġdeser ts
Ġd ies
Ġcroiss ant
Ġcool ers
Ġche ater
Ġboast ed
Ġbe sides
Ġb ab
Ġambit ion
ĠY ear
ĠW ash
ĠSmith s
ĠShe r
ĠSh oot
ĠR iver
ĠMid night
ĠMe et
ĠM allory
ĠM achine
ĠJ ournal
ĠJ ared
ĠF eed
ĠDani elle
ĠCare ful
ĠB one
ĠB alance
ven ess
the l
surpr ise
sp ring
s ley
p atter
ooh oo
i ance
do h
be ing
Un freeze
N athan
L emons
L aw
Joan ne
Jan ice
Hi ppo
F lowers
F ireworks
C H
A ren
Ġve ins
Ġun rolled
Ġsuff ers
Ġsub stance
Ġstray ed
Ġspring y
Ġspray er
Ġsm ug
Ġsle ek
Ġsharpen er
Ġright s
Ġrid ers
Ġpar sley
Ġloc ated
Ġher on
Ġfres hest
Ġfer ris
Ġexhaust ion
Ġdrum stick
Ġdes ired
Ġdef ending
Ġal t
ĠW izard
ĠW ish
ĠW ave
ĠTom i
ĠSnow fl
ĠSaf ety
ĠRo ss
ĠR en
ĠPu ss
ĠPe bbles
ĠOlive s
ĠLila h
ĠHel icopter
ĠH arper
ĠB ulb
ĠAri el
ĠAngel ina
ĠAm ong
ym bol
p om
or ough
or o
nt h
light s
ex am
d aughter
c ul
bag s
b or
aunt ing
am us
Se an
S ettle
R ead
N aughty
K itten
I vy
H or
Fr an
Do ve
De bbie
Dan i
D awn
B ernie
A dd
Ġwilder ness
Ġwid th
Ġwh ipping
Ġunexpected ly
Ġtrink ets
Ġtow ered
Ġthe rmometers
Ġsucce sses
Ġstu nt
Ġsne ered
Ġsmoot hest
Ġroast ing
Ġprison ers
Ġpr edic
Ġpersu aded
Ġo ops
Ġnin eteen
Ġlock er
Ġlearn ers
Ġkick er
Ġillum inated
Ġhoot ing
Ġha sty
Ġgle amed
Ġfoolish ly
Ġfal se
Ġdri bbling
Ġdonut s
Ġdocum ent
Ġdo zing
Ġdizz ier
Ġdelicious ness
Ġd ye
Ġcraft ing
Ġconsequ ence
Ġclassroom s
Ġcirc ling
Ġblast ed
Ġbase s
Ġanx iety
Ġaccord ing
ĠWor ried
ĠSw inging
ĠSt amp
ĠRe indeer
ĠRag gy
ĠPast els
ĠP oin
ĠP ogo
ĠP ins
ĠKeep er
ĠFe el
ĠF illy
ĠElephant s
ĠD ress
ĠChe ating
ĠCe leste
ĠBer tha
ĠA ustr
ĊĠ Ċ
sc ore
rit ious
ott le
l i
itt ies
it zy
it ions
ig ure
fr og
f ake
est ival
e ating
be known
b itter
as se
arm ing
ab ility
\ "
W ash
Tre es
Sw an
S ail
R ise
N ature
Mus ic
Mo llie
M ac
L amp
Ju an
G low
Ġworried ly
Ġweak ness
Ġtri o
Ġth orough
Ġt ame
Ġstu bbed
Ġstrange st
Ġsolemn ly
Ġsmir ked
Ġsevent een
Ġquiver ed
Ġpounce s
Ġph ys
Ġpersu as
Ġnut ritious
Ġnois ier
Ġner ves
Ġneighbour ing
Ġmet er
Ġmans ion
Ġlower ing
Ġlou nging
Ġlo b
Ġjo lt
Ġint rig
Ġhand prints
Ġh ump
Ġgraceful ness
Ġgalax y
Ġfi zzy
Ġex otic
Ġdaffod il
Ġcr ink
Ġcr aters
Ġcontain s
Ġconfl ic
Ġcar ving
Ġbright ening
Ġbra gging
Ġbr ooch
Ġbas king
Ġback ing
ĠTh read
ĠTe le
ĠTV s
ĠSil ence
ĠShar key
ĠR acing
ĠL ottie
ĠG ino
ĠFa ucet
ĠCrocodile s
ĠChe ster
ĠChar ley
ĠCh ubby
ĠBarb ara
ĠAny one
ĠAm os
ĠA le
um s
u u
th rough
t hen
rest ed
pl oy
p ow
lo ving
le af
il ings
if y
fashion ed
ch irp
b ones
az am
a iting
Y og
St acy
Sm o
P ack
Mic helle
H orse
H aving
F ix
Ch rist
B erry
Ġviolin ist
Ġunus ually
Ġunatt ended
Ġun iqu
Ġsnarl s
Ġsepar ates
Ġseed ling
Ġsc hed
Ġsales person
Ġrob es
Ġremind ers
Ġrag ed
Ġquiver ing
Ġpurch ased
Ġper man
Ġmis ery
Ġmac aw
Ġloud spe
Ġlevel s
Ġl inked
Ġhum or
Ġhex agon
Ġh arn
Ġfrol icked
Ġey ep
Ġdeal ing
Ġde fl
Ġcur ling
Ġcrumb ling
Ġconsid eration
Ġcongratul ate
Ġcon cept
Ġcompetit ors
Ġcold ness
Ġce ilings
Ġcard inal
Ġcan oe
Ġbubble gum
Ġborrow s
Ġba wk
Ġawait s
Ġartifact s
Ġarcher y
Ġar ray
Ġah hed
Ġadv is
ĠT affy
ĠSh oe
ĠRainbow s
ĠR ee
ĠNo se
ĠMar i
ĠK ylie
ĠJon as
ĠJ unk
ĠH alf
ĠFridge y
ĠB room
ĠAll en
ĊĠ ĊĠ
v ings
ure en
un gry
uit s
ri fied
re ly
ph an
nth ia
mo ving
id a
icy cle
gra nd
ax ter
ass y
an ch
S chool
R h
Pear l
Jo se
J unior
I T
G rrr
Ben jamin
Ar chie
Ġwin ced
Ġwet s
Ġw ither
Ġvac ations
Ġup right
Ġt amer
Ġstra nds
Ġst ink
Ġsn ores
Ġskid ded
Ġrem arked
Ġrecommend s
Ġre solve
Ġpl ight
Ġpin es
Ġmultip le
Ġm oth
Ġlaz ily
Ġinst alled
Ġind igo
Ġimprove ments
Ġhyd rated
Ġgrand mas
Ġf id
Ġexplor ations
Ġexam ination
Ġeffect s
Ġeag les
Ġdesire s
Ġcro c
Ġcont ract
Ġchar ging
Ġch ords
Ġcarri ers
Ġantic s
Ġal er
Ġah old
Ġactiv ated
Ġac hes
ĠW affles
ĠToot y
ĠTo ilet
ĠTe asing
ĠT aste
ĠSon ny
ĠSl ither
ĠRing y
ĠPer fume
ĠP lace
ĠJ ana
ĠGeorg ia
ĠG rr
ĠG iving
ĠFl oyd
ĠCl apping
ĠA mb
w n
w atch
ush i
t ake
s qu
re sh
quit os
pe ace
oom oo
old s
o es
med ic
medic ine
ll ies
ist urb
che ss
ch anging
Woo lly
Un ite
Sp oon
S eth
Ron ny
Real izing
R oy
R E
P aint
M ud
M oppy
K ind
Grand ad
G obble
E ating
Char les
Ch uck
A men
A T
Ġyelp ing
Ġviol ence
Ġvent uring
Ġtrouble maker
Ġtechn ique
Ġsun hat
Ġsprout s
Ġspoonful s
Ġsp lend
Ġshrink s
Ġris king
Ġprot ein
Ġproduct ive
Ġpl iers
Ġpit ched
Ġor phan
Ġopt im
Ġmel od
Ġmedic al
Ġlove liest
Ġlisten ers
Ġl imb
Ġkid ding
Ġiron ed
Ġinsp iring
Ġh ints
Ġfire ball
Ġenerg ised
Ġem ail
Ġch ime
Ġch ap
Ġboun c
Ġbl ub
Ġag ile
Ġ` `
ĠSh y
ĠS ymbol
ĠS ebastian
ĠRon nie
ĠN aughty
ĠMa ureen
ĠLu is
ĠK ite
ĠK ira
ĠHe y
ĠH oo
ĠH ally
ĠEn vy
ĠE st
ĠC orny
ĠBrad ley
ĠBra iny
ĠBo ard
ĠB uck
ĠB OOM
ĠAm aya
xy l
xu ry
st on
st aff
rm ie
r us
p ost
oop y
ons cious
lu xury
l ived
imb le
f riends
f old
f o
ess ert
co aster
chest ra
cha un
amb i
We st
V an
Tom ato
Sleep y
Pip er
Or iginal
M ika
L acey
L L
K e
Jump ing
J asper
Is la
Hel i
He el
Har old
G u
F lower
Al icia
?' ,
Ġy owled
Ġwh oop
Ġsnoo zing
Ġscamp ering
Ġsav anna
Ġroug her
Ġrest ful
Ġrelax es
Ġre arr
Ġrap idly
Ġpro dded
Ġperfect ion
Ġor chestra
Ġnam ing
Ġm ent
Ġm aid
Ġliqu ids
Ġlabel ed
Ġinh ab
Ġice ber
Ġg ag
Ġe p
Ġdo cks
Ġcross bones
Ġcoy ote
Ġcl ump
Ġbus ier
Ġattent ive
Ġalarm ed
ĠWor dy
ĠThe rmie
ĠTalk y
ĠT ock
ĠT ire
ĠRo ses
ĠPain ter
ĠP urp
ĠOp al
ĠNut s
ĠNad ia
ĠJ un
ĠJ eep
ĠI ris
ĠHar sh
ĠH ill
ĠGr ant
ĠFriend ly
ĠFred a
ĠDolph ins
ĠCut ting
ĠCon fused
ĠCh ange
ĠA rrr
Ġ ...
xyl ophone
v als
ump t
ot y
ort ant
nd a
n ec
nec ked
m at
i veness
ess on
end or
be es
ar ly
ang o
W oohoo
St u
So ar
Sc ott
Rock et
Mar garet
Dream s
Do lph
Cher ry
Ġyarn s
Ġworth less
Ġwe ary
Ġtw ine
Ġt ended
Ġsunbeam s
Ġstrum s
Ġsque als
Ġspr ite
Ġsk i
Ġsc ans
Ġrev ved
Ġreal ization
Ġqu artz
Ġpros pect
Ġproject or
Ġplayd ates
Ġomelet te
Ġn ooks
Ġn arr
Ġmysterious ly
Ġmon k
Ġmam m
Ġloudspe aker
Ġlo ot
Ġk itties
Ġj aw
Ġintrig uing
Ġglare s
Ġfert ilizer
Ġeyep iece
Ġexperien cing
Ġegg pl
Ġdraw bridge
Ġcr ouch
Ġcorn ered
Ġcon sc
Ġbrid le
Ġbowl ing
Ġbeck oned
Ġbat ting
Ġattent ively
Ġaccept s
Ġabsor bed
ĠVict or
ĠTweet s
ĠTh ief
ĠT ail
ĠSt ring
ĠSt aff
ĠSp iny
ĠSm art
ĠSh rink
ĠS ia
ĠRich ie
ĠRad ishes
ĠPip o
ĠM Y
ĠKat rina
ĠK iko
ĠInd ia
ĠGrand dad
ĠEag er
ĠE nter
ĠDanger ous
ĠDO NG
ĠBe ans
ĠAs king
us ions
sh are
og raph
lu ded
ld erly
iqu es
e ater
de ad
cra cker
cle an
ain ting
V e
Shh h
She ep
R usty
L exi
Ju ice
Jack son
Gert ie
F rightened
F ake
! ?
Ġwil ting
Ġvibr ate
Ġunb uck
Ġsympathet ic
Ġsto ck
Ġsquir ming
Ġsizz led
Ġsixt h
Ġshr ubs
Ġsack ing
Ġs in
Ġroller coaster
Ġrhym ed
Ġprun ing
Ġpoop ed
Ġne ighing
Ġmodest ly
Ġman es
Ġla ss
Ġla pping
Ġknowledge able
Ġinsp ire
Ġgasp ing
Ġfulfill ing
Ġflower pot
Ġf ract
Ġexp and
Ġenchant ing
Ġem ploy
Ġeggs he
Ġdrown ing
Ġdeter red
Ġcry baby
Ġcr ed
Ġcompetit ions
Ġcombination s
Ġcoll e
Ġco ve
Ġcl atter
Ġchant ing
Ġbu ries
Ġbother s
Ġb ased
Ġasse mb
ĠThe a
ĠSh oo
ĠS us
ĠS im
ĠPuzz led
ĠM irror
ĠM essy
ĠJ aden
ĠHopp ie
ĠG ordon
ĠFel icia
ĠFam ily
ĠD iving
ĠC acty
ĠB owl
ĠB iting
ĠB ite
ĠAmer ica
ĠAc ross
ul ted
uc ch
uc ceed
op y
od ore
erest ing
ered ith
ass ie
ar rel
Y ee
V E
S afe
R ad
P s
M icky
K ari
Just in
He e
H at
Go lf
Fle a
! .
Ġvict ories
Ġtrad er
Ġsqu iggles
Ġsong bird
Ġskunk s
Ġsh udd
Ġscoot ing
Ġsatis fy
Ġpyram id
Ġplun ged
Ġpaper work
Ġp itter
Ġno s
Ġmar cher
Ġling ered
Ġjo ker
Ġintru der
Ġhars her
Ġg el
Ġen s
Ġease l
Ġe w
Ġdesce nd
Ġdelighted ly
Ġconf ess
Ġbus ily
Ġbook store
Ġbl aming
Ġbalan cer
Ġback seat
Ġappreci ative
Ġaccess ory
Ġab rupt
ĠV ine
ĠTra cey
ĠT ar
ĠT ank
ĠSu ki
ĠSay ing
ĠMo jo
ĠLaug hing
ĠJon ah
ĠJ ug
ĠIn sect
ĠGl itter
ĠG em
ĠFr isbee
ĠF arm
ĠEx cept
ĠEm ilia
ĠDog gie
ĠCray ons
ĠCl audia
ĠC ec
ĠBo xy
ĠBert ie
ĠAn ny
Ġ xylophone
ĊĊ Ġ
Ã ±
us k
ur led
sty le
ster o
sl ide
p ipe
p ause
oph y
me asure
m oon
m ma
lor ia
l isten
imb ers
ile mma
ian o
g ot
fight ers
f ace
et urn
c ue
beknown st
aw ai
ately n
ar ty
Sh ine
Ro ses
R ani
P uff
J em
H ilda
G loria
F eed
Bu ry
B oris
B ell
.. ..
Ġvacu umed
Ġv owing
Ġunst able
Ġunra ve
Ġtwink les
Ġtra iling
Ġt imbers
Ġstra nd
Ġstart le
Ġsqu int
Ġslid er
Ġsho ving
Ġs enses
Ġrough ly
Ġreun ite
Ġproud est
Ġprevent s
Ġpol isher
Ġpast ime
Ġmum mies
Ġmilk man
Ġloos ened
Ġleap s
Ġj an
Ġhy ena
Ġhandy man
Ġforehead s
Ġforb idden
Ġflight s
Ġdinner time
Ġd ilemma
Ġd ense
Ġcran nies
Ġconflic ts
Ġcl ack
Ġchar ges
Ġbor der
Ġbarn yard
Ġadvert ise
Ġa stero
ĠWor my
ĠW aste
ĠV endor
ĠT ubby
ĠSu pport
ĠR ope
ĠP uddle
ĠP ony
ĠP ack
ĠMe at
ĠK erry
ĠJay den
ĠGab e
ĠF ro
ĠF ill
ĠEm i
ĠDina h
ĠD rew
ĠCo ll
ĠC old
ĠC asper
ĠBr idge
ĠB am
ĠAustr alia
ĠAcorn s
ĠAb ra
w hee
un ning
ucch ini
ub way
sc ri
r ug
pl ing
pl ain
pec ial
organ ized
ont osaurus
lend a
ind er
f ix
et te
es c
en us
edic ine
at hed
ah a
T aste
Snow man
S ylvia
Ph illip
P ine
Mon ster
L ots
In ky
F ast
F ar
Din osaur
B ub
Alex a
Ġworth while
Ġweird est
Ġwealth iest
Ġvegg ie
Ġtrek ked
Ġtop ic
Ġsw ishing
Ġsun block
Ġstor age
Ġsqu id
Ġsm acked
Ġsl oth
Ġsched ule
Ġscamp er
Ġrot s
Ġquarre lled
Ġno ble
Ġme wed
Ġlo llies
Ġleg end
Ġinnoc ently
Ġham sters
Ġgl uing
Ġfaith fully
Ġf rill
Ġf idget
Ġdim med
Ġdent ed
Ġdedic ated
Ġd iversity
Ġcurrent s
Ġcross ro
Ġcomp lex
Ġcomp aring
Ġcla imed
Ġbroom s
Ġbl and
Ġb ree
Ġappet it
Ġadd resses
ĠW ide
ĠV i
ĠTom y
ĠSpark ly
ĠRe ally
ĠR oro
ĠPlay er
ĠPaul ina
ĠN anny
ĠMor ris
ĠMon ty
ĠMo ira
ĠMar ina
ĠM ountain
ĠM au
ĠL ie
ĠL es
ĠJay a
ĠCh ase
ĠB it
ĠĠĠĠ ĠĠĠĠ
y ards
sh ut
sc are
pl ed
or ah
lo Ã©
lect ure
ist s
ish ment
i bby
d ragon
co al
awai i
as uring
arp et
Tr uth
T ap
St arry
Sp ell
Sil ver
Sam i
S omeday
S imba
R iri
R atty
Ph oebe
O M
Me i
Mar cy
Ju les
Inc redible
He al
G ill
Friend ship
Fa ith
Di ane
D uke
Cact us
C elia
B low
B itter
Ant s
A ct
Ġwid ening
Ġwh ichever
Ġtransp orted
Ġt ens
Ġsuspicious ly
Ġsol ar
Ġship wreck
Ġsav oured
Ġrely ing
Ġre co
Ġr asc
Ġpowder y
Ġpostc ards
Ġpaw n
Ġpassage way
Ġorigin ally
Ġmos quitos
Ġmelt y
Ġme ander
Ġlob ster
Ġlight ening
Ġleft overs
Ġjan itor
Ġinvestig ated
Ġharn ess
Ġharm onica
Ġhabit ats
Ġh ust
Ġh ire
Ġfrill s
Ġfle e
Ġflaming os
Ġfl op
Ġfilm ed
Ġexperiment ing
Ġenth r
Ġdust er
Ġdar ting
Ġd usk
Ġcr anny
Ġconcl usions
Ġclean liness
Ġcause s
Ġc unning
Ġbr ontosaurus
Ġaccept ance
Ġac cused
ĠWor ld
ĠWe aring
ĠW alking
ĠV iv
ĠTom a
ĠTid dles
ĠT ee
ĠSnowfl ake
ĠSk ippy
ĠR ead
ĠR azors
ĠR anger
ĠNo on
ĠNever theless
ĠHo oray
ĠGra ham
ĠGr an
ĠG rilly
ĠFore ver
ĠFil thy
ĠF olly
ĠCl ass
ĠChrist opher
ĠAly ssa
ĠAl vin
ĠA ddie
Ġ" .
v ine
urt her
ur ance
self ish
ow nt
on ely
j our
f oot
epend ent
en cer
ase s
ard robe
ar ate
ab lo
Was n
W ild
Su pply
S unday
Rich ard
Ps st
Pat ches
P arent
OO F
Mar c
Kim my
H ang
Fin ish
Cr ane
Bel inda
Ġz ucchini
Ġwh irr
Ġwal rus
Ġvibr ations
Ġu dd
Ġtrick ster
Ġtid es
Ġtemperature s
Ġsk etch
Ġsh ri
Ġsand bags
Ġs ushi
Ġpier ced
Ġperman ent
Ġone self
Ġmot ivated
Ġmirac ulous
Ġmin us
Ġm ourn
Ġhum ility
Ġhigh way
Ġhe als
Ġhair band
Ġha il
Ġh arp
Ġgu ides
Ġgra vity
Ġgl aring
Ġginger bread
Ġgenerous ly
Ġfid dled
Ġfa wn
Ġenthr alled
Ġcoz ier
Ġcompanion ship
Ġcho ir
Ġchipmunk s
Ġcheerful ness
Ġcheck up
Ġcatch y
Ġc oun
Ġbre w
Ġbr ig
Ġbook mark
Ġbar rier
Ġback yards
Ġapplaud s
ĠZe ke
ĠV er
ĠV enus
ĠT ami
ĠRound y
ĠRa ja
ĠR ow
ĠMal colm
ĠM unch
ĠM oomoo
ĠLog an
ĠJ in
ĠGra pes
ĠG iggle
ĠFind ers
ĠF igure
ĠCher yl
ĠBu y
ĠBr idget
ĠB reak
ĠB amboo
ĠB ANG
udging ly
p ty
p rice
p olog
ownt own
ott a
ot ed
op ot
ol iday
nic orn
n ets
m arry
lex ed
ist a
iss ie
ill i
il ts
id ges
h is
fl owed
f ork
et he
ers on
erg us
elie ved
co ffee
cl uck
ak azam
ab racadabra
Would n
W ipe
Tri angle
T asty
St ars
R ecord
Pe ppa
P ower
Or gan
Mix ie
M elt
I N
F it
D ennis
D ar
Co ver
Clean ing
Att ention
Ġy a
Ġwhir ling
Ġwhimp ers
Ġwa ding
Ġveterinarian s
Ġval ve
Ġtw ittered
Ġtw ister
Ġtw ee
Ġto ll
Ġsunb athe
Ġsill iness
Ġruff ling
Ġrock er
Ġrel ented
Ġpower less
Ġplayground s
Ġperse vere
Ġper p
Ġpeep ing
Ġover flowed
Ġmum bling
Ġmid night
Ġmic rosc
Ġmeasure ment
Ġir ons
Ġing en
Ġharm ed
Ġgloom iness
Ġgener ation
Ġfeel ers
Ġeyel ids
Ġdri bbled
Ġdocum ents
Ġd awn
Ġd ab
Ġco il
Ġcart wheel
Ġburst s
Ġaward ed
Ġann oun
Ġank les
Ġalt ar
ĠY OU
ĠWh ispy
ĠWh isper
ĠW alk
ĠVan essa
ĠThrow ing
ĠT ough
ĠPassport s
ĠP andas
ĠO x
ĠNightmare s
ĠMo ving
ĠMe chanic
ĠMagic al
ĠM uggy
ĠL ab
ĠKay ak
ĠJean nie
ĠIs aac
ĠI ra
ĠH awaii
ĠGrand father
ĠFr ame
ĠFix er
ĠCray on
ĠCl ick
ĠB uffy
undred s
un ia
ssssssssssssssssssssssssssssssss ssssssssssssssssssssssssssssssss
s ister
ph one
p ut
p ush
p oof
oos hed
mar riage
j ar
ist ent
ise y
ibb le
h igh
esc ape
dest roy
d are
ct ic
col n
ara h
ag ious
` `
Wil ma
Vo ice
Tre vor
T ip
Step hen
Sp idey
S even
Pot ato
P uffy
Off icer
Mix er
M ari
L ara
K angaroo
J og
J es
H H
Fish y
Em mie
E ek
D ive
Check mate
Carl os
C oming
C asey
But ton
A gn
Ġwed ged
Ġven om
Ġuniqu eness
Ġtrain ers
Ġterri fic
Ġtake off
Ġsty list
Ġstart ling
Ġsn ipping
Ġself less
Ġsav ings
Ġsa c
Ġrec ite
Ġr ook
Ġpyram ids
Ġpl op
Ġpat ter
Ġpat io
Ġpart ners
Ġoccasion ally
Ġmess en
Ġlo an
Ġju icer
Ġjail er
Ġinhab it
Ġhur ries
Ġhealth iest
Ġgreat ness
Ġgra zed
Ġgle am
Ġgl ancing
Ġe ffic
Ġdishwasher s
Ġdepend ability
Ġday light
Ġd ome
Ġcont agious
Ġcluck s
Ġch ipped
Ġbra vo
Ġbo a
Ġbe friend
Ġag g
ĠUnder stand
ĠTo d
ĠSu zi
ĠSpark s
ĠSp y
ĠShe lby
ĠSh ut
ĠSand w
ĠPret ending
ĠPengu ins
ĠPeanut s
ĠOn i
ĠMin eral
ĠM iki
ĠL uggage
ĠH ang
ĠFruit y
ĠDani ella
ĠD ex
ĠC atherine
ĠB oring
ĠAll ison
Ġ4 0
Ġ ut
ust in
urp hy
ul ance
t ra
sh ift
pre chaun
opot amus
if ting
g irl
fo llow
ff led
et al
er ve
do or
c heese
as ked
am el
T idy
Rep lace
R ud
R eading
P ow
P ir
Ow en
N one
L ions
Inc lude
Her o
G um
G aby
Frog s
Fl ap
Duck s
Cl ick
Che er
C ory
C ee
B urt
Ar f
Ġur gent
Ġup wards
Ġunc onscious
Ġun solved
Ġun bear
Ġty ped
Ġthem e
Ġtend erly
Ġt u
Ġswer ve
Ġsunb athing
Ġstr ung
Ġst ap
Ġst ale
Ġsplend id
Ġspin ners
Ġsol ver
Ġsnoop ing
Ġsl aves
Ġsil very
Ġshampoo s
Ġscrew ed
Ġsc al
Ġsal ute
Ġsac red
Ġsa cri
Ġs ought
Ġrumm aging
Ġrestless ness
Ġrequest ing
Ġpopular ity
Ġpl ush
Ġpitch fork
Ġpit ches
Ġparamed ic
Ġorgan ization
Ġnarr ower
Ġmouth ful
Ġmill ions
Ġmet res
Ġme ek
Ġm owing
Ġle prechaun
Ġl ining
Ġjo ey
Ġinit ial
Ġiceber g
Ġhotel s
Ġhel ium
Ġharvest ing
Ġhabit at
Ġgarl and
Ġfa ctor
Ġev idence
Ġeffic ient
Ġdet ailed
Ġdaydream ed
Ġd owntown
Ġcoz iest
Ġcowg irl
Ġcooper ating
Ġconsider ing
Ġcomment ed
Ġchann els
Ġbl iss
Ġba ffled
ĠWhe el
ĠTom as
ĠR olo
ĠPick ing
ĠPep e
ĠPe ck
ĠPe a
ĠPar is
ĠMix ing
ĠM ug
ĠM uddy
ĠLin coln
ĠK ris
ĠH um
ĠFor give
ĠD icky
ĠD aughter
ĠB rick
ĠB atter
ĠAm azing
ĠA yla
ĠA imee
Ġ1 8
Ġ ĠĊ
work er
sp read
s ign
iss or
g osaurus
fore st
end o
do zer
des erved
cl ip
ck les
bo ats
arn ia
a ult
Y ES
We eks
St rawberry
S ign
S ari
Pol ice
Mel ody
M ost
L azy
K ylie
H onest
Go al
G oose
F am
E ast
D ry
Bess y
Ben ji
A rm
Ġy ank
Ġviol ent
Ġten se
Ġt ic
Ġsumm oned
Ġsquir ting
Ġselfish ly
Ġres ume
Ġres pects
Ġreef s
Ġrac oon
Ġpret z
Ġpers ons
Ġpel ican
Ġout line
Ġocc up
Ġmessen ger
Ġmer chant
Ġm ale
Ġlot ions
Ġlimp s
Ġlif el
Ġlend s
Ġjump ers
Ġins pecting
Ġhunt s
Ġhot test
Ġhome owner
Ġhand wr
Ġgolf ers
Ġg ills
Ġflour ished
Ġflat t
Ġfl ung
Ġexperiment ed
Ġdis rupt
Ġdest iny
Ġd aw
Ġcr unches
Ġcr u
Ġcomm it
Ġcoin c
Ġcho king
Ġbrig ade
Ġblue st
Ġbenef its
Ġben e
Ġbas ic
Ġatt ended
Ġar ched
Ġannounce ments
ĠStar fish
ĠSp iky
ĠScr atch
ĠSc are
ĠRo llo
ĠQuack ie
ĠOw ly
ĠO oh
ĠMosquito es
ĠMom ents
ĠMar shmallow
ĠM mm
ĠM assage
ĠLu ka
ĠLo llipop
ĠKn ob
ĠJor ge
ĠJen a
ĠHopp ity
ĠHo pping
ĠH undreds
ĠH edge
ĠGr ateful
ĠG ilda
ĠG er
ĠFr own
ĠFl ipper
ĠE thel
ĠCrab s
ĠColor ful
ĠC oo
ĠBo dy
ĠBal ancing
ĠB ip
ĠB axter
w ind
w ait
up iter
uit y
t ouch
rr rrr
ri ze
oop s
ons ense
ome o
ol ves
n own
imp le
im os
ge on
f ed
est ruck
com fort
al ways
Yog urt
W orms
W et
V era
S abrina
Rem ove
Re veal
N icole
N eed
Mmm mm
Mar co
Lou ie
Int rigued
Hor sy
H urray
G iant
C ora
B ananas
Agn es
Ġwicked ly
Ġwh inny
Ġwa de
Ġtoy box
Ġthunder clap
Ġter rain
Ġsul k
Ġsqu iggly
Ġsk ins
Ġsew n
Ġsc issor
Ġsav or
Ġripp ling
Ġpretz els
Ġperp lexed
Ġn urt
Ġmat ure
Ġm ow
Ġlass o
Ġlab s
Ġl oun
Ġkiw is
Ġk ale
Ġjugg lers
Ġinter act
Ġinc on
Ġhow ls
Ġho ppy
Ġhill top
Ġgaz elle
Ġfriend liest
Ġfol ks
Ġflash y
Ġfl u
Ġeas iest
Ġdream y
Ġdisappear ance
Ġdestroy s
Ġd aunting
Ġcr im
Ġconcentr ating
Ġcoinc idence
Ġcher ishing
Ġband its
Ġaler ted
ĠWise y
ĠWhite y
ĠStu bb
ĠSt rawberry
ĠSome body
ĠSn ippy
ĠS av
ĠR OAR
ĠPoin ty
ĠPl ants
ĠP ic
ĠN er
ĠMonkey s
ĠM orty
ĠM ing
ĠM ask
ĠL ind
ĠL en
ĠJ ello
ĠJ ar
ĠIgn ore
ĠHer by
ĠF estival
ĠF ae
ĠComet s
ĠCh ain
ĠCand les
ĠC omb
ĠB at
ĠA be
utter ing
use ly
ur u
u ary
t oy
sque eze
s ided
s alt
ross ed
pl op
ore y
nd ry
g reat
g ently
fr uit
fic ial
f ull
em ple
ell ed
e g
co ld
che ap
ce st
b ite
b ing
b alance
aunt ed
an king
Where ver
W ood
Steph anie
So ft
Sh aron
Qu iet
Pol ish
P ed
P ainting
Ne ither
N ibbles
Mel anie
M ai
L ana
K arl
G en
Eww w
E nter
Cra w
Carrot s
Bug s
A iden
' ?
Ġvitam in
Ġunbuck led
Ġthunder ous
Ġthread ed
Ġthorough ly
Ġtechn iques
Ġtad pole
Ġsus pected
Ġspl int
Ġskill ful
Ġshin ning
Ġrubber y
Ġrespect fully
Ġrescu er
Ġrece iver
Ġrail way
Ġquiet est
Ġprof usely
Ġpra ising
Ġpinec one
Ġphys ical
Ġpanic s
Ġpad ded
Ġo d
Ġnut ty
Ġmicrosc opes
Ġla s
Ġkill ing
Ġinvent ing
Ġint act
Ġicic les
Ġgen ius
Ġfoam y
Ġfi ber
Ġfe ma
Ġduck y
Ġcoup on
Ġconfess ed
Ġcl inking
Ġcav ity
Ġcar vings
Ġcann ons
Ġboun cer
Ġboast ing
Ġbas ked
Ġb ony
Ġb ask
Ġaw estruck
Ġaut ograph
Ġan cest
Ġalert ness
ĠWhe elie
ĠThere fore
ĠTerri fied
ĠT ucky
ĠT iffany
ĠSn iff
ĠShrimp y
ĠShow ing
ĠSaf ari
ĠRuth ie
ĠR am
ĠPl anny
ĠP ow
ĠMar ble
ĠMag nets
ĠMac Donald
ĠM emory
ĠM E
ĠLead er
ĠK yla
ĠGu y
ĠFruit s
ĠFore shadowing
ĠFin a
ĠEve lyn
ĠEng ine
ĠDad a
ĠD estroy
ĠCurious ly
ĠCra ig
ĠCoal y
ĠCle ar
ĠCand le
ĠBounce y
ĠBig ger
ĠBen nie
ĠBeef y
ĠBe autiful
ĠB oop
ĠB ambi
ĠAr t
ĠAnd i
ĠAl most
ĠAbra ham
whe els
v iew
unk nown
tre asure
talk ies
t ry
spl it
s me
ri vers
or iginal
ol i
nder son
nd eterred
lo ad
i pl
gr own
ethe less
en zie
en ced
em a
d ling
c ial
c ent
ap t
Win nie
W alk
Un i
T uck
Stand ing
S ale
Rel iable
R ingo
R ice
R eddy
Paul ine
P ige
Me asure
M achine
Last ly
L oyal
Kay lee
G or
F unny
F air
En c
Dan cing
Be an
Av ailable
Ġunbear able
Ġun selfish
Ġturn ip
Ġtra g
Ġtr out
Ġtodd lers
Ġthreat en
Ġthe rm
Ġreflect s
Ġrag ged
Ġquiet ed
Ġpl aster
Ġperson al
Ġpassion ate
Ġn aught
Ġmisbeh ave
Ġmin es
Ġmet eor
Ġmer rier
Ġmake shift
Ġmad am
Ġm obile
Ġlime ade
Ġlantern s
Ġjelly be
Ġiss ue
Ġingen uity
Ġhike s
Ġgre ase
Ġgrass land
Ġfactor ies
Ġdun geon
Ġdry ness
Ġdri ppy
Ġdismay ed
Ġdefl ated
Ġclean ers
Ġchomp ing
Ġcance led
Ġc ement
Ġboss iness
Ġboil s
Ġbitter ness
ĠZe lda
ĠW reck
ĠVict oria
ĠV ince
ĠTow el
ĠThump er
ĠSoap y
ĠSmo king
ĠRobert a
ĠRac coon
ĠPr issy
ĠPl uto
ĠP owder
ĠJ upiter
ĠJ ase
ĠHoot s
ĠHel ga
ĠGil bert
ĠG lenda
ĠF oolish
ĠDrag ons
ĠDe bby
ĠD avy
ĠCobweb s
ĠChew ing
ĠCarl ie
ĠC ott
ĠB ed
ĠAmb ulance
ĠAm ira
ĠAl ert
Ġ ivy
Ġ iced
Ġ :
w ith
ven ience
umpt ious
uct ive
u let
u bb
ri ch
ren a
reg ret
re veal
pass port
ount ed
o pp
loo ked
in ion
ier ra
h urry
g ae
br is
b uzz
b ad
ali yah
W rap
W ife
V ict
T ornado
Swim my
Sp inny
Sl inky
Sh arp
Sc r
Sc ared
S urf
S ly
P ractice
Luc ie
K ira
In stantly
Ele ven
E nd
E gg
Del iver
Con nor
C ube
C rystal
C aleb
Abb i
A W
Ġz apped
Ġunimp ortant
Ġun broken
Ġtid iness
Ġtemp les
Ġt urb
Ġt un
Ġsw oosh
Ġstrate gy
Ġstill ness
Ġst ress
Ġsparrow s
Ġsleep ier
Ġri bs
Ġreun ion
Ġregain ed
Ġread ers
Ġre pt
Ġre ch
Ġprotest s
Ġpick er
Ġpe ony
Ġpan ted
Ġo x
Ġnarrow ed
Ġmuseum s
Ġmil king
Ġman ages
Ġlo ft
Ġlife less
Ġj ell
Ġj azzy
Ġinhabit ants
Ġinf ected
Ġident ify
Ġhipp opotamus
Ġhear ted
Ġhatch ing
Ġhard ware
Ġhand print
Ġground hog
Ġgro ans
Ġfema le
Ġexhibit s
Ġerupt ing
Ġeng rossed
Ġdo cked
Ġdeaf ening
Ġdaw ned
Ġcrown ed
Ġcom ments
Ġcoax ed
Ġche ep
Ġch andel
Ġbathtub s
Ġband aid
Ġa jar
ĠW aiting
ĠUn ique
ĠU s
ĠSp it
ĠSm arty
ĠSlim y
ĠSh ield
ĠSc amp
ĠS all
ĠRo lling
ĠRes cue
ĠRabbit s
ĠPuzz les
ĠPam ela
ĠP ond
ĠOstri ches
ĠN etty
ĠN ails
ĠMon sters
ĠMom s
ĠMel vin
ĠLet s
ĠL imes
ĠJ uggy
ĠJ ac
ĠFly er
ĠFear ful
ĠF ur
ĠF ile
ĠF awn
ĠEst her
ĠEn c
ĠCub ie
ĠChomp y
ĠC ind
ĠC RA
ĠBel ow
ĠB ern
ĠA ce
sw eet
st ood
spe ed
s ay
ou l
os ing
orm an
oo by
nic ian
le on
le ad
j u
in er
he et
for give
f le
cra sh
c ups
ap i
ame leon
_ _
Up on
Tra cy
St acey
Sm iling
S her
Per cy
O oo
Le opard
Joy ce
Jess y
Grand father
D erek
C ricket
C oo
Bob bi
B ook
B arney
B EEP
Ar t
AA AA
A N
Ġzoo s
Ġz agged
Ġy ipped
Ġwither ed
Ġwide st
Ġunwrap s
Ġun roll
Ġun cles
Ġult imately
Ġtop ics
Ġtooth ache
Ġto cked
Ġthunder cloud
Ġtherm os
Ġsun n
Ġstar light
Ġsoothing ly
Ġsomers ault
Ġshelter s
Ġsam ple
Ġsa pling
Ġs ue
Ġruff les
Ġrooft op
Ġres ulted
Ġrelease s
Ġreco very
Ġpurp les
Ġpan el
Ġoppon ent
Ġnetwork s
Ġnavig ate
Ġme ats
Ġm asse
Ġlunch room
Ġlist s
Ġjell ies
Ġintimid ated
Ġinform ed
Ġhead lights
Ġhandwr iting
Ġgur gling
Ġgran ola
Ġfrustr ating
Ġflatt ened
Ġfl urry
Ġexper ts
Ġep is
Ġemploy ee
Ġdoubt ful
Ġdot ted
Ġdon ation
Ġdel ive
Ġcrossro ads
Ġcrevice s
Ġcontro lled
Ġcontra ption
Ġcon st
Ġcl inging
Ġcent u
Ġcan cel
Ġcamp ground
Ġc ured
Ġc ope
Ġbr on
Ġbirds ong
Ġbill owing
Ġbene ficial
Ġassign ment
Ġal tern
Ġaff ected
ĠW iggle
ĠTr ish
ĠTr ade
ĠT u
ĠT iggy
ĠSurf ing
ĠSquash y
ĠSpl ish
ĠSn e
ĠSam son
ĠQu arrel
ĠPl ate
ĠP rotect
ĠN umbers
ĠN arnia
ĠMo dern
ĠMau rice
ĠM edicine
ĠM ammy
ĠL ecture
ĠIn a
ĠHay ley
ĠGeorg ina
ĠG O
ĠFold ing
ĠD oris
ĠCut ie
ĠChrist ine
ĠCh ild
ĠB urn
ĠAt t
ĠAnt on
ĠAn ita
ĠA way
Ġ" "
sn ip
sa fe
ri a
p owder
p ick
p art
ort ly
og ram
li ked
lem entine
il ary
hn e
go ers
att ach
ar ily
ap hne
ann on
ake st
ack s
W inky
T abby
Sn akes
S ock
Pinch y
P ep
N ell
M ikayla
L aila
K erry
J ed
In ch
I G
H urricane
H ola
G ab
Flick er
Fe ather
F oolish
B ath
An cient
Ġugl iest
Ġtrim ming
Ġtantrum s
Ġsuck ers
Ġstomach ache
Ġspec ially
Ġshatter s
Ġsh akers
Ġscr umptious
Ġsal iva
Ġrul ing
Ġrequ ired
Ġre acted
Ġrais in
Ġrain forest
Ġpost master
Ġpossib ility
Ġport ion
Ġponder ing
Ġpe er
Ġpat rol
Ġover looked
Ġneg ative
Ġna ive
Ġmourn ed
Ġmis behaved
Ġmirac ulously
Ġmirac les
Ġmean ness
Ġmasse use
Ġm im
Ġlifel ong
Ġl inks
Ġjersey s
Ġhosp it
Ġhigh ly
Ġh ing
Ġgrape vine
Ġfu zz
Ġfoot print
Ġfa iling
Ġexc uses
Ġe el
Ġdump ster
Ġdisagre es
Ġdirt iest
Ġde ce
Ġde bris
Ġcred it
Ġcow ered
Ġclothesp ins
Ġcl ippers
Ġcl ipped
Ġch imp
Ġch ameleon
Ġcentu ries
Ġcar amel
Ġbroad ly
Ġbirdc ages
Ġbarn s
Ġb zzz
Ġass umed
Ġancest ors
Ġam ulet
Ġal akazam
ĠYay a
ĠWay ne
ĠU nicorn
ĠSun flowers
ĠSo ccer
ĠS ubway
ĠS ton
ĠS ound
ĠR unny
ĠR ef
ĠParrot s
ĠPark er
ĠO peration
ĠMark y
ĠMar ching
ĠM aster
ĠJam al
ĠJack lyn
ĠJ eb
ĠJ ail
ĠIt ch
ĠHe avy
ĠHa iley
ĠH ungry
ĠH ooks
ĠH arm
ĠG irls
ĠFour th
ĠFl ippy
ĠDes k
ĠCr unch
ĠCan ny
ĠC ave
ĠC autiously
ĠBow ser
ĠBlue berries
ĠBee zy
ĠBark s
Ġ i
Ġ &
Â ´
y ellow
us al
s ome
re place
re o
ra il
or ance
le cted
is fied
ile en
id st
ick ered
ic iness
heart ened
et itive
es ame
en ix
e off
cle ar
ase ball
W anda
Sp read
S ec
S ack
N ine
H aha
G iddy
Fly ing
F anny
Dis play
C ody
C and
A aron
' ".
Ġy o
Ġwrit ers
Ġweak nesses
Ġwe akest
Ġwarm s
Ġwa fted
Ġunst opp
Ġunrave led
Ġunb elie
Ġtire lessly
Ġsquirm s
Ġside kick
Ġshelter ed
Ġscrewd rivers
Ġsad dest
Ġround est
Ġref usal
Ġre jected
Ġrain cloud
Ġpre scri
Ġpig lets
Ġpa cing
Ġmy stic
Ġmurm ured
Ġmelod ic
Ġmed it
Ġlot tery
Ġlo ver
Ġla ir
Ġju icier
Ġje ster
Ġj umbled
Ġint ention
Ġice cream
Ġhut ch
Ġhust le
Ġgro ve
Ġgrant ing
Ġgr rr
Ġgr ater
Ġglitt ers
Ġfres hness
Ġfr idges
Ġflo pping
Ġfaire r
Ġexp osed
Ġexit s
Ġentertain ment
Ġemer ge
Ġdeter gent
Ġdestr uctive
Ġdelicious ly
Ġd unes
Ġcrouch ing
Ġcorrid or
Ġcommand ed
Ġch irpy
Ġbust le
Ġbully ing
Ġbread s
Ġbookcase s
Ġb ib
Ġat h
Ġanxious ness
Ġal gae
Ġag ent
Ġadmiring ly
Ġab und
ĠWh ales
ĠW arm
ĠW ardrobe
ĠTurt ley
ĠTra ffic
ĠTink er
ĠSt arla
ĠSo oty
ĠSh ane
ĠSer ious
ĠS uit
ĠS aw
ĠS ab
ĠRelax ing
ĠRalph ie
ĠR anch
ĠPeep s
ĠP ablo
ĠNo la
ĠN ail
ĠMatch ing
ĠM otion
ĠM etal
ĠH mm
ĠG enny
ĠFly nn
ĠFa ctory
ĠF ergus
ĠEle anor
ĠE scape
ĠDoes n
ĠDid n
ĠDex ter
ĠD ottie
ĠD andy
ĠCh loÃ©
ĠC live
ĠBre nda
ĠBra vo
ĠApp reci
ĠApp laud
âĢĻ ,
Ã± ata
yth on
v isions
un freeze
t w
t ell
s our
rew n
rel iable
pr oof
ourn ess
m ouse
irl oom
ig el
ie go
gl ass
eropl ane
em barrass
em and
c ircle
c adabra
b ath
at ives
ane st
an cient
ach a
Z og
T ears
S uccess
Qu iz
Pe w
Nut ty
M al
L og
Jes se
Im p
H unt
H azel
H aley
For give
F izzy
Ex ploring
E arly
Did n
Del ay
C uddles
Bo ing
A ddy
" ?
Ġwrit ings
Ġwrigg les
Ġwho a
Ġvis ion
Ġut ens
Ġunstopp able
Ġunsc athed
Ġtwir ly
Ġtransp ort
Ġtech nician
Ġteac up
Ġste amed
Ġsmart ness
Ġsm ear
Ġshort est
Ġse ctions
Ġscal p
Ġsav ouring
Ġsat ell
Ġsail boats
Ġs ourness
Ġrobot ic
Ġrob ins
Ġrem orse
Ġrel ia
Ġqu enched
Ġpump ing
Ġpr ance
Ġposs um
Ġpo cus
Ġpi Ã±ata
Ġpersuas ive
Ġperson alities
Ġpatch work
Ġp ython
Ġorgan izer
Ġoper as
Ġneg lected
Ġmild er
Ġmasc ot
Ġmamm oth
Ġmain tain
Ġm amma
Ġloun ge
Ġind ivid
Ġincon venience
Ġhospit als
Ġhe irloom
Ġgym n
Ġgroan ing
Ġgr oo
Ġgas oline
Ġfry ing
Ġfrost y
Ġflow s
Ġflex ed
Ġequ ations
Ġdown wards
Ġdisob edience
Ġdestination s
Ġdesper ation
Ġdep ar
Ġcr ushing
Ġcontro lling
Ġcont act
Ġcon vey
Ġcomplain t
Ġclown fish
Ġcleare st
Ġcle ars
Ġcell ar
Ġbur den
Ġble ach
Ġbl aring
Ġbelief s
Ġattach ment
Ġapples auce
Ġapologetic ally
Ġadv anced
ĠWil f
ĠUn ite
ĠU ma
ĠTo ad
ĠSu pply
ĠSqu ary
ĠSp oiled
ĠSp idy
ĠSam mie
ĠRh ino
ĠRep air
ĠRay mond
ĠR iya
ĠPl um
ĠOp inion
ĠNo isy
ĠM ice
ĠLe fty
ĠL ine
ĠK icking
ĠIgn oring
ĠHe ar
ĠG ames
ĠFree zer
ĠFin ley
ĠE nt
ĠChe f
ĠCake y
ĠBro c
ĠBe bo
ĠB ottle
ĠAut omobile
ĠAg atha
ĠAb racadabra
z ers
we igh
toot hed
rep are
re ated
re ach
ot ty
or ation
ool s
ll ers
l it
j ail
gre es
erm it
cu ry
as her
app ear
a ah
Y outh
W arn
St ick
S eat
Re g
Past a
O y
O stri
O ats
Nat alie
N aomi
M itch
M iguel
L esson
H igh
Geor gie
F urry
F illed
F ierce
Don na
Dolph in
Des perate
D eep
C assie
Be ary
B oop
B ike
After ward
1 2
Ġwor thy
Ġvan ishes
Ġur gently
Ġtur qu
Ġtid iest
Ġsw elling
Ġsur vey
Ġstunt s
Ġstreng then
Ġstraight en
Ġstable s
Ġst rewn
Ġspoil er
Ġsnorke l
Ġsl unk
Ġse qu
Ġscor p
Ġscan ner
Ġsacri f
Ġriver side
Ġresist s
Ġrat tles
Ġpro pped
Ġposit ions
Ġpoll in
Ġpack ets
Ġmystic al
Ġlimb s
Ġlab or
Ġl ink
Ġkind a
Ġk ibble
Ġinf l
Ġin ject
Ġhon ored
Ġho oray
Ġhand made
Ġgloom iest
Ġfluff iest
Ġfe e
Ġfarm ing
Ġf ades
Ġex h
Ġeggpl ant
Ġdo e
Ġdis comfort
Ġdevel oped
Ġde grees
Ġdam aging
Ġcra fty
Ġcongratul ations
Ġcommunic ating
Ġcla pper
Ġcirc um
Ġbull dozer
Ġbrag ged
Ġbab bling
Ġb rill
Ġb ount
ĠZebra s
ĠZ ap
ĠVe getables
ĠUn pack
ĠThere sa
ĠT our
ĠSt icky
ĠSp encer
ĠS uch
ĠR uggy
ĠR ec
ĠPo key
ĠPee ky
ĠPeach y
ĠPal oma
ĠOwl s
ĠOl ga
ĠN ormal
ĠMy sterious
ĠMax i
ĠL anguage
ĠJo di
ĠIce y
ĠHug e
ĠHe althy
ĠH ig
ĠH idden
ĠH atty
ĠGra cy
ĠGr owl
ĠGl ad
ĠFair ies
ĠDel ivery
ĠD riving
ĠCy nthia
ĠCl oe
ĠBo xie
ĠBer ty
ĠBath s
ĠB rilliant
ĠAbb ey
Ġ1 6
w oman
us ual
us cious
un ken
um i
u is
to day
rat ive
p ad
on ing
omp son
om ino
n ice
m ix
l ia
k art
iw i
ien na
id an
h ire
ett a
e v
de le
d id
c ite
b ump
b et
an ne
amp ed
ag ging
a un
Z e
W ave
Un lock
Te a
St udying
Sm ell
Sc atter
S E
R rrr
R ow
R ina
R are
Pige on
Pa ige
P ill
Min ty
Mic key
M uffy
L illie
L E
K ite
K anga
Hunt er
H ay
D ale
B ull
Ab solutely
Ab ra
Ġunw anted
Ġturqu oise
Ġtoothpick s
Ġto ler
Ġtele visions
Ġtear ful
Ġswallow ing
Ġsun ken
Ġsto cking
Ġsting ers
Ġste gosaurus
Ġsplin ters
Ġsol ves
Ġslam ming
Ġsk ipper
Ġshudd ered
Ġshr unken
Ġshock ing
Ġsell ers
Ġsand paper
Ġrel ative
Ġr am
Ġpredic ted
Ġplay thing
Ġpic t
Ġparticip ate
Ġpa ced
Ġp ried
Ġp ixie
Ġod or
Ġo vals
Ġnight light
Ġn onsense
Ġmotor cy
Ġmot iv
Ġmet ho
Ġme erk
Ġme anest
Ġmar sh
Ġmake over
Ġlove lier
Ġli ars
Ġl uscious
Ġju ry
Ġinvestig ating
Ġindivid ual
Ġhotdog s
Ġho ly
Ġhesit ates
Ġhand stand
Ġflavor ful
Ġfan ned
Ġexpress ions
Ġens uring
Ġdown hill
Ġdist ressed
Ġdis heartened
Ġdeser ted
Ġde als
Ġdazz led
Ġcleve rer
Ġcart wheels
Ġcal cul
Ġc ulp
Ġburn er
Ġbu ff
Ġbr oth
Ġblack berry
Ġblack berries
Ġaston ishment
Ġastero ids
Ġacrob at
Ġaccur ately
ĠW on
ĠUp set
ĠTh ompson
ĠT in
ĠSt ation
ĠSp read
ĠSh out
ĠSer ve
ĠS pecial
ĠRest ing
ĠReg ular
ĠR ough
ĠR iko
ĠPe ering
ĠP oo
ĠNo elle
ĠMop sy
ĠMilk y
ĠM itten
ĠM iley
ĠK ey
ĠJust ine
ĠJing les
ĠHorse y
ĠHo ho
ĠG avin
ĠG ar
ĠF og
ĠF lies
ĠF arah
ĠE sk
ĠCott on
ĠCom my
ĠClar ice
ĠChe ep
ĠBush y
ĠBuild ing
ĠBro dy
ĠBike s
ĠBar rel
ĠAut umn
ĠAr ctic
ĠAppreci ate
ĠAle c
ĠAdventure s
ĠAb el
ĠA ero
z il
v ille
ut t
uff ins
u ki
turn ed
str uck
sp ace
sol ving
se ll
sc ary
s ugar
s ack
rem ain
play ing
owled ge
ore nce
ond a
nder s
n ame
ir cles
ine se
il ant
ick i
ic ke
ft en
ertain ly
er ome
ed ric
dis gusting
d ance
cl ack
ch ange
b ute
ator y
Y ucky
Wr iting
Wil bur
Spid ers
Son ia
Sh ampoo
Sc arlett
S and
S a
Rock s
Re ggie
R oof
Me ena
Me at
M u
M arian
Le arn
L ock
L ate
Ign orant
Hug o
Har vey
Gr an
El i
C up
C arry
Bl ocks
Be atrice
An swer
A g
Ġwh ooped
Ġwell ed
Ġwelc omes
Ġw its
Ġutens ils
Ġtruth s
Ġtrave ller
Ġtr ough
Ġthr ower
Ġterm s
Ġsw atter
Ġsurf aced
Ġsn oot
Ġsm udges
Ġshri ek
Ġshr ub
Ġsh red
Ġsh aded
Ġsea water
Ġquiet ness
Ġpush y
Ġpract ically
Ġpr am
Ġpoo rer
Ġover do
Ġorphan age
Ġoccup ied
Ġnar rative
Ġmisbeh aving
Ġlog o
Ġlo vable
Ġliving room
Ġlad led
Ġkil ogram
Ġj agged
Ġis la
Ġinstruct ion
Ġho ll
Ġgur gle
Ġgruff ly
Ġgre asy
Ġgn aw
Ġgloom ier
Ġgall ery
Ġfu ssy
Ġfin er
Ġfell a
Ġexp ired
Ġerra nd
Ġentertain ing
Ġdu et
Ġdec re
Ġcrib s
Ġconstr uct
Ġcondition er
Ġcomp artment
Ġcl unk
Ġcaution ed
Ġc ores
Ġc asc
Ġbutter cups
Ġbug gy
Ġbounc ier
Ġbo p
Ġble ating
Ġbe llow
Ġb um
Ġattack s
Ġatt ending
Ġam using
Ġagg ressive
Ġadvertise ment
Ġadjust ments
Ġaccur ate
ĠUp stairs
ĠTwink ie
ĠTr umpet
ĠTeam work
ĠTe rence
ĠT ory
ĠT alking
ĠStri ke
ĠSp ear
ĠSlither s
ĠSher ry
ĠS eed
ĠRace y
ĠR uru
ĠR ap
ĠPig s
ĠPe ppers
ĠPat sy
ĠP hew
ĠP arent
ĠP ants
ĠNo sey
ĠN est
ĠN ella
ĠMoo ly
ĠMill i
ĠMatt ress
ĠM c
ĠM aze
ĠM arge
ĠM alia
ĠLook s
ĠL yle
ĠJ ayla
ĠHug h
ĠHope fully
ĠF at
ĠEm ergency
ĠEd gar
ĠD ra
ĠCh inese
ĠC one
ĠBad ger
ĠB ing
ĠA rnie
ĠA nderson
Ġ ounce
| >
ver n
v ide
stand ing
se par
ri ble
reat ive
p ull
p ark
ony a
oll i
j or
itz i
im agine
ia h
head ed
end s
elp iece
do ll
cl imb
ck n
c ers
b ench
b aked
as min
art oon
are r
Y e
The a
T anya
Sun flower
Some body
Sm oke
Shark s
Sc ore
S issy
Rud olph
Pet ey
My stery
Matt ie
M otor
M ag
L acy
Jul iet
Jon ah
J ail
Gold ie
G ather
Fle xible
Fl ash
Did i
Cook ing
Ch air
Ce lebrate
C onnie
C auliflower
Bub u
Be be
B etter
Att ach
All igator
Ac cidents
5 0
Ġwound ed
Ġweep s
Ġweep ed
Ġwadd les
Ġwa ft
Ġtre mend
Ġtime out
Ġth orny
Ġstri ving
Ġstreak s
Ġste ers
Ġspot light
Ġspace man
Ġsou ls
Ġsmooth ies
Ġsl inked
Ġshuff ling
Ġshine y
Ġsc aven
Ġsal mon
Ġrum our
Ġrever ses
Ġrasc als
Ġpriv ile
Ġposition ed
Ġpadd ock
Ġoptim istic
Ġne cess
Ġmotor boat
Ġmischievous ly
Ġmant elpiece
Ġmant el
Ġlen ses
Ġjewel er
Ġj ingly
Ġint ended
Ġind oor
Ġhorn et
Ġhoard ing
Ġgri ef
Ġglow y
Ġgain s
Ġf iddle
Ġemb arked
Ġduck ies
Ġdrift wood
Ġdon ated
Ġdo in
Ġde le
Ġdaffod ils
Ġcount less
Ġcooper ated
Ġconvey or
Ġcontri but
Ġconf use
Ġcircum stance
Ġbrill iance
Ġbr rr
Ġbr ittle
Ġblister ed
Ġarm ed
Ġappro ving
ĠW ra
ĠW olves
ĠTw iggy
ĠThe odore
ĠTele vision
ĠT ilda
ĠT alia
ĠSt irring
ĠSquir my
ĠSh ady
ĠS ink
ĠRe ward
ĠPot ty
ĠP ushing
ĠP le
ĠP iano
ĠP ammy
ĠMin erals
ĠL amb
ĠK o
ĠK el
ĠJ ud
ĠHerb s
ĠH iding
ĠGrand son
ĠGl immer
ĠGhost s
ĠG eese
ĠFl are
ĠEx am
ĠEarthquake s
ĠDr um
ĠD ully
ĠD oodle
ĠD ick
ĠC oral
ĠBut ch
ĠBroom y
ĠB oys
ĠA x
ĠA ustin
y o
ung les
sh ield
sh ade
separ ate
se en
s ive
ri al
ra ce
p ink
ou ches
omet own
l asses
ist ant
ild ing
ia s
he al
gy pt
g iveness
f rom
e very
d ark
cra zy
com p
ch amber
c oo
c ont
c ars
b anana
ar ma
ap y
al ent
W ay
Un known
Tw enty
Tr ade
T ie
Swim ming
Stretch ing
Squ ash
Squ are
Smo key
Sm ith
Pr unes
Pe bby
Pam ela
N anny
Mel inda
Luc a
Le a
L ung
Is abelle
Fr anny
F urther
E lli
Cow s
Chick en
C ec
C amp
Bree zy
Act ually
< |
. )
!âĢĻ .
Ġwait ers
Ġup stream
Ġunz ipping
Ġund id
Ġu pper
Ġtractor s
Ġtra cing
Ġto pped
Ġtight ening
Ġth ickest
Ġt att
Ġsub sided
Ġsu ited
Ġstap ler
Ġsqu irts
Ġspy glass
Ġslipp er
Ġsin ister
Ġsh ards
Ġscrunch ing
Ġs oooo
Ġrough ness
Ġrep orted
Ġregret fully
Ġpurs ue
Ġpocket ed
Ġnest ing
Ġne atest
Ġn aked
Ġmo ats
Ġmet ers
Ġmango es
Ġjer ked
Ġj ungles
Ġir re
Ġimp ul
Ġhost ess
Ġhob bled
Ġhe m
Ġhast ily
Ġha l
Ġh ue
Ġh ometown
Ġgolf ing
Ġgi ver
Ġfr ayed
Ġfluff ier
Ġerupt ion
Ġer ror
Ġepis ode
Ġempt iness
Ġem erald
Ġdis liked
Ġdet ached
Ġden y
Ġdangerous ly
Ġcount ert
Ġchocolate y
Ġch is
Ġcare ss
Ġcan ister
Ġbul ging
Ġbo sses
Ġblind ed
Ġbegin nings
Ġbeeh ives
Ġbe ards
Ġafter all
Ġact ress
Ġabrupt ly
Ġa ckn
ĠWe ird
ĠWe althy
ĠVer onica
ĠTh orn
ĠT igo
ĠT appy
ĠT able
ĠShoot ing
ĠShe lls
ĠSad ness
ĠRe lease
ĠR rrrr
ĠR ise
ĠQuarrel ing
ĠPurp y
ĠPrin ter
ĠPret end
ĠPet unia
ĠPal ace
ĠP ops
ĠP au
ĠN iki
ĠMel ina
ĠMeg han
ĠK ia
ĠK atelyn
ĠIn ny
ĠI van
ĠHat tie
ĠH ans
ĠH anging
ĠGret el
ĠGr ady
ĠFollow ing
ĠF etch
ĠE v
ĠE gypt
ĠD rip
ĠD av
ĠCl osed
ĠCl appy
ĠCh imney
ĠC or
ĠBrave heart
ĠBra zil
ĠBar bie
ĠBall ie
ĠB unnies
ĠAunt y
ĠArm chair
ĠAri a
ĠAn gry
ĠAlligator s
yl vie
w ild
uck oo
tt a
t oys
t ag
st ones
sh a
ro lling
rist a
qu eline
pl ane
ower ing
op ards
ock et
o lls
n i
met s
m int
j ay
itter ing
it ual
is it
ill o
expected ly
er ick
ellig ent
eah orse
e arned
br own
b ush
b eds
aterpill ars
ash ore
ard ed
ance s
an che
Wh ilst
We igh
W alking
Turn ing
T alk
T ad
St r
Spin ning
She ila
S el
R upert
R azor
P umpkin
M ammy
H ockey
Gr adually
F ork
Ex ercise
Del ighted
Dar ling
D ig
D ella
Cro codile
Count ing
CH OO
C ol
C ertainly
C am
Bo ssy
Alf red
Ġwork bench
Ġwoods man
Ġvine yard
Ġult imate
Ġtrick ling
Ġtri be
Ġtra cked
Ġtr olls
Ġtr am
Ġth rive
Ġtent acle
Ġtens ion
Ġsunburn ed
Ġstur d
Ġspot ty
Ġspe cks
Ġsp iciness
Ġsp icier
Ġsoft en
Ġsly ly
Ġsleep iness
Ġsho ppers
Ġseason ing
Ġse ashore
Ġse af
Ġschool work
Ġsc uff
Ġs ized
Ġres il
Ġrem edy
Ġrasp y
Ġr itual
Ġprepare s
Ġout going
Ġoffic ially
Ġnatur ally
Ġmisunder stood
Ġmid st
Ġmess iest
Ġmat ted
Ġlot us
Ġland mark
Ġl ame
Ġkern el
Ġill ustr
Ġhe ave
Ġh umbled
Ġgust s
Ġgra vy
Ġgr ad
Ġfu se
Ġflick s
Ġfl ed
Ġfier cer
Ġfestiv ities
Ġfear fully
Ġf iling
Ġed ible
Ġdream er
Ġdoub ted
Ġdistract ing
Ġdesign ers
Ġdepar ture
Ġden ied
Ġde lete
Ġcy cled
Ġcommit ment
Ġclient s
Ġclaw ed
Ġchar coal
Ġburrow ed
Ġbull frog
Ġbul ge
Ġbu rial
Ġbreath less
Ġbount y
Ġbl ushing
Ġbar ista
Ġav al
Ġassemb led
Ġapolog ising
Ġam idst
Ġairport s
Ġaim lessly
Ġac qu
ĠY ears
ĠWood s
ĠWe e
ĠV alley
ĠT ax
ĠSt orm
ĠSh oes
ĠSh apes
ĠSel ma
ĠPrun ella
ĠPol ite
ĠOb edient
ĠO be
ĠN ico
ĠMel on
ĠM eredith
ĠK iwi
ĠK arla
ĠJe anie
ĠHor ses
ĠHipp os
ĠHair cut
ĠH oliday
ĠG re
ĠFl ames
ĠF ishing
ĠF ee
ĠEnt ry
ĠEm barrass
ĠDVD s
ĠD eb
ĠCool er
ĠCliff ord
ĠCe lebr
ĠCal vin
ĠB izzy
ĠB iki
ĠAv ailable
ĠAsh y
ĠAl right
ĠA cting
Ġ ?"
ut ch
un zel
un ish
uff er
sp oiled
sh h
s end
riend ly
r ito
pre vent
pl ow
pe e
p ress
p our
ow el
oun cing
ook ie
n eed
m elt
m ake
ll ous
ip er
igg ling
ific ant
ian ca
he el
h ome
eee ase
e lephant
dis play
ce rer
catch ing
b ooks
as il
am ble
With in
Wh ist
We ird
Sw inging
Ste ak
S itting
S eal
R eturn
Pick les
P u
P our
P oof
M ill
M art
Le an
Kind ness
K yla
G O
Fl utter
F ern
F O
Do or
Cle o
Cl ar
Bra ndy
Bl ake
Be et
Am azingly
Al arm
Ġwrest le
Ġwing ed
Ġweird er
Ġweek ly
Ġwall paper
Ġwa iling
Ġvibr ation
Ġvet s
Ġunf riendly
Ġund eterred
Ġunc ont
Ġtremb les
Ġto nes
Ġtight ness
Ġte e
Ġst ag
Ġsprink lers
Ġsp uttered
Ġsor cerer
Ġsnow plow
Ġsn ips
Ġsm other
Ġsh ift
Ġsevent h
Ġrare st
Ġr abies
Ġprec ise
Ġplum met
Ġpillow case
Ġped dling
Ġpeas ant
Ġpe ster
Ġout w
Ġmust y
Ġmodest y
Ġmini ature
Ġmet als
Ġm ir
Ġm entions
Ġlamp shade
Ġl ather
Ġkidn apped
Ġinit ially
Ġinc omp
Ġhorse y
Ġhomes ick
Ġhedgehog s
Ġhear ty
Ġhast e
Ġh ues
Ġgroom ed
Ġgreed ily
Ġgrateful ness
Ġgr itted
Ġgr ated
Ġgo pher
Ġgather s
Ġfract ure
Ġfloat ie
Ġeye ing
Ġex pects
Ġend anger
Ġeggshe lls
Ġdin o
Ġdilig ent
Ġdetermined ly
Ġdelight ing
Ġd immer
Ġcross walk
Ġcrim inal
Ġcreat or
Ġconc luded
Ġchis el
Ġcareful ness
Ġbur rito
Ġbrain storm
Ġbra ved
Ġbow tie
Ġboss iest
Ġblend ing
Ġble at
Ġback f
Ġaval anche
Ġam en
Ġabund ance
ĠWall et
ĠVo ice
ĠV et
ĠTra p
ĠT ricia
ĠSo l
ĠSl apping
ĠSav annah
ĠS eahorse
ĠS age
ĠS T
ĠRoby n
ĠRem ain
ĠRee f
ĠR y
ĠR omeo
ĠR ab
ĠO reo
ĠO ops
ĠNer vous
ĠN oodle
ĠMo ses
ĠM ai
ĠLiz ards
ĠL uce
ĠL otta
ĠJo h
ĠJet tie
ĠJ ee
ĠJ az
ĠIn chie
ĠHow ard
ĠH ilary
ĠG ummy
ĠG ulp
ĠFl orence
ĠFix it
ĠEx pl
ĠEsk imos
ĠEm il
ĠDr inking
ĠDon ald
ĠD elia
ĠChrist ina
ĠCh ico
ĠC re
ĠC aring
ĠBon o
ĠBall s
ĠB ot
ĠAn abelle
ĠAll an
Ġ !"
ut u
ung lasses
u bert
te ous
str id
sp oil
sp ear
sn ake
sk ating
sh hh
ri ents
reat he
reak able
re ted
raw berries
p retty
p itch
ot i
olog y
n osed
m iss
m ber
llie st
le ft
ld ron
l im
iv ore
ian s
ent le
d emand
br ary
au ldron
ah lia
ag u
X IT
T iffany
T ank
Sn ee
S ydney
S orting
S P
R elieved
Pill ow
Pengu ins
Pengu in
P aper
New s
Mad eline
M or
L yla
L olly
L and
F ancy
D ifferent
C arpet
Button s
Blue berry
B ite
B alance
B ab
AAAA H
,' '
) .
Ġwrink ling
Ġwith stand
Ġwets uit
Ġwal nuts
Ġwaft ing
Ġver b
Ġunw ind
Ġunpl ug
Ġunh appiness
Ġunderstanding ly
Ġuncont roll
Ġunb reakable
Ġun ear
Ġtremend ous
Ġtranqu ilizer
Ġtoast s
Ġtang les
Ġswitch ing
Ġswat ting
Ġsu pr
Ġst inks
Ġsneak ily
Ġsn acked
Ġsilver ware
Ġshadow y
Ġsauce pan
Ġsand ed
Ġsal ut
Ġsacrif ice
Ġs cept
Ġripp led
Ġrip en
Ġrid ges
Ġrech arge
Ġr im
Ġquick ened
Ġpurs uit
Ġpun ct
Ġpump s
Ġpuck s
Ġprom pt
Ġpresent ation
Ġpi ec
Ġper k
Ġpeel er
Ġpatter ned
Ġnut rients
Ġnos iness
Ġneg oti
Ġmo de
Ġmist aken
Ġmeander ed
Ġme ment
Ġlitt e
Ġleng ths
Ġinh aled
Ġill eg
Ġhus k
Ġhead set
Ġha lt
Ġgross ed
Ġgrind ing
Ġglo ss
Ġglance s
Ġfun eral
Ġfres her
Ġfre ckles
Ġfl ushes
Ġfl icking
Ġfer ret
Ġfal con
Ġfaire st
Ġexc ites
Ġexamp les
Ġemer ging
Ġdun ked
Ġdistract ion
Ġdelive rer
Ġculp rit
Ġcourt room
Ġcour teous
Ġcorrid ors
Ġcontra st
Ġconqu ering
Ġcond itions
Ġchar ger
Ġc auldron
Ġbut t
Ġbed post
Ġbe ware
Ġaunt s
Ġannoun cer
Ġag ility
Ġadm itting
Ġaband on
Ġab racadabra
ĠWh oosh
ĠWe bby
ĠWas n
ĠTre ats
ĠTam ara
ĠT ur
ĠT emple
ĠT H
ĠSt uffing
ĠSpr ite
ĠSne aky
ĠShadow s
ĠSh aun
ĠSh annon
ĠSe ven
ĠScoot er
ĠSc oop
ĠSandw ich
ĠS end
ĠRose mary
ĠRon ald
ĠRep lied
ĠPl op
ĠPige ons
ĠPat ricia
ĠP ause
ĠMu seum
ĠMist akes
ĠMin ute
ĠMe ggie
ĠMarsh a
ĠM urphy
ĠM ate
ĠLes lie
ĠL onely
ĠJim mie
ĠJak ob
ĠJa ime
ĠIgn orance
ĠHome work
ĠHis s
ĠHenri etta
ĠHe aven
ĠGab riel
ĠFoot ball
ĠFam ous
ĠDel ighted
ĠD ax
ĠCr ispy
ĠCard y
ĠC uddle
ĠBlue bird
ĠB ink
ĠB etter
Ġ3 6
âĢ Ĭ
zz ie
w ake
un ite
uit ion
u z
spass ing
sp oon
somet hing
se ls
pp ings
polog ize
pol ice
pl aced
p les
or ters
oo ooo
onna ise
net work
n ext
m ower
m ilk
l oyd
l ittle
k iss
is ht
isht icated
irp ort
in nie
im ated
ic ation
fly ing
fix ed
del icious
de af
d rink
d in
ch ain
be ef
b utter
b orn
ank et
anger ine
ang ling
al ise
al ade
air a
af raid
W OW
U N
Th inking
T op
Stu art
Sh y
S NAP
P ia
P aw
On ions
Olive s
Never theless
M osquito
M iranda
M allory
Lo ad
Le arning
In k
Enc ouraged
El ise
Earth quake
D ory
Cra bs
Cl over
Ann abel
,' "
Ġwool en
Ġwood worker
Ġwhis pe
Ġvig ilant
Ġvaluable s
Ġunfold ing
Ġtwee zers
Ġtur rets
Ġtuck ered
Ġtri ke
Ġtrag ic
Ġtin ier
Ġtight est
Ġthink er
Ġtear fully
Ġte xt
Ġsymp athy
Ġsupr ised
Ġstump ed
Ġsprout ing
Ġspl atter
Ġspir als
Ġspark ing
Ġsoft ens
Ġso cial
Ġsn ickered
Ġsleep ily
Ġscrub s
Ġs esame
Ġrun gs
Ġrose bush
Ġrefrigerator s
Ġrec ited
Ġplun ger
Ġphotograph s
Ġph arma
Ġnick ered
Ġmum ma
Ġmenacing ly
Ġmeal time
Ġmay onnaise
Ġmarve llous
Ġloc als
Ġle is
Ġlawn mower
Ġjo ll
Ġj ut
Ġinst all
Ġinnoc ence
Ġincomp lete
Ġinch ing
Ġhe ating
Ġhands h
Ġh ip
Ġgrad u
Ġgracious ly
Ġgr im
Ġfort ress
Ġform ation
Ġfool s
Ġflower beds
Ġflat ten
Ġexpect antly
Ġexclaim ing
Ġdoub ts
Ġdiver s
Ġdevel op
Ġd omino
Ġcu bby
Ġcreative ly
Ġcraw ly
Ġcont em
Ġconsc ience
Ġcl og
Ġchee ses
Ġblister s
Ġblack boards
Ġbl uffing
Ġbe gg
Ġbat tled
Ġbare foot
Ġball room
Ġb ison
Ġb ac
Ġant elope
Ġadvert ising
ĠZ one
ĠWolf y
ĠW oman
ĠW ilk
ĠV olly
ĠV est
ĠTre spassing
ĠTo ss
ĠT ito
ĠT HE
ĠSid ney
ĠScratch y
ĠSack y
ĠS ienna
ĠR ic
ĠQ uest
ĠP ump
ĠP it
ĠMar iam
ĠM oose
ĠM ir
ĠM ention
ĠM elly
ĠLe ather
ĠJewel ry
ĠJ uno
ĠInc redible
ĠF ribbit
ĠF i
ĠEgg s
ĠD irt
ĠD iego
ĠD essert
ĠClare nce
ĠCelebr ating
ĠBry an
ĠBre aking
ĠBe have
ĠAngel ica
ĠAlexa nder
ĠAc cept
Ġ1 1
Ġ 0
y et
v on
ugg le
ug ht
ter ed
t ook
t imes
sw ered
re hen
re ate
r inky
r ann
rann osaurus
qu ipment
p in
l ar
l an
ist an
ir ly
il ight
ic ol
h ug
grand father
go al
f etch
et ched
cl ose
ce lyn
av an
am ents
Wr ong
W orry
Thank you
Ter rified
T alent
T V
So l
Sn ip
Sk ipping
Sh awn
Sc ary
Sc are
S ully
P in
Mark y
Mar go
M ushroom
M orty
Leave s
L y
L ula
L ab
Jem ima
J ared
Is aac
I S
He althy
Har ley
H appily
Gl ue
G erald
Fr uit
F uzz
F og
E N
E L
Cro co
Ch ad
B umble
B ri
Ant hony
Ġwh iff
Ġwas t
Ġvend ing
Ġuncontroll ably
Ġunb uckle
Ġtram pled
Ġtr und
Ġtap ing
Ġtack led
Ġt angle
Ġsurf s
Ġsty ling
Ġsturd ier
Ġstock ings
Ġstar ving
Ġspecial ist
Ġspe wed
Ġskill fully
Ġsh ivery
Ġscut tle
Ġscorp ion
Ġresourceful ness
Ġres er
Ġrequ ire
Ġrel atives
Ġreg reted
Ġreass urance
Ġpurp oses
Ġpr ongs
Ġpr ancing
Ġpluck ing
Ġpict ured
Ġpet rol
Ġp iping
Ġp iped
Ġoppon ents
Ġodd s
Ġnurt ure
Ġmult icol
Ġmor sel
Ġmir age
Ġmid air
Ġmail s
Ġlonel ier
Ġload er
Ġlight en
Ġleis ure
Ġlaz iest
Ġjud g
Ġjo lliest
Ġisla nders
Ġhorse sh
Ġho ver
Ġhing es
Ġhe aps
Ġh umb
Ġgrave yard
Ġgrand baby
Ġgr udgingly
Ġgl um
Ġfrown y
Ġfrant ic
Ġfashion ed
Ġeyel ashes
Ġexp ense
Ġenjoy ment
Ġengine ers
Ġdrool ing
Ġdeaf ness
Ġd war
Ġd iss
Ġcrust s
Ġcreak s
Ġcr amped
Ġcook er
Ġcontri bute
Ġcoll ab
Ġco ppers
Ġclam s
Ġcirc ular
Ġchandel ier
Ġcar avan
Ġbut ts
Ġbur gl
Ġblur ted
Ġbl u
Ġbl aze
Ġb irth
Ġarr og
Ġant eater
Ġafford able
Ġaccom pan
ĠY ara
ĠW ags
ĠU FO
ĠTh in
ĠT ori
ĠT illie
ĠT ight
ĠSun set
ĠSt ove
ĠScare crow
ĠRu le
ĠRag s
ĠPri ya
ĠPick le
ĠPa o
ĠP ale
ĠN essa
ĠMe w
ĠMar got
ĠMa isey
ĠM it
ĠM iko
ĠM arl
ĠM am
ĠLe g
ĠLau rie
ĠJ ia
ĠHot el
ĠGoo ey
ĠFred o
ĠFold y
ĠFold er
ĠFin ish
ĠEric a
ĠDream y
ĠDrag o
ĠDra co
ĠDeb orah
ĠD rain
ĠD ipper
ĠCo ley
ĠChick ens
ĠCh atter
ĠC orey
ĠC ity
ĠBon ny
ĠBern ard
ĠB igg
ĠAll i
ĠA ya
âĢ¦ "
v eterinarian
urt ain
un can
uit ar
uis ance
u ate
t hed
t ear
st retch
shoot ing
ry ing
ri ka
r ony
ons ible
ol t
man ship
m ined
m akers
len e
l ab
j azz
it ney
ign ificant
if ier
h or
h awk
ever al
eter mined
ect ar
ecor ating
e ered
d ry
d isturb
cra ft
care ful
b ility
ator s
ar se
agu ar
ac ation
W hew
U ndeterred
T y
T am
T all
S af
R ush
R ara
Pray ing
Pr une
O VE
N emo
Lu isa
L ie
K irsty
Jog ging
J eep
J ada
H uh
G oo
G izmo
Fel icity
F arm
F an
E ddy
Don ny
D usty
D orothy
Curious ly
Che ster
C y
C ream
C ereal
Bar ber
B zzz
Aww w
Av ocado
Ahh hh
A gent
A D
. âĢľ
-- -
Ġwor ship
Ġwo ve
Ġwhoop ing
Ġwh ites
Ġwander s
Ġvict im
Ġus her
Ġunwra pping
Ġunear thed
Ġun le
Ġun co
Ġudd er
Ġtw ilight
Ġtopp le
Ġthaw ed
Ġth us
Ġt amed
Ġsu ds
Ġstir rer
Ġstation master
Ġspl ish
Ġsp ilt
Ġsl icing
Ġshower ing
Ġshe ar
Ġsh ushed
Ġsett ings
Ġscrap ing
Ġsco ff
Ġroot ed
Ġret reated
Ġrem a
Ġr uck
Ġpri or
Ġpo x
Ġplay set
Ġp ouncing
Ġp ap
Ġounce s
Ġoil s
Ġo vation
Ġn uisance
Ġmold ed
Ġmo hawk
Ġmo cking
Ġmass aging
Ġlight ers
Ġl anes
Ġkilogram s
Ġjam med
Ġj aguar
Ġins ignificant
Ġinqu ired
Ġhoney moon
Ġhandleb ar
Ġgra vel
Ġgot ta
Ġghost ly
Ġgener al
Ġge ode
Ġg aa
Ġfurious ly
Ġfo cuss
Ġfin ale
Ġf umbled
Ġel astic
Ġdull er
Ġdistance s
Ġding ed
Ġdetect or
Ġdelight fully
Ġdecre ased
Ġd une
Ġd ashing
Ġcra ving
Ġcom ic
Ġcolle ge
Ġcol ander
Ġbon us
Ġbegg ar
Ġbed ding
Ġartist ic
Ġadventures ome
ĠZee bo
ĠWhe ely
ĠTri x
ĠT rey
ĠStubb orn
ĠSte w
ĠSquir rely
ĠSp ending
ĠSk unk
ĠSer ving
ĠSe ason
ĠSal ma
ĠRap unzel
ĠR are
ĠPaul ie
ĠPan ic
ĠP ro
ĠP J
ĠO ften
ĠMar issa
ĠMagic ian
ĠM urray
ĠLau ndry
ĠL issie
ĠL ake
ĠL abel
ĠK ell
ĠK atherine
ĠJ ob
ĠH ana
ĠGrow ing
ĠGra ss
ĠG rrr
ĠE lderly
ĠDon key
ĠDel i
ĠChe er
ĠCh arming
ĠCell s
ĠCar ter
ĠC lementine
ĠC eline
ĠBo ing
ĠBl ock
ĠBit sy
ĠBike y
ĠBee Bee
ĠBab a
ĠB ini
ĠAtt ach
ĠAr f
ĠAh med
Ġ om
âĢ ĭ
um ing
ter ia
sp onsible
s ucceed
rem ember
reg ular
re house
ra ined
pow ered
or able
need ed
m us
m iah
ll ey
l oved
it able
ing e
ign ed
icke l
ian na
ha usted
h ar
f u
f ine
ere miah
eoff rey
elie ving
el i
del ay
d r
ctric ity
con f
che t
bl ack
av a
ac ious
ab oo
aa a
W orm
Ve getables
U gly
Tri xie
To ast
T igger
S ebastian
R ug
R rrrr
R ound
Pe ach
Past el
P ippy
P an
O ak
L umber
L illi
H and
Fam ous
Cube y
Cra bby
Call ie
C or
C aterpillar
Be ans
Balloon s
B us
B es
Arm chair
Ad venture
A riel
Ġwinter time
Ġwhirl wind
Ġwa rehouse
Ġvolunt eered
Ġve s
Ġun int
Ġun afraid
Ġtrou bling
Ġth yme
Ġt act
Ġsurvey ed
Ġsul king
Ġspoke s
Ġspec ific
Ġsor ter
Ġsnorke ls
Ġsniff le
Ġsk im
Ġsevere ly
Ġseem ing
Ġsam ples
Ġsa pp
Ġrub ies
Ġrescu ers
Ġrepres ented
Ġrel ied
Ġrack s
Ġproduc ing
Ġpal er
Ġoccasion al
Ġobser vation
Ġn ana
Ġmouth piece
Ġmound s
Ġmoan ing
Ġmis placed
Ġmer cury
Ġmarve lling
Ġlur ked
Ġlife style
Ġli vel
Ġl inger
Ġkey chain
Ġjellybe ans
Ġirre sponsible
Ġinv aded
Ġinterrupt ing
Ġint uition
Ġind ex
Ġilleg al
Ġhudd le
Ġhigh light
Ġhandsh ake
Ġhairsty les
Ġh ushed
Ġgymn astic
Ġgrunt ing
Ġgrump iest
Ġgrassland s
Ġgrape fruit
Ġgigg ly
Ġgen u
Ġgad get
Ġfur ball
Ġfrol ic
Ġfocuss ed
Ġflour ish
Ġele ct
Ġdire cted
Ġdet ach
Ġdepend ed
Ġdab bed
Ġd ime
Ġcrink led
Ġcr uise
Ġcr ater
Ġcontem pl
Ġcollap sing
Ġcol umn
Ġcl attered
Ġcircumstance s
Ġcab ins
Ġbutton ed
Ġbutter ed
Ġbu oy
Ġbree zes
Ġbound ing
Ġblind fold
Ġblanket ed
Ġbl inky
Ġbed spread
Ġbat hes
Ġaw fully
Ġaw ed
Ġapproving ly
Ġadvis or
Ġaccompan ied
Ġa ids
ĠY ork
ĠWin ston
ĠVe il
ĠV anny
ĠUse ful
ĠTwink ly
ĠTrunk y
ĠTid ying
ĠT utu
ĠT ray
ĠSw ift
ĠSpoon y
ĠSpl ashing
ĠSh irt
ĠSc ales
ĠS onya
ĠS iri
ĠS acha
ĠRag sy
ĠPu ppies
ĠPol ish
ĠPo ppa
ĠPlant o
ĠPed al
ĠP our
ĠP oof
ĠP onies
ĠP inny
ĠP ad
ĠOt is
ĠNo a
ĠNew s
ĠN igel
ĠN ame
ĠMusic ian
ĠMiss ion
ĠMe asuring
ĠMax well
ĠLuc inda
ĠLind say
ĠL ilo
ĠL etter
ĠL ate
ĠI rene
ĠI D
ĠHaircut s
ĠH ula
ĠH ose
ĠH appily
ĠH andy
ĠGr own
ĠG olly
ĠFu dge
ĠFl ops
ĠFire fighters
ĠFar ley
ĠF ull
ĠEag erly
ĠCh o
ĠCh ipper
ĠCh ant
ĠCal i
ĠC ircus
ĠBl ob
ĠB roken
ĠB ible
ĠAnt sy
ĠAnt ar
ĠAm azed
ĠAlex andra
ĠA dele
Ġ1 4
ĊĠ ĠĠ
zag ged
wh ite
we ight
ush ion
ur l
uc ting
t reat
sw ing
squ awk
sh akes
ro cket
rel and
re al
ra s
ra h
r ison
r ide
pp et
p y
p any
osp ital
op er
n ormal
mbre lla
k o
ish op
in ous
iction aries
g in
ft ime
ft ext
d ings
co at
ce ls
c opes
c ifier
b es
ap or
ant i
amp y
a fter
Z ach
Y arn
Win ning
Try ing
Surf ing
Scr uffy
S uit
S ort
S erve
S auce
RR RR
Ped ro
P ret
ON K
O xy
O b
No on
Mouse y
Mom s
Ma ia
Liz ard
Lila h
L ying
L ori
L en
K aya
J ing
I ris
Green y
Gor illa
Geor g
F all
En ormous
D rive
D ish
C ate
B iff
B atter
B ake
A K
? !",
5 5
Ġwild flower
Ġwhispe rer
Ġwed dings
Ġwat cher
Ġv ow
Ġunimp ressed
Ġund ressed
Ġunbelie vable
Ġun icycle
Ġugl ier
Ġtrund led
Ġtrick led
Ġteach ings
Ġte ster
Ġt aunted
Ġsw ear
Ġstroll s
Ġsorrow s
Ġsmart ly
Ġsm ears
Ġsl ots
Ġscoff ed
Ġscept ical
Ġsc oured
Ġrust les
Ġrepres ent
Ġrepeated ly
Ġrema inder
Ġrelia bility
Ġque ue
Ġpr on
Ġpl a
Ġpill ars
Ġphra ses
Ġpharma cy
Ġpeople s
Ġpay ed
Ġpar cels
Ġpain s
Ġpa cifier
Ġover looking
Ġover grown
Ġobser ver
Ġnot ed
Ġnon etheless
Ġneg lect
Ġn our
Ġmu cky
Ġmould ed
Ġmotiv ation
Ġmim ic
Ġmill s
Ġmilk shakes
Ġment al
Ġmement o
Ġmeek ly
Ġmaster ing
Ġm ile
Ġlas ag
Ġkeeps ake
Ġjut ting
Ġhuff ing
Ġho g
Ġhill side
Ġhe aved
Ġhal ftime
Ġha ul
Ġg utter
Ġfrol icking
Ġfore ign
Ġfo al
Ġfil ming
Ġf rail
Ġdiv or
Ġdisc arded
Ġdisappoin ting
Ġdef iant
Ġdecl ined
Ġd ictionaries
Ġcr ates
Ġconst ant
Ġconnect ions
Ġcompan ions
Ġco des
Ġch ubb
Ġcaw s
Ġcack ling
Ġc owering
Ġburrow s
Ġbun ches
Ġbra ided
Ġbr ay
Ġboo ked
Ġbeck oning
Ġback fire
Ġbac teria
Ġb asis
Ġaud ition
Ġarm ful
Ġapp rehen
Ġam ends
Ġaccom pany
ĠY uki
ĠWra pping
ĠUs ually
ĠTurn ing
ĠTra ins
ĠT angerine
ĠStri ker
ĠStick s
ĠStay ing
ĠSt udy
ĠSt orms
ĠShe p
ĠSh orty
ĠSh h
ĠSc arf
ĠS ong
ĠRh onda
ĠR og
ĠR ats
ĠPeace ful
ĠPau ly
ĠP apers
ĠP ap
ĠOld ie
ĠNat alia
ĠMunch y
ĠMay or
ĠM ala
ĠM aker
ĠLove ly
ĠLollipop s
ĠLight s
ĠLe gs
ĠLaug h
ĠL ost
ĠL orn
ĠHoop y
ĠHar bor
ĠH ummy
ĠGrand child
ĠGen e
ĠG len
ĠG ator
ĠG ather
ĠFur ball
ĠFor giveness
ĠE sme
ĠE ither
ĠD ippy
ĠD J
ĠCher ries
ĠCh ika
ĠCee Cee
ĠCe iling
ĠCar o
ĠC udd
ĠC ourage
ĠC edric
ĠC aterpillars
ĠBes ide
ĠB IG
ĠA strid
ĠA ggie
âĢĿ !
yes ha
wh al
w arn
ul i
u ra
u able
t ruck
sque ak
se ye
rec ogn
qu iet
our t
om y
olog ist
og ue
jack et
ing ale
il ocks
h urt
em pty
ell ers
ee ase
e le
d rip
d ressed
d ot
check mate
c hel
b ot
b one
b ar
arm en
are well
ar ant
af a
ac o
W ish
Vo lcano
Up stairs
U mm
Tomato es
Spl it
So ccer
S et
Re indeer
Ra j
R ico
Pir ates
Paul ina
P urr
P ie
On ion
O ct
O at
Mart a
M isty
M ist
M iki
M arla
L ift
Kn ives
J ordan
J etty
In fant
G rass
G host
G avin
Fe el
E D
De bby
D ough
Craw l
C atie
Br ooke
Br ady
Bar b
B ry
App laud
Am aya
Ac cept
! ,
Ġz ippy
Ġyet i
Ġwin es
Ġwag gled
Ġwa il
Ġw ren
Ġunf urled
Ġunderest imated
Ġtutor ing
Ġtrick le
Ġtreet op
Ġtr ove
Ġthunder ed
Ġst ages
Ġsp ooked
Ġsome what
Ġsl umber
Ġsl opes
Ġsl ing
Ġsk ater
Ġshimm ied
Ġshh h
Ġsele ct
Ġrum or
Ġrout es
Ġrich ness
Ġri fle
Ġrep orters
Ġreckless ly
Ġpup s
Ġprompt ly
Ġpollin ate
Ġpleasure s
Ġpleading ly
Ġpl atter
Ġpic n
Ġp ouches
Ġp ails
Ġoffice s
Ġnur sed
Ġnight ingale
Ġmu dd
Ġmesmer izing
Ġloc ate
Ġlily pad
Ġlibr aries
Ġleisure ly
Ġkne aded
Ġkidn ap
Ġjigg ling
Ġhost s
Ġhoney bee
Ġhand bag
Ġha ired
Ġgymnastic s
Ġgust o
Ġfre qu
Ġfizz ed
Ġfisher s
Ġf urn
Ġf ir
Ġele ments
Ġefficient ly
Ġdwar f
Ġdo zen
Ġdan gled
Ġcrad ling
Ġcoward ly
Ġcommunic ation
Ġcolle ag
Ġco s
Ġclothesp in
Ġchem ical
Ġchap ter
Ġcat al
Ġc ider
Ġbrown ie
Ġbrid es
Ġbloss oming
Ġblob s
Ġble ats
Ġblast ing
Ġblank ie
Ġbl ower
Ġbeat ers
Ġbackf ired
Ġb unk
Ġarm ad
Ġalert ly
ĠWolf ie
ĠVolcano es
ĠViv ian
ĠTra vel
ĠTh om
ĠSpe ak
ĠSp ort
ĠShe lter
ĠShe et
ĠSel ina
ĠScoot y
ĠSc arlet
ĠRude y
ĠRemember ing
ĠRaven s
ĠPl astic
ĠP ers
ĠOt ters
ĠOff ice
ĠO rn
ĠN in
ĠMar v
ĠM ikayla
ĠM ead
ĠL oggy
ĠK ola
ĠJ erome
ĠInd ependent
ĠImp atient
ĠI gl
ĠHop ing
ĠHelp ful
ĠHel mets
ĠHel ena
ĠHe e
ĠH ubert
ĠGold en
ĠGlove y
ĠFle xy
ĠFil m
ĠF reed
ĠEl vis
ĠEd na
ĠDes perate
ĠD ahlia
ĠClar abelle
ĠCec ilia
ĠBen son
ĠBee bo
ĠB ully
ĠB reeze
ĠB ippy
ĠB atty
ĠAm ina
ĠA aliyah
Ġ irr
Ġ *
z an
z a
wo nder
wild ered
w rap
ump ty
t or
sh ot
ri pe
ra ise
p apa
or ra
ol and
mom my
mer ged
m ama
lim its
l our
if ty
hor ses
ho pped
grow ing
e ady
d ink
ct ica
com pass
ce mber
c ine
bur st
bo ding
b re
b oop
au de
asc inated
artoon s
are th
ack ing
ac uate
a ia
Wood y
Under ground
Un pack
Un iverse
Tr ucky
Tr ouble
St one
Squirrel s
Ru de
R onnie
R ec
P atient
P art
O ctopus
O NG
N ikki
Mar gie
Lou is
Le on
L in
L ili
L ay
K ippy
I ron
H ush
H m
H en
H al
G E
Fr isky
Fore ver
Fl our
F i
E scape
E XIT
Di amond
D ull
D enny
D en
C uriosity
Bu d
Bl ub
B ald
Aw esome
Ab out
' '.
Ġwood ed
Ġwinter s
Ġwind shield
Ġwell ing
Ġweed ing
Ġwaterfall s
Ġwal nut
Ġunt angling
Ġunt angles
Ġunst eady
Ġunle ashed
Ġun used
Ġty re
Ġty rannosaurus
Ġtre m
Ġtranqu il
Ġtour ist
Ġto n
Ġtemp or
Ġteen y
Ġt ile
Ġswir ly
Ġswing er
Ġspr inting
Ġspec t
Ġsp utter
Ġsp rain
Ġsorrow ful
Ġsl ay
Ġsincere ly
Ġshop keepers
Ġsharp ly
Ġsh ar
Ġsea horses
Ġse rene
Ġsc aled
Ġsalut ed
Ġrum ors
Ġring er
Ġref resh
Ġrec ital
Ġrearr anged
Ġre ap
Ġr umbles
Ġqu ilts
Ġprescri bed
Ġpoo ch
Ġplummet ed
Ġpet rified
Ġperform s
Ġpar lour
Ġout s
Ġoper ate
Ġnecess arily
Ġnar whal
Ġmatch sticks
Ġmasterpiece s
Ġmail bag
Ġlecture r
Ġlabor atory
Ġjudg ment
Ġinject ion
Ġguardian s
Ġgu ppy
Ġgri pping
Ġgr umbly
Ġgo bbling
Ġgl ade
Ġfr ow
Ġforever more
Ġfollow er
Ġfl itted
Ġfireplace s
Ġfil ty
Ġfat test
Ġeng ra
Ġdon ations
Ġdis k
Ġdigg ers
Ġdeb t
Ġd re
Ġcrink ly
Ġcrack les
Ġcon co
Ġcompliment ing
Ġcollect ors
Ġcl ing
Ġchamp ions
Ġch imed
Ġch ats
Ġcatal og
Ġcast s
Ġcare er
Ġblow hole
Ġath lete
Ġappreci ates
Ġacc ount
ĠYield ing
ĠWe ight
ĠW obble
ĠW arn
ĠW anted
ĠT ex
ĠSton es
ĠSqu iggles
ĠSof ie
ĠSe rena
ĠS ierra
ĠRu bbing
ĠRock ing
ĠRo ots
ĠRen ee
ĠReal izing
ĠPr an
ĠP res
ĠOr anges
ĠMo ly
ĠMin ts
ĠMack enzie
ĠM iffy
ĠM ak
ĠLu igi
ĠL ing
ĠJill ian
ĠJ r
ĠIm ag
ĠHe ctor
ĠGu ilty
ĠGret ta
ĠGo ats
ĠGet ting
ĠFrog gie
ĠFix ing
ĠFeed ing
ĠF ound
ĠEx pensive
ĠEmbarrass ed
ĠEl oise
ĠE ye
ĠE la
ĠDr ake
ĠDel icate
ĠD ri
ĠD ic
ĠD asher
ĠD aphne
ĠCro aky
ĠCow ie
ĠCl ang
ĠChr issy
ĠCho co
ĠChe t
ĠCh ief
ĠCat rina
ĠCam illa
ĠAs ha
ĠAntar ctica
ĠAn swer
Ġ3 8
Ġ \"
Ã ³
y y
vern ment
v ictory
uz u
ur ora
uff s
udd er
ter ing
st ring
st e
sm all
sk ip
rem ove
ra it
qu el
pp ity
port ant
plain ing
pl ugs
parent s
p ray
p oint
p inch
p icking
ow ered
orra ine
o sh
number ed
not iced
my stery
me g
m uffs
let te
lead er
l ery
ith a
it ated
ily n
ho oray
h ol
f essor
enn eth
end ra
ecor ate
e es
d oo
d ive
d ered
d ate
ck o
bu ry
b urn
aw w
ass ion
ab itha
ab in
Y AY
Van illa
U T
T urkey
Sp rinkles
So ld
Rad ishes
R iver
R ae
R I
Pol ishing
Pl anes
P rice
P repare
P ixie
P ing
Ostri ch
OO OO
Moo Moo
Mar vin
Mar io
M ule
M assage
Lou isa
Le wis
Lady bug
Jul ian
H umble
H ocus
Gu ard
Grand child
Good ness
Go sh
F ay
Elli ot
E van
Dani elle
Ch ippy
B ones
Al as
A aah
A M
A CHOO
3 4
Ġwren ches
Ġwo ven
Ġwhite board
Ġwh oo
Ġwh in
Ġwell being
Ġwater proof
Ġw ispy
Ġves sel
Ġv amp
Ġunz ips
Ġunh ook
Ġunc urled
Ġtwitch y
Ġtw inge
Ġtu ft
Ġtrave llers
Ġtrad ers
Ġtr op
Ġtogether ness
Ġtink er
Ġtil ting
Ġtight ens
Ġtherap y
Ġtell er
Ġtechn ology
Ġtax es
Ġtalk er
Ġtag ging
Ġsympathet ically
Ġstead ied
Ġsqu ab
Ġsp rained
Ġsp ite
Ġsp anked
Ġsp acious
Ġsnow bank
Ġsn agged
Ġsmooth s
Ġsky sc
Ġshuff le
Ġshore s
Ġshield ing
Ġsens ing
Ġsav our
Ġsa ge
Ġref er
Ġrail ings
Ġpurchase s
Ġprogress ed
Ġpollut ion
Ġpitch ing
Ġpe g
Ġpast ed
Ġout numbered
Ġout burst
Ġout age
Ġorgan izes
Ġoper ating
Ġnois iest
Ġmon arch
Ġm utt
Ġloop y
Ġlo aves
Ġlipstick s
Ġlandmark s
Ġk arate
Ġin ev
Ġhum s
Ġhose pipe
Ġhorsesh oe
Ġhawk s
Ġhars hness
Ġharm ing
Ġhair pin
Ġgu arant
Ġgrandk id
Ġgem stones
Ġg ushing
Ġfreez ers
Ġferoc iously
Ġf ateful
Ġexpect ations
Ġenvel oped
Ġendless ly
Ġendanger ed
Ġear plugs
Ġear muffs
Ġdistract ions
Ġdiscover s
Ġdisc ourage
Ġdial ogue
Ġcr owed
Ġcontest s
Ġconsc ious
Ġcons umed
Ġclo vers
Ġchatter s
Ġcandle light
Ġca ved
Ġbund les
Ġbull ied
Ġbron to
Ġbe er
Ġbe acon
Ġart ic
Ġanticip ated
ĠWr iggly
ĠWe re
ĠV icki
ĠThrough out
ĠTh ird
ĠTar zan
ĠTan ia
ĠT ic
ĠT ibby
ĠT elly
ĠSuper hero
ĠSpot s
ĠSm iles
ĠSeed s
ĠRock ets
ĠRick ie
ĠRef rigerator
ĠR ana
ĠR aggie
ĠPr oud
ĠPo co
ĠPet a
ĠP ocket
ĠP iggie
ĠO ven
ĠLu x
ĠLe opards
ĠL ip
ĠJun ie
ĠJul i
ĠJ one
ĠInsect s
ĠHouse s
ĠHedge hog
ĠH illy
ĠGr umble
ĠFrank y
ĠFrank lin
ĠFranc ine
ĠFork s
ĠFl ag
ĠFire men
ĠF ri
ĠF ab
ĠEle ctricity
ĠE lf
ĠE ileen
ĠDream ing
ĠDo e
ĠDis gusting
ĠDe cember
ĠD am
ĠD ING
ĠCup board
ĠCo ins
ĠClown s
ĠCh oppy
ĠCh op
ĠC reative
ĠBr ay
ĠBe ware
ĠBe ck
ĠBe au
ĠBatter y
ĠB unn
ĠB ly
ĠAs lan
ĠAnton io
ĠAm ir
ĠAfric an
ĠA k
Ġ3 5
z ee
x anne
von ne
ven e
ve ster
ture s
tr ust
ssssssssssssssssssssssssssssssssssssssssssssssssssssssssssssssss ssssssssssssssssssssssssssssssssssssssssssssssssssssssssssssssss
s chool
s and
s al
ry n
rod uce
rel ax
ra ught
pe st
owl ing
or ange
olin es
n ose
m ith
l ucky
kn e
ill ing
il oh
ig old
ig a
iff el
hh h
har sh
h ang
g or
f irst
er ia
er ang
ep arate
en ne
em my
e ww
e quipment
d sy
cite ment
c ause
bu ilding
br other
ater ina
ar ison
alend ar
ach ael
a es
Y ell
Whe at
W agon
W AY
Tr ina
T rick
T ob
St udy
St ore
Spark les
Sil ence
Sh iny
R uffy
Pr iscilla
Po ems
Peanut s
P rotect
Ooo oh
Oct o
My sterious
Mosquito es
Mo dern
L ottie
Ke ith
Kat rina
K ris
K id
Just ine
H as
F irework
F antastic
El ena
Cr usty
Comp assionate
Cl ub
Ch omp
Br idget
Bon jour
Bert ie
B art
Am ie
Am elie
Al ert
" '
Ġyog i
Ġy ummies
Ġwoof ed
Ġwonder ment
Ġwings pan
Ġwhin nies
Ġwhere as
Ġwh iz
Ġweight less
Ġwebs ite
Ġwatermel ons
Ġvolunt eers
Ġvo ila
Ġvenom ous
Ġv ul
Ġv ote
Ġunh appily
Ġtut ors
Ġtun ed
Ġtug boat
Ġtri al
Ġtrespass ers
Ġtre ad
Ġtrans fixed
Ġtranqu ility
Ġtramp olines
Ġtor t
Ġthankful ness
Ġtempor ary
Ġtalk ative
Ġt ins
Ġsund own
Ġsuck s
Ġsucceed s
Ġsub merged
Ġsn ot
Ġsketch book
Ġshar pest
Ġscur vy
Ġrun away
Ġrooft ops
Ġroad side
Ġresc ues
Ġrepl ant
Ġrep ut
Ġrent ed
Ġrel ated
Ġrecy cled
Ġre x
Ġre ar
Ġrare r
Ġr udder
Ġprinter s
Ġpract ical
Ġport rait
Ġplo dded
Ġpin wheel
Ġpersu ading
Ġpeak s
Ġover board
Ġouch ies
Ġoff ended
Ġnin ja
Ġneighbor ing
Ġmon um
Ġmon itor
Ġmisunder standing
Ġmad ly
Ġm uttering
Ġm ul
Ġm ounted
Ġjoll ier
Ġinter vene
Ġink s
Ġimagin able
Ġillustr ations
Ġhorn ets
Ġhoneycom bs
Ġho ots
Ġhat ches
Ġgo vernment
Ġgenu ine
Ġg oofy
Ġfurn ace
Ġfu ry
Ġfore boding
Ġfinger prints
Ġeyeb row
Ġequ ation
Ġenv ied
Ġengra ved
Ġen ab
Ġearn ing
Ġdull ness
Ġdre ary
Ġdid nt
Ġdep th
Ġdep arted
Ġdele ted
Ġd ood
Ġcur ator
Ġcro aky
Ġcountert op
Ġcontribut ion
Ġcontain ing
Ġcomplet es
Ġcomp arison
Ġcomf iest
Ġcoax ing
Ġcitiz en
Ġcharm s
Ġcha otic
Ġbuck ling
Ġbra ced
Ġboss ier
Ġboom erang
Ġboo ger
Ġbattle field
Ġbas in
Ġb ind
Ġauthor ity
Ġattract ions
Ġattempt ing
Ġarrog ant
Ġarmad illo
Ġappro ve
Ġad ject
Ġac cu
ĠYellow y
ĠWonder s
ĠVal entine
ĠTrust ing
ĠTri p
ĠTr ophy
ĠTh ick
ĠTe ase
ĠTax y
ĠSpl it
ĠSp end
ĠSh rug
ĠSe wing
ĠSc otty
ĠSc atter
ĠS ongs
ĠS imi
ĠRow an
ĠRog ers
ĠRest ore
ĠRe veal
ĠPr im
ĠPolice man
ĠPol ar
ĠPo king
ĠPe cky
ĠP rick
ĠP ets
ĠOl iva
ĠO zzy
ĠNO T
ĠN or
ĠMin i
ĠMart ina
ĠM ee
ĠM arlene
ĠLe ster
ĠL olli
ĠL ad
ĠKn ock
ĠKen zie
ĠJoh anna
ĠJo key
ĠJan ine
ĠI rony
ĠI reland
ĠHum ans
ĠHar ley
ĠH awk
ĠGreg ory
ĠG unny
ĠFran nie
ĠFr ida
ĠF ight
ĠEnc ourage
ĠEl ina
ĠEar ly
ĠE vent
ĠE iffel
ĠDive y
ĠDan cy
ĠD u
ĠD ig
ĠCr own
ĠCh rystal
ĠCand ice
ĠC ubby
ĠC ourt
ĠC oming
ĠC AW
[...]
