{"\u0100": 0, "\u0101": 1, "\u0102": 2, "\u0103": 3, "\u0104": 4, "\u0105": 5, "\u0106": 6, "\u0107": 7, "\u0108": 8, "\u0109": 9, "\u010a": 10, "\u010b": 11, "\u010c": 12, "\u010d": 13, "\u010e": 14, "\u010f": 15, "\u0110": 16, "\u0111": 17, "\u0112": 18, "\u0113": 19, "\u0114": 20, "\u0115": 21, "\u0116": 22, "\u0117": 23, "\u0118": 24, "\u0119": 25, "\u011a": 26, "\u011b": 27, "\u011c": 28, "\u011d": 29, "\u011e": 30, "\u011f": 31, "\u0120": 32, "!": 33, "\"": 34, "#": 35, "$": 36, "%": 37, "&": 38, "'": 39, "(": 40, ")": 41, "*": 42, "+": 43, ",": 44, "-": 45, ".": 46, "/": 47, "0": 48, "1": 49, "2": 50, "3": 51, "4": 52, "5": 53, "6": 54, "7": 55, "8": 56, "9": 57, ":": 58, ";": 59, "<": 60, "=": 61, ">": 62, "?": 63, "@": 64, "A": 65, "B": 66, "C": 67, "D": 68, "E": 69, "F": 70, "G": 71, "H": 72, "I": 73, "J": 74, "K": 75, "L": 76, "M": 77, "N": 78, "O": 79, "P": 80, "Q": 81, "R": 82, "S": 83, "T": 84, "U": 85, "V": 86, "W": 87, "X": 88, "Y": 89, "Z": 90, "[": 91, "\\": 92, "]": 93, "^": 94, "_": 95, "`": 96, "a": 97, "b": 98, "c": 99, "d": 100, "e": 101, "f": 102, "g": 103, "h": 104, "i": 105, "j": 106, "k": 107, "l": 108, "m": 109, "n": 110, "o": 111, "p": 112, "q": 113, "r": 114, "s": 115, "t": 116, "u": 117, "v": 118, "w": 119, "x": 120, "y": 121, "z": 122, "{": 123, "|": 124, "}": 125, "~": 126, "\u0121": 127, "\u0122": 128, "\u0123": 129, "\u0124": 130, "\u0125": 131, "\u0126": 132, "\u0127": 133, "\u0128": 134, "\u0129": 135, "\u012a": 136, "\u012b": 137, "\u012c": 138, "\u012d": 139, "\u012e": 140, "\u012f": 141, "\u0130": 142, "\u0131": 143, "\u0132": 144, "\u0133": 145, "\u0134": 146, "\u0135": 147, "\u0136": 148, "\u0137": 149, "\u0138": 150, "\u0139": 151, "\u013a": 152, "\u013b": 153, "\u013c": 154, "\u013d": 155, "\u013e": 156, "\u013f": 157, "\u0140": 158, "\u0141": 159, "\u0142": 160, "\u00a1": 161, "\u00a2": 162, "\u00a3": 163, "\u00a4": 164, "\u00a5": 165, "\u00a6": 166, "\u00a7": 167, "\u00a8": 168, "\u00a9": 169, "\u00aa": 170, "\u00ab": 171, "\u00ac": 172, "\u0143": 173, "\u00ae": 174, "\u00af": 175, "\u00b0": 176, "\u00b1": 177, "\u00b2": 178, "\u00b3": 179, "\u00b4": 180, "\u00b5": 181, "\u00b6": 182, "\u00b7": 183, "\u00b8": 184, "\u00b9": 185, "\u00ba": 186, "\u00bb": 187, "\u00bc": 188, "\u00bd": 189, "\u00be": 190, "\u00bf": 191, "\u00c0": 192, "\u00c1": 193, "\u00c2": 194, "\u00c3": 195, "\u00c4": 196, "\u00c5": 197, "\u00c6": 198, "\u00c7": 199, "\u00c8": 200, "\u00c9": 201, "\u00ca": 202, "\u00cb": 203, "\u00cc": 204, "\u00cd": 205, "\u00ce": 206, "\u00cf": 207, "\u00d0": 208, "\u00d1": 209, "\u00d2": 210, "\u00d3": 211, "\u00d4": 212, "\u00d5": 213, "\u00d6": 214, "\u00d7": 215, "\u00d8": 216, "\u00d9": 217, "\u00da": 218, "\u00db": 219, "\u00dc": 220, "\u00dd": 221, "\u00de": 222, "\u00df": 223, "\u00e0": 224, "\u00e1": 225, "\u00e2": 226, "\u00e3": 227, "\u00e4": 228, "\u00e5": 229, "\u00e6": 230, "\u00e7": 231, "\u00e8": 232, "\u00e9": 233, "\u00ea": 234, "\u00eb": 235, "\u00ec": 236, "\u00ed": 237, "\u00ee": 238, "\u00ef": 239, "\u00f0": 240, "\u00f1": 241, "\u00f2": 242, "\u00f3": 243, "\u00f4": 244, "\u00f5": 245, "\u00f6": 246, "\u00f7": 247, "\u00f8": 248, "\u00f9": 249, "\u00fa": 250, "\u00fb": 251, "\u00fc": 252, "\u00fd": 253, "\u00fe": 254, "\u00ff": 255, "<|endoftext|>": 256, "\u0120t": 257, "he": 258, "\u0120a": 259, "\u0120s": 260, "\u0120w": 261, "nd": 262, "\u0120the": 263, "ed": 264, "\u0120b": 265, "\u0120to": 266, "\u0120and": 267, "\u0120h": 268, "\u0120f": 269, "in": 270, "\u0120T": 271, "\u0120wa": 272, "re": 273, "it": 274, "ou": 275, "\u0120l": 276, "\u0120d": 277, "\u0120c": 278, "\u0120p": 279, "ay": 280, "\u0120m": 281, "er": 282, "\u0120was": 283, "om": 284, "\u0120The": 285, "\u0120he": 286, "is": 287, "ar": 288, "\u0120n": 289, "im": 290, "on": 291, "\u0120sa": 292, "id": 293, "ll": 294, "\u0120ha": 295, "\u0120g": 296, "at": 297, "\u0120S": 298, "ing": 299, "ot": 300, "en": 301, "an": 302, "le": 303, "or": 304, "ir": 305, "am": 306, "et": 307, "\u0120H": 308, "\u0120it": 309, "\u0120th": 310, "ig": 311, "\u0120They": 312, "\u0120in": 313, "il": 314, "\u0120pl": 315, "\u0120He": 316, "\u0120\"": 317, "ow": 318, "ver": 319, "ri": 320, "ut": 321, "\u0120be": 322, "\u0120u": 323, "\u0120said": 324, "\u0120play": 325, "ith": 326, "\u0120day": 327, "\u0120with": 328, "pp": 329, "On": 330, "\u0120o": 331, "\u0120y": 332, "oo": 333, "ked": 334, "\u0120r": 335, "\u0120her": 336, "ce": 337, "\u0120I": 338, "\u0120She": 339, "ld": 340, "\u0120Tim": 341, "\u0120his": 342, "\u0120st": 343, "ke": 344, "\u0120e": 345, "\u0120big": 346, "nt": 347, "ck": 348, "\u0120you": 349, "very": 350, "st": 351, "ve": 352, "end": 353, "\u0120on": 354, "un": 355, "\u0120happ": 356, "riend": 357, "\u0120friend": 358, "all": 359, "ily": 360, "\u0120L": 361, "\u0120they": 362, "\u0120we": 363, "\u0120had": 364, "\u0120not": 365, "\u0120li": 366, "\u0120up": 367, "her": 368, "\u0120want": 369, "\u0120of": 370, "ad": 371, "itt": 372, "se": 373, "\u0120B": 374, "\u0120do": 375, "\u0120happy": 376, "ent": 377, "\u0120very": 378, "\u0120M": 379, "es": 380, "\u0120that": 381, "\u0120saw": 382, "One": 383, "'s": 384, "ould": 385, "\u0120mom": 386, "\u0120for": 387, "\u0120sh": 388, "ittle": 389, "\u0120little": 390, "\u0120so": 391, "\u0120she": 392, "ch": 393, "ime": 394, "\u0120ne": 395, "\u0120nam": 396, ".\"": 397, "\u0120time": 398, "\u0120k": 399, "ound": 400, "\u0120there": 401, "\u0120named": 402, "\u0120sm": 403, "\u0120bo": 404, "\u0120were": 405, "\u0120Lily": 406, "\u0120wanted": 407, "\u0120but": 408, "out": 409, "The": 410, "\u0120friends": 411, "ved": 412, "!\"": 413, "ht": 414, "\u0120Tom": 415, "ird": 416, "el": 417, "\u0120bird": 418, "al": 419, "\u0120an": 420, "ake": 421, "\u0120too": 422, "ome": 423, "\u0120It": 424, "ug": 425, "ide": 426, "\u0120went": 427, "\u0120wh": 428, "\u0120hel": 429, "Once": 430, "\u0120is": 431, "\u0120all": 432, "\u0120help": 433, "ue": 434, "\u0120loo": 435, "\u0120lo": 436, "ter": 437, "\u0120A": 438, "\u0120upon": 439, "ry": 440, "ore": 441, "ind": 442, "\u0120fun": 443, "get": 444, "\u0120toy": 445, "ill": 446, "ame": 447, "\u0120as": 448, "\u0120at": 449, "ra": 450, "\u0120j": 451, "\u0120did": 452, "gether": 453, "\u0120re": 454, "ur": 455, "\u0120se": 456, "\u0120together": 457, "ack": 458, "\u0120cat": 459, "ly": 460, "\u0120tre": 461, "ood": 462, "ic": 463, "ted": 464, "\u0120dog": 465, "\u0120could": 466, "\u0120can": 467, "\u0120their": 468, "ard": 469, "ec": 470, "ark": 471, "\u0120gir": 472, "\u0120played": 473, "\u0120him": 474, "\u0120ball": 475, "?\"": 476, "\u0120girl": 477, "way": 478, "\u0120ro": 479, "\u0120go": 480, "hed": 481, "my": 482, "\u0120are": 483, "\u0120out": 484, "\u0120le": 485, "\u0120fr": 486, "ain": 487, "\u0120kn": 488, "hen": 489, "\u0120them": 490, "um": 491, "'t": 492, "ax": 493, "\u0120sad": 494, "ul": 495, "\u0120boy": 496, "\u0120tree": 497, "other": 498, "\u0120have": 499, "\u0120man": 500, "\u0120cl": 501, "\u0120loved": 502, "\u0120looked": 503, "oug": 504, "\u0120found": 505, "\u0120sp": 506, "\u0120star": 507, "\u0120Sue": 508, "one": 509, "hing": 510, "\u0120sc": 511, "\u0120back": 512, "own": 513, "\u0120Max": 514, "are": 515, "\u0120like": 516, "ful": 517, "side": 518, "\u0120me": 519, "\u0120bec": 520, "\u0120park": 521, "ight": 522, "ong": 523, "\u0120car": 524, "op": 525, "elt": 526, "\u0120One": 527, "\u0120liked": 528, "\u0120would": 529, "\u0120make": 530, "round": 531, "\u0120la": 532, "\u0120fa": 533, "\u0120felt": 534, "You": 535, "\u0120W": 536, "ell": 537, "\u0120see": 538, "\u0120But": 539, "omet": 540, "\u0120asked": 541, "ag": 542, "\u0120new": 543, "\u0120no": 544, "ice": 545, "\u0120Sam": 546, "ouse": 547, "\u0120started": 548, "ared": 549, "\u0120came": 550, "\u0120Ben": 551, "\u0120al": 552, "\u0120other": 553, "ought": 554, "iled": 555, "\u0120somet": 556, "\u0120ag": 557, "\u0120good": 558, "\u0120small": 559, "ss": 560, "\u0120br": 561, "\u0120smiled": 562, "\u0120say": 563, "ried": 564, "ade": 565, "ings": 566, "ob": 567, "pot": 568, "\u0120wor": 569, "\u0120find": 570, "\u0120ex": 571, "ia": 572, "\u0120away": 573, "ty": 574, "\u0120put": 575, "\u0120what": 576, "\u0120something": 577, "\u0120co": 578, "\u0120from": 579, "\u0120made": 580, "\u0120thought": 581, "ened": 582, "\u0120home": 583, "\u0120playing": 584, "ook": 585, "\u0120every": 586, "\u0120wal": 587, "\u0120mu": 588, "uc": 589, "ach": 590, "arn": 591, "\u0120Spot": 592, "\u0120ran": 593, "ile": 594, "\u0120F": 595, "ie": 596, "\u0120J": 597, "ave": 598, "\u0120again": 599, "\u0120some": 600, "\u0120laug": 601, "dd": 602, "\u0120house": 603, "\u0120down": 604, "\u0120fl": 605, "king": 606, "\u0120took": 607, "\u0120scared": 608, "\u0120pr": 609, "ny": 610, "ure": 611, "\u0120toys": 612, "\u0120learn": 613, "\u0120You": 614, "if": 615, "\u0120will": 616, "\u0120box": 617, "ick": 618, "ret": 619, "ab": 620, "ep": 621, "\u0120my": 622, "\u0120around": 623, "\u0120things": 624, "\u0120your": 625, "oud": 626, "\u0120bl": 627, "uck": 628, "\u0120when": 629, "ish": 630, "\u0120lived": 631, "\u0120fe": 632, "\u0120then": 633, "\u0120sun": 634, "as": 635, "\u0120sw": 636, ",\"": 637, "\u0120ch": 638, "us": 639, "pped": 640, "\u0120ab": 641, "\u0120Mia": 642, "ank": 643, "\u0120get": 644, "ucy": 645, "Tim": 646, "ump": 647, "Th": 648, "\u0120lot": 649, "ist": 650, "oth": 651, "\u0120tried": 652, "ap": 653, "\u0120know": 654, "\u0120says": 655, "\u0120got": 656, "ited": 657, "\u0120who": 658, "\u0120kne": 659, "ust": 660, "\u0120many": 661, "nder": 662, "\u0120int": 663, "\u0120about": 664, "Lily": 665, "\u0120pret": 666, "\u0120dec": 667, "\u0120any": 668, "\u0120red": 669, "\u0120D": 670, "ive": 671, "\u0120knew": 672, "ace": 673, "ous": 674, "\u0120more": 675, "ise": 676, "\u0120care": 677, "ally": 678, "\u0120pic": 679, "au": 680, "qu": 681, "\u0120hug": 682, "\u0120Lucy": 683, "\u0120learned": 684, "\u0120po": 685, "\u0120water": 686, "fter": 687, "\u0120v": 688, "\u0120became": 689, "\u0120best": 690, "ause": 691, "\u0120op": 692, "\u0120gre": 693, "\u0120exc": 694, "urp": 695, "ways": 696, "\u00e2\u0122": 697, "\u0120outside": 698, "\u0120laughed": 699, "\u0120look": 700, "\u0120always": 701, "\u0120decid": 702, "\u0120show": 703, "\u0120un": 704, "ant": 705, "\u0120Bob": 706, "\u0120room": 707, "fe": 708, "\u0120decided": 709, "\u0120ho": 710, "\u0120because": 711, "\u0120So": 712, "\u0120into": 713, "\u0120eat": 714, "ite": 715, "\u0120jump": 716, "\u0120And": 717, "\u0120pe": 718, "\u0120both": 719, "ers": 720, "\u0120Mom": 721, "\u0120dad": 722, "They": 723, "udd": 724, "\u0120ke": 725, "\u0120one": 726, "nn": 727, "\u0120this": 728, "\u0120excited": 729, "\u0120fast": 730, "\u0120nice": 731, "\u0120E": 732, "\u0120feel": 733, "Tom": 734, "Yes": 735, "\u0120run": 736, "\u0120long": 737, "\u0120told": 738, "\u0120sk": 739, "\u0120am": 740, "urpr": 741, "our": 742, "\u0120inside": 743, "ull": 744, "\u0120tr": 745, "\u0120surpr": 746, "\u0120mo": 747, "ink": 748, "\u0120pretty": 749, "iny": 750, "\u0120sor": 751, "Wh": 752, "\u0120take": 753, "og": 754, "\u0120sl": 755, "\u0120each": 756, "\u0120gave": 757, "\u0120much": 758, "\u0120gra": 759, "lew": 760, "nna": 761, "\u0120rock": 762, "\u0120how": 763, "\u0120str": 764, "ara": 765, "imal": 766, "\u0120animal": 767, "ged": 768, "\u0120need": 769, "\u0120than": 770, "But": 771, "ven": 772, "etter": 773, "\u0120tow": 774, "\u0120or": 775, "\u0120C": 776, "\u0120under": 777, "ess": 778, "\u0120old": 779, "\u0120sorry": 780, "ge": 781, "ised": 782, "ro": 783, "urt": 784, "\u0120cle": 785, "\u0120fish": 786, "\u0120walked": 787, "\u0120clo": 788, "and": 789, "\u0120bear": 790, "ft": 791, "ase": 792, "ast": 793, "\u0120hand": 794, "urn": 795, "\u0120We": 796, "\u0120kind": 797, "\u0120His": 798, "\u0120te": 799, "here": 800, "\u0120happened": 801, "\u0120just": 802, "\u0120flow": 803, "\u0120food": 804, "\u0120list": 805, "\u0120didn": 806, "\u0120animals": 807, "\u0120hig": 808, "pl": 809, "\u0120near": 810, "\u0120wat": 811, "\u0120ide": 812, "\u0120try": 813, "ched": 814, "\u0120sky": 815, "ine": 816, "\u0120sn": 817, "ving": 818, "\u0120fi": 819, "rom": 820, "\u0120us": 821, "\u0120idea": 822, "\u0120better": 823, "\u0120Amy": 824, "\u0120bug": 825, "\u0120heard": 826, "gry": 827, "\u0120its": 828, "\u0120tw": 829, "\u0120let": 830, "pec": 831, "ate": 832, "able": 833, "ff": 834, "\u0120en": 835, "\u0120careful": 836, "\u0120share": 837, "ex": 838, "\u0120if": 839, "Thank": 840, "Mom": 841, "\u0120fly": 842, "\u0120stor": 843, "ial": 844, "\u0120flew": 845, "more": 846, "\u0120anymore": 847, "\u0120Th": 848, "\u0120spec": 849, "\u0120special": 850, "ion": 851, "\u0120com": 852, "\u0120lots": 853, "\u0120never": 854, "\u0120by": 855, "lf": 856, "ream": 857, "\u0120dan": 858, "\u0120bu": 859, "\u0120fo": 860, "\u0120wind": 861, "\u0120don": 862, "\u0120tal": 863, "\u0120clean": 864, "ort": 865, "\u0120gr": 866, "\u0120love": 867, "rm": 868, "ber": 869, "\u0120end": 870, "\u010a\u010a": 871, "\u0120Then": 872, "ople": 873, "\u0120even": 874, "\u0120mag": 875, "\u0120hard": 876, "\u0120shiny": 877, "udden": 878, "\u0120fore": 879, "\u0120over": 880, "\u0120cake": 881, "ak": 882, "\u0120book": 883, "\u0120col": 884, "\u0120turn": 885, "\u0120fam": 886, "\u0120bad": 887, "\u0120safe": 888, "\u0120after": 889, "ady": 890, "\u0120Anna": 891, "uddenly": 892, "\u0120people": 893, "\u0120proud": 894, "\u0120Every": 895, "\u0120surprised": 896, "pected": 897, "Let": 898, "\u0120high": 899, "\u0120cu": 900, "\u0120hurt": 901, "\u0120come": 902, "imb": 903, "arden": 904, "\u0120door": 905, "\u0120garden": 906, "bb": 907, "\u0120ground": 908, "\u0120opened": 909, "\u0120picked": 910, "\u0120loud": 911, "\u0120climb": 912, "expected": 913, "\u0120unexpected": 914, "\u0120gl": 915, "\u0120che": 916, "ild": 917, "\u0120im": 918, "As": 919, "\u0120give": 920, "\u0120way": 921, "ail": 922, "'m": 923, "\u0120thanked": 924, "\u0120color": 925, "\u0120blue": 926, "\u0120still": 927, "\u0120ever": 928, "\u0120hugged": 929, "\u0120From": 930, "\u0120call": 931, "\u0120far": 932, "ip": 933, "\u0120Her": 934, "\u0120Sara": 935, "\u0120When": 936, "No": 937, "\u0120off": 938, "\u0120magic": 939, "iz": 940, "ough": 941, "age": 942, "ummy": 943, "\u0120K": 944, "\u0120jumped": 945, "\u0120should": 946, "\u0120family": 947, "\u0120par": 948, "ool": 949, "\u0120kid": 950, "\u0120smile": 951, "hes": 952, "uff": 953, "\u0120place": 954, "kay": 955, "\u0120walk": 956, "\u0120now": 957, "ct": 958, "\u0120In": 959, "\u0120great": 960, "em": 961, "ture": 962, "\u0120qu": 963, "les": 964, "\u0120strong": 965, "\u0120stay": 966, "\u0120unt": 967, "\u0120sto": 968, "aut": 969, "\u0120forest": 970, "ane": 971, "\u0120bra": 972, "itty": 973, "\u0120P": 974, "\u0120frog": 975, "\u0120bro": 976, "\u0120until": 977, "oon": 978, "\u0120beaut": 979, "dy": 980, "\u0120squ": 981, "\u0120stick": 982, "xt": 983, "\u0120next": 984, "\u0120boat": 985, "lease": 986, "ning": 987, "\u0120happily": 988, "\u0120listen": 989, "aking": 990, "\u0120kids": 991, "\u0120tra": 992, "ies": 993, "iful": 994, "\u0120beautiful": 995, "\u0120app": 996, "th": 997, "\u0120helped": 998, "\u0120dra": 999, "\u0120showed": 1000, "\u0120clos": 1001, "be": 1002, "\u0120imp": 1003, "\u0120story": 1004, "unny": 1005, "oy": 1006, "\u0120while": 1007, "\u0120town": 1008, "rel": 1009, "pt": 1010, "\u0120rain": 1011, "ress": 1012, "\u0120picture": 1013, "\u0120being": 1014, "\u0120rem": 1015, "\u0120everyone": 1016, "It": 1017, "ary": 1018, "ree": 1019, "\u0120mor": 1020, "\u0120hat": 1021, "\u0120called": 1022, "\u0120met": 1023, "\u0120stopped": 1024, "\u0120ad": 1025, "\u0120game": 1026, "Now": 1027, "He": 1028, "Can": 1029, "\u0120angry": 1030, "ger": 1031, "uffy": 1032, "\u0120open": 1033, "\u0120wo": 1034, "\u0120truck": 1035, "\u0120keep": 1036, "\u0120soft": 1037, "When": 1038, "\u0120cry": 1039, "\u0120yummy": 1040, "\u0120lost": 1041, "\u0120bed": 1042, "\u0120Let": 1043, "\u0120Sally": 1044, "\u0120warm": 1045, "by": 1046, "vent": 1047, "\u0120brave": 1048, "\u0120mouse": 1049, "\u0120Wh": 1050, "\u0120ate": 1051, "\u0120Kitty": 1052, "ished": 1053, "\u0120de": 1054, "fore": 1055, "\u0120doll": 1056, "so": 1057, "\u0120couldn": 1058, "\u0120watch": 1059, "\u0120leave": 1060, "\u0120also": 1061, "dded": 1062, "\u0120fell": 1063, "\u0120green": 1064, "\u0120face": 1065, "\u0120two": 1066, "gan": 1067, "iss": 1068, "\u0120flowers": 1069, "bit": 1070, "What": 1071, "\u0120R": 1072, "ble": 1073, "\u0120noise": 1074, "abbit": 1075, "irst": 1076, "owl": 1077, "\u0120where": 1078, "az": 1079, "ock": 1080, "\u0120soon": 1081, "self": 1082, "\u0120slide": 1083, "\u0120rabbit": 1084, "\u0120hole": 1085, "luffy": 1086, "\u0120before": 1087, "irrel": 1088, "\u0120pus": 1089, "ired": 1090, "\u0120sat": 1091, "illy": 1092, "\u0120hear": 1093, "\u0120use": 1094, "\u00e2\u0122\u013f": 1095, "Hi": 1096, "\u0120pa": 1097, "\u0120kept": 1098, "\u00e2\u0122\u013e": 1099, "That": 1100, "\u0120squirrel": 1101, "ear": 1102, "Then": 1103, "ma": 1104, "\u0120nodded": 1105, "\u0120expl": 1106, "\u0120store": 1107, "\u0120cook": 1108, "\u0120hands": 1109, "Look": 1110, "\u0120birds": 1111, "\u0120pain": 1112, "\u0120going": 1113, "\u0120funny": 1114, "\u0120having": 1115, "day": 1116, "\u0120sing": 1117, "aybe": 1118, "uch": 1119, "\u0120ey": 1120, "aug": 1121, "\u0120catch": 1122, "aught": 1123, "\u0120Can": 1124, "\u0120Fluffy": 1125, "uit": 1126, "\u0120yell": 1127, "\u0120think": 1128, "leep": 1129, "\u0120cra": 1130, "\u0120fin": 1131, "Ben": 1132, "\u0120bre": 1133, "\u0120fix": 1134, "\u0120tired": 1135, "\u0120bunny": 1136, "\u0120used": 1137, "\u0120looking": 1138, "\u0120bus": 1139, "ange": 1140, "air": 1141, "\u0120work": 1142, "\u0120wr": 1143, "\u0120our": 1144, "\u0120pull": 1145, "We": 1146, "\u0120thr": 1147, "thing": 1148, "\u0120Now": 1149, "\u0120wait": 1150, "\u0120kit": 1151, "\u0120sound": 1152, "ting": 1153, "\u0120jo": 1154, "\u0120has": 1155, "\u0120G": 1156, "\u0120mean": 1157, "\u0120pond": 1158, "ember": 1159, "\u0120beh": 1160, "\u0120dr": 1161, "\u0120sunny": 1162, "led": 1163, "\u0120others": 1164, "\u0120ask": 1165, "ng": 1166, "chen": 1167, "\u0120kitchen": 1168, "\u0120talk": 1169, "\u0120flo": 1170, "\u0120dif": 1171, "rew": 1172, "\u0120pie": 1173, "\u0120Jo": 1174, "\u0120head": 1175, "\u0120real": 1176, "\u0120first": 1177, "\u0120tri": 1178, "\u0120mommy": 1179, "\u0120eyes": 1180, "ello": 1181, "\u0120import": 1182, "Hello": 1183, "\u0120fav": 1184, "ath": 1185, "joy": 1186, "\u0120z": 1187, "\u0120remember": 1188, "\u0120right": 1189, "\u0120flower": 1190, "\u0120con": 1191, "\u0120mess": 1192, "\u0120party": 1193, "\u0120cold": 1194, "\u0120Do": 1195, "\u0120vo": 1196, "\u0120swe": 1197, "ious": 1198, "\u0120sand": 1199, "\u0120\u00e2\u0122\u013e": 1200, "ac": 1201, "orn": 1202, "\u0120race": 1203, "\u0120curi": 1204, "imes": 1205, "\u0120important": 1206, "\u0120duck": 1207, "\u0120moral": 1208, "\u0120shared": 1209, "zy": 1210, "ount": 1211, "\u0120Jack": 1212, "\u0120ice": 1213, "\u0120okay": 1214, "\u0120advent": 1215, "\u0120worked": 1216, "llow": 1217, "At": 1218, "\u0120enjoy": 1219, "\u0120dress": 1220, "\u0120bright": 1221, "\u0120making": 1222, "\u0120curious": 1223, "\u0120own": 1224, "\u0120tall": 1225, "\u0120dir": 1226, "\u0120hop": 1227, "reed": 1228, "\u0120hid": 1229, "\u0120favor": 1230, "\u0120ri": 1231, "hn": 1232, "\u0120sleep": 1233, "\u0120dis": 1234, "Wow": 1235, "\u0120favorite": 1236, "\u0120thing": 1237, "\u0120began": 1238, "\u0120mon": 1239, "\u0120bag": 1240, "\u0120hill": 1241, "Don": 1242, "\u0120cla": 1243, "\u0120draw": 1244, "\u0120rest": 1245, "\u0120here": 1246, "\u0120yard": 1247, "\u0120tell": 1248, "\u0120Fin": 1249, "ster": 1250, "\u0120watched": 1251, "que": 1252, "\u0120follow": 1253, "\u0120move": 1254, "\u0120bel": 1255, "ect": 1256, "\u0120cut": 1257, "\u0120night": 1258, "\u0120agreed": 1259, "\u0120pick": 1260, "co": 1261, "\u0120block": 1262, "\u0120hun": 1263, "aper": 1264, "lly": 1265, "\u0120stop": 1266, "\u0120behind": 1267, "\u0120This": 1268, "\u0120surprise": 1269, "ied": 1270, "\u0120sho": 1271, "\u0120hot": 1272, "After": 1273, "\u0120table": 1274, "\u0120grass": 1275, "\u0120worry": 1276, "\u0120dark": 1277, "\u0120trees": 1278, "\u0120voice": 1279, "\u0120walking": 1280, "fere": 1281, "\u0120floor": 1282, "\u0120farm": 1283, "\u0120lion": 1284, "\u0120top": 1285, "\u0120differe": 1286, "\u0120please": 1287, "\u0120ru": 1288, "\u0120song": 1289, "\u0120butter": 1290, "\u0120tail": 1291, "\u0120sweet": 1292, "Max": 1293, "\u0120shout": 1294, "\u0120colors": 1295, "\u0120read": 1296, "\u0120Dad": 1297, "\u0120lady": 1298, "\u0120forg": 1299, "isy": 1300, "\u0120leaves": 1301, "\u0120closer": 1302, "ign": 1303, "\u0120cars": 1304, "\u0120turned": 1305, "\u0120needed": 1306, "\u0120tast": 1307, "Why": 1308, "aring": 1309, "\u0120wood": 1310, "\u0120cried": 1311, "\u0120different": 1312, "\u0120laugh": 1313, "\u0120del": 1314, "\u0120piece": 1315, "\u00e2\u0122\u013b": 1316, "ered": 1317, "\u0120Mr": 1318, "\u0120roll": 1319, "\u0120adventure": 1320, "\u0120fire": 1321, "\u0120does": 1322, "ike": 1323, "\u0120cr": 1324, "\u0120hungry": 1325, "\u0120hair": 1326, "\u0120Suddenly": 1327, "\u0120paper": 1328, "\u0120feeling": 1329, "\u0120yellow": 1330, "\u0120full": 1331, "bo": 1332, "\u0120prin": 1333, "Sue": 1334, "\u0120touch": 1335, "\u0120As": 1336, "Anna": 1337, "Sam": 1338, "\u0120wet": 1339, "\u0120friendly": 1340, "\u0120per": 1341, "oom": 1342, "ken": 1343, "cked": 1344, "ached": 1345, "\u0120swing": 1346, "\u0120fruit": 1347, "ient": 1348, "\u0120broken": 1349, "\u0120ready": 1350, "bye": 1351, "ppy": 1352, "\u0120prom": 1353, "\u0120That": 1354, "\u0120another": 1355, "\u0120light": 1356, "\u0120pretend": 1357, "\u0120dance": 1358, "ater": 1359, "\u0120climbed": 1360, "where": 1361, "\u0120listened": 1362, "\u0120Bobo": 1363, "\u0120danc": 1364, "\u0120running": 1365, "\u0120only": 1366, "\u0120plan": 1367, "\u0120gone": 1368, "\u0120swim": 1369, "bbed": 1370, "Suddenly": 1371, "sh": 1372, "\u0120train": 1373, "ila": 1374, "ndma": 1375, "Sara": 1376, "\u0120Jane": 1377, "\u0120close": 1378, "av": 1379, "She": 1380, "\u0120smell": 1381, "So": 1382, "aby": 1383, "\u0120amaz": 1384, "\u0120hold": 1385, "\u0120blocks": 1386, "\u0120wonder": 1387, "\u0120Timmy": 1388, "\u0120repl": 1389, "\u0120All": 1390, "\u0120butterf": 1391, "\u0120sees": 1392, "\u0120reached": 1393, "\u0120wall": 1394, "\u0120pu": 1395, "oney": 1396, "red": 1397, "\u0120slow": 1398, "\u0120helping": 1399, "\u0120dri": 1400, "\u0120cream": 1401, "\u0120cool": 1402, "\u0120glad": 1403, "af": 1404, "\u0120ant": 1405, "\u0120less": 1406, "\u0120been": 1407, "\u0120goodbye": 1408, "\u0120ac": 1409, "\u0120fight": 1410, "ather": 1411, "Mia": 1412, "\u0120pushed": 1413, "iced": 1414, "\u0120fair": 1415, "\u0120must": 1416, "\u0120hide": 1417, "\u0120moment": 1418, "\u0120window": 1419, "\u0120O": 1420, "\u0120sit": 1421, "\u0120balloon": 1422, "\u0120snow": 1423, "\u0120child": 1424, "\u0120explore": 1425, "\u0120Everyone": 1426, "\u0120ar": 1427, "\u0120wished": 1428, "\u0120baby": 1429, "\u0120done": 1430, "\u0120wag": 1431, "\u0120ste": 1432, "\u0120buy": 1433, "\u0120stuck": 1434, "\u0120perf": 1435, "\u0120thank": 1436, "\u0120might": 1437, "icy": 1438, "\u0120name": 1439, "ized": 1440, "\u0120trying": 1441, "\u0120bit": 1442, "\u0120coming": 1443, "\u0120bar": 1444, "\u0120quick": 1445, "\u0120fall": 1446, "\u0120apple": 1447, "ash": 1448, "\u0120scary": 1449, "\u0120looks": 1450, "\u0120build": 1451, "\u0120doing": 1452, "\u0120win": 1453, "\u0120underst": 1454, "aisy": 1455, "\u0120din": 1456, "\u0120dream": 1457, "\u0120dirty": 1458, "\u0120held": 1459, "ames": 1460, "\u0120books": 1461, "\u0120mar": 1462, "In": 1463, "\u0120butterfly": 1464, "\u0120left": 1465, "\u0120shouted": 1466, "\u0120count": 1467, "\u0120replied": 1468, "avy": 1469, "\u0120reach": 1470, "\u0120tiny": 1471, "\u0120through": 1472, "ott": 1473, "\u0120dro": 1474, "\u0120why": 1475, "\u0120air": 1476, "\u0120bran": 1477, "\u0120land": 1478, "key": 1479, "\u0120three": 1480, "\u0120pulled": 1481, "\u0120spl": 1482, "\u0120grow": 1483, "\u0120treat": 1484, "\u0120brother": 1485, "\u0120wise": 1486, "\u0120woods": 1487, "\u0120sure": 1488, "'re": 1489, "\u0120chair": 1490, "ix": 1491, "\u0120mat": 1492, "ins": 1493, "\u0120seen": 1494, "\u0120pink": 1495, "\u0120clapped": 1496, "\u0120plant": 1497, "ely": 1498, "\u0120owl": 1499, "\u0120cup": 1500, "ield": 1501, "\u0120sometimes": 1502, "andy": 1503, "\u0120fill": 1504, "\u0120cloud": 1505, "ask": 1506, "\u0120swam": 1507, "outh": 1508, "\u0120job": 1509, "\u0120colorful": 1510, "\u0120remembered": 1511, "\u0120bigger": 1512, "\u0120nest": 1513, "\u0120mouth": 1514, "pe": 1515, "Okay": 1516, "\u0120lesson": 1517, "\u0120join": 1518, "\u0120cre": 1519, "ph": 1520, "\u0120There": 1521, "oup": 1522, "room": 1523, "art": 1524, "\u0120waved": 1525, "uddy": 1526, "\u0120grabbed": 1527, "\u0120stayed": 1528, "Oh": 1529, "\u0120paint": 1530, "This": 1531, "\u0120clot": 1532, "\u0120cont": 1533, "\u0120clothes": 1534, "\u0120ve": 1535, "ower": 1536, "\u0120After": 1537, "\u0120waited": 1538, "\u0120quickly": 1539, "cle": 1540, "\u0120word": 1541, "\u0120broke": 1542, "ucky": 1543, "\u0120games": 1544, "\u0120cast": 1545, "\u0120blew": 1546, "\u0120gent": 1547, "\u0120Mommy": 1548, "\u0120enjoyed": 1549, "\u0120noticed": 1550, "Jo": 1551, "ries": 1552, "ation": 1553, "\u0120set": 1554, "\u0120likes": 1555, "\u0120pictures": 1556, "ton": 1557, "de": 1558, "\u0120sea": 1559, "\u0120heavy": 1560, "\u0120mus": 1561, "\u0120alone": 1562, "\u0120gif": 1563, "asure": 1564, "\u0120anything": 1565, "\u0120spot": 1566, "\u0120miss": 1567, "\u0120hopped": 1568, "\u0120world": 1569, "\u0120turns": 1570, "orm": 1571, "\u0120year": 1572, "der": 1573, "\u0120bott": 1574, "\u0120pat": 1575, "\u0120pot": 1576, "\u0120pen": 1577, "lc": 1578, "Her": 1579, "\u0120mix": 1580, "\u0120arm": 1581, "\u0120bike": 1582, "\u0120tight": 1583, "\u0120everywhere": 1584, "\u0120won": 1585, "Lucy": 1586, "\u0120tower": 1587, "\u0120threw": 1588, "\u0120himself": 1589, "\u0120followed": 1590, "\u0120Buddy": 1591, "\u0120ride": 1592, "man": 1593, "less": 1594, "\u0120ju": 1595, "\u0120je": 1596, "amp": 1597, "Bob": 1598, "ape": 1599, "\u0120comp": 1600, "\u0120key": 1601, "row": 1602, "\".": 1603, "\u0120white": 1604, "ctor": 1605, "\u0120wrong": 1606, "\u0120Daisy": 1607, "\u0120makes": 1608, "\u0120What": 1609, "\u0120break": 1610, "\u0120black": 1611, "arent": 1612, "ee": 1613, "ner": 1614, "Spot": 1615, "Do": 1616, "\u0120deep": 1617, "thy": 1618, "\u0120music": 1619, "\u0120pol": 1620, "\u0120delic": 1621, "cess": 1622, "ued": 1623, "\u0120forgot": 1624, "\u0120bee": 1625, "\u0120parent": 1626, "\u0120castle": 1627, "ves": 1628, "olly": 1629, "\u0120em": 1630, "iet": 1631, "\u0120wear": 1632, "\u0120hit": 1633, "ister": 1634, "oun": 1635, "\u0120quiet": 1636, "\u0120round": 1637, "ance": 1638, "\u0120stu": 1639, "\u0120danced": 1640, "\u0120vis": 1641, "ully": 1642, "\u0120wants": 1643, "\u0120leaf": 1644, "\u0120monster": 1645, "\u0120nap": 1646, "\u0120John": 1647, "\u0120understand": 1648, "ang": 1649, "\u0120bowl": 1650, "os": 1651, "rot": 1652, "ren": 1653, "\u0120bor": 1654, "\u0120talked": 1655, "itten": 1656, "\u0120dry": 1657, "\u0120faster": 1658, "\u0120cookies": 1659, "\u0120brought": 1660, "fully": 1661, "\u0120leg": 1662, "ross": 1663, "\u0120mum": 1664, "zz": 1665, "\u0120side": 1666, "ts": 1667, "From": 1668, "\u0120sign": 1669, "\u0120Inside": 1670, "\u0120smart": 1671, "cy": 1672, "\u0120rocks": 1673, "\u0120someone": 1674, "His": 1675, "\u0120poin": 1676, "\u0120sec": 1677, "\u0120sharing": 1678, "\u0120fox": 1679, "\u0120well": 1680, "\u0120res": 1681, "\u0120rel": 1682, "\u0120happen": 1683, "\u0120button": 1684, "\u0120branch": 1685, "\u0120Lila": 1686, "\u0120really": 1687, "\u0120finished": 1688, "ence": 1689, "ards": 1690, "\u0120dinner": 1691, "\u0120sister": 1692, "\u0120flying": 1693, "eddy": 1694, "\u0120contin": 1695, "\u0120worried": 1696, "\u0120ele": 1697, "\u0120To": 1698, "\u0120visit": 1699, "\u0120Maybe": 1700, "\u0120beach": 1701, "\u0120que": 1702, "\u0120secret": 1703, "\u0120el": 1704, "\u0120Sarah": 1705, "\u0120king": 1706, "John": 1707, "gy": 1708, "\u0120today": 1709, "\u0120perfect": 1710, "\u0120river": 1711, "\u0120everything": 1712, "\u0120silly": 1713, "\u0120shin": 1714, "\u0120Joe": 1715, "\u0120danger": 1716, "ipp": 1717, "\u0120children": 1718, "\u0120gu": 1719, "\u0120Soon": 1720, "\u0120field": 1721, "\u0120filled": 1722, "\u0120fur": 1723, "\u0120else": 1724, "\u0120smiles": 1725, "\u0120welc": 1726, "\u0120At": 1727, "\u0120wish": 1728, "\u0120Em": 1729, "While": 1730, "\u0120sang": 1731, "\u0120gi": 1732, "ze": 1733, "\u0120pudd": 1734, "\u0120snack": 1735, "\u0120eating": 1736, "\u0120realized": 1737, "\u0120pieces": 1738, "\u0120promised": 1739, "ord": 1740, "\u0120spr": 1741, "\u0120pig": 1742, "\u0120free": 1743, "\u0120continued": 1744, "\u0120bite": 1745, "ead": 1746, "\u0120parents": 1747, "\u0120carefully": 1748, "ated": 1749, "itting": 1750, "\u0120ear": 1751, "Just": 1752, "\u0120jar": 1753, "Maybe": 1754, "\u0120cow": 1755, "Amy": 1756, "\u0120blank": 1757, "\u0120drag": 1758, "stead": 1759, "\u0120orange": 1760, "\u0120mud": 1761, "\u0120crying": 1762, "\u0120blanket": 1763, "\u0120enough": 1764, "\u0120rolled": 1765, "cket": 1766, "\u0120soup": 1767, "\u0120sail": 1768, "\u0120purp": 1769, "imi": 1770, "\u0120yes": 1771, "ale": 1772, "\u0120drink": 1773, "\u0120snake": 1774, "ses": 1775, "\u0120boun": 1776, "\u0120pet": 1777, "\u0120crab": 1778, "\u0120laughing": 1779, "\u0120throw": 1780, "\u0120fairy": 1781, "\u0120words": 1782, "\u0120amazing": 1783, "\u0120bath": 1784, "ich": 1785, "\u0120purple": 1786, "\u0120Z": 1787, "\u0120without": 1788, "ire": 1789, "\u0120bottle": 1790, "\u0120Billy": 1791, "\u0120gift": 1792, "\u0120grandma": 1793, "Fin": 1794, "used": 1795, "ons": 1796, "\u0120past": 1797, "\u0120money": 1798, "iver": 1799, "fort": 1800, "\u0120mail": 1801, "\u0120Gra": 1802, "\u0120barked": 1803, "\u0120wagged": 1804, "\u0120att": 1805, "chool": 1806, "\u0120monkey": 1807, "\u0120doctor": 1808, "unch": 1809, "\u0120brown": 1810, "\u0120moved": 1811, "ises": 1812, "\u0120asks": 1813, "\u0120getting": 1814, "\u0120closed": 1815, "\u0120whe": 1816, "\u0120welcome": 1817, "\u0120su": 1818, "\u0120candy": 1819, "\u0120school": 1820, "\u0120morning": 1821, "\u0120owner": 1822, "gg": 1823, "\u0120lon": 1824, "\u0120mother": 1825, "\u0120higher": 1826, "\u0120sitting": 1827, "\u0120treasure": 1828, ".\u00e2\u0122\u013f": 1829, "\u0120smo": 1830, "!\u00e2\u0122\u013f": 1831, "\u0120dangerous": 1832, "\u0120lonely": 1833, "\u0120Ch": 1834, "\u0120living": 1835, "\u0120apples": 1836, "ush": 1837, "\u0120shop": 1838, "ased": 1839, "\u0120strange": 1840, "vel": 1841, "\u0120shining": 1842, "\u0120road": 1843, "ere": 1844, "\u0120Tommy": 1845, "\u0120creat": 1846, "una": 1847, "\u0120paw": 1848, "\u0120ra": 1849, "ey": 1850, "\u0120shoes": 1851, "\u0120pre": 1852, "ible": 1853, "\u0120-": 1854, "\u0120stre": 1855, "\u0120talking": 1856, "althy": 1857, "\u0120caught": 1858, "\u0120egg": 1859, "ol": 1860, "\u0120pass": 1861, "me": 1862, "\u0120lake": 1863, "\u0120runs": 1864, "\u0120buck": 1865, "\u0120letter": 1866, "\u0120wings": 1867, "\u0120chee": 1868, "fish": 1869, "\u0120mad": 1870, "\u0120fan": 1871, "asket": 1872, "\u0120basket": 1873, "ass": 1874, "\u0120dragon": 1875, "app": 1876, "Mommy": 1877, "set": 1878, "cks": 1879, "\u0120stone": 1880, "\u0120thinks": 1881, "\u0120stand": 1882, "\u0120delicious": 1883, "\u0120nose": 1884, "\u0120puddle": 1885, "\u0120tom": 1886, "\u0120Bl": 1887, "\u0120Mimi": 1888, "\u0120belie": 1889, "\u0120farmer": 1890, "\u0120same": 1891, "\u0120years": 1892, "board": 1893, "\u0120teddy": 1894, "\u0120bat": 1895, "isk": 1896, "itch": 1897, "\u0120mine": 1898, "\u0120sear": 1899, "\u0120coat": 1900, "ches": 1901, "igh": 1902, "\u0120days": 1903, "\u0120bring": 1904, "\u0120gentle": 1905, "\u0120fit": 1906, "\u0120start": 1907, "\u0120finally": 1908, "\u0120whist": 1909, "\u0120cray": 1910, "igg": 1911, "\u0120scream": 1912, "\u0120kite": 1913, "\u0120pill": 1914, "phant": 1915, "arm": 1916, "\u0120vill": 1917, "\u0120cho": 1918, "\u0120singing": 1919, "ella": 1920, "sw": 1921, "ined": 1922, "\u0120tasty": 1923, "\u0120ph": 1924, "\u0120ben": 1925, "\u0120trou": 1926, "\u0120shell": 1927, "\u0120herself": 1928, "\u0120hoped": 1929, "\u0120answ": 1930, "\u0120wore": 1931, "\u0120swings": 1932, "sy": 1933, "\u0120hor": 1934, "\u0120belong": 1935, "Please": 1936, "\u0120push": 1937, "\u0120bush": 1938, "iskers": 1939, "\u0120carrot": 1940, "\u0120arri": 1941, "aughty": 1942, "\u0120teach": 1943, "bow": 1944, "ract": 1945, "\u0120naughty": 1946, "\u0120elephant": 1947, "\u0120dropped": 1948, "\u0120shap": 1949, "ier": 1950, "\u0120coll": 1951, "sc": 1952, "\u0120teac": 1953, "emy": 1954, "\u0120woke": 1955, "ball": 1956, "\u0120pile": 1957, "\u0120hiding": 1958, "\u0120cour": 1959, "isa": 1960, "erry": 1961, "\u0120touc": 1962, "\u0120min": 1963, "\u0120puppy": 1964, "'ll": 1965, "\u0120seem": 1966, "llie": 1967, "\u0120twins": 1968, "ama": 1969, "\u0120lunch": 1970, "\u0120bow": 1971, "\u0120sack": 1972, "\u0120pers": 1973, "\u0120course": 1974, "\u0120cheered": 1975, "\u0120shapes": 1976, "\u0120Jen": 1977, "\u0120grew": 1978, "fused": 1979, "\u0120rope": 1980, "\u0120village": 1981, "irth": 1982, "irthday": 1983, "\u0120juice": 1984, "ipped": 1985, "\u0120rainbow": 1986, "\u0120spin": 1987, "OK": 1988, "\u0120shook": 1989, "Jack": 1990, "\u0120spoon": 1991, "\u0120bench": 1992, "\u0120street": 1993, "\u0120fence": 1994, "\u0120cute": 1995, "\u0120Fred": 1996, "\u0120rob": 1997, "\u0120nut": 1998, "\u0120cheese": 1999, "\u0120prob": 2000, "\u0120touched": 2001, "idge": 2002, "col": 2003, "\u0120joy": 2004, "\u0120Whiskers": 2005, "\u0120arrived": 2006, "\u0120seed": 2007, "\u0120war": 2008, "\u0120teacher": 2009, "\u0120corn": 2010, "Good": 2011, "\u0120forever": 2012, "\u0120able": 2013, "\u0120bell": 2014, "\u0120few": 2015, "\u0120carry": 2016, "\u0120most": 2017, "\u0120plane": 2018, "\u0120Blue": 2019, "lem": 2020, "\u0120eas": 2021, "\u0120sounds": 2022, "lla": 2023, "\u0120des": 2024, "\u0120spo": 2025, "\u0120problem": 2026, "\u0120birthday": 2027, "\u0120power": 2028, "\u0120inc": 2029, "umb": 2030, "br": 2031, "\u010a\u0120": 2032, "\u0120bugs": 2033, "ilk": 2034, "\u0120wonderful": 2035, "\u0120dolls": 2036, "\u0120busy": 2037, "ato": 2038, "irp": 2039, "eb": 2040, "\u0120wra": 2041, "\u0120promise": 2042, "\u0120Thank": 2043, "\u0120feels": 2044, "ian": 2045, "\u0120Emma": 2046, "eter": 2047, "\u0120bread": 2048, "Finally": 2049, "\u0120neck": 2050, "\u0120milk": 2051, "\u0120robot": 2052, "\u0120rec": 2053, "\u0120shy": 2054, "ountain": 2055, "\u0120kiss": 2056, "irt": 2057, "\u0120heart": 2058, "\u0120band": 2059, "\u0120cave": 2060, "\u0120pocket": 2061, "ub": 2062, "\u0120helpful": 2063, "gly": 2064, "\u0120slowly": 2065, "\u0120believe": 2066, "\u0120shake": 2067, "umpy": 2068, "eared": 2069, "\u0120patient": 2070, "\u0120pop": 2071, "\u0120ob": 2072, "arp": 2073, "\u0120live": 2074, "\u0120storm": 2075, "\u0120holding": 2076, "\u0120ugly": 2077, "\u0120towards": 2078, "\u0120upset": 2079, "\u0120turt": 2080, "\u0120shr": 2081, "adow": 2082, "\u0120cover": 2083, "\u0120kitten": 2084, "ost": 2085, "\u0120Remy": 2086, "\u0120sharp": 2087, "\u0120disapp": 2088, "\u0120stories": 2089, "\u0120suc": 2090, "\u0120honey": 2091, "ove": 2092, "\u0120Bella": 2093, "read": 2094, "\u0120noises": 2095, "\u0120Le": 2096, "\u0120cir": 2097, "\u0120balls": 2098, "\u0120spark": 2099, "\u0120gray": 2100, "\u0120dist": 2101, "\u0120dirt": 2102, "oggy": 2103, "\u0120late": 2104, "\u0120driver": 2105, "\u0120seat": 2106, "\u0120bucket": 2107, "\u0120meet": 2108, "\u0120young": 2109, "\u0120amazed": 2110, "\u0120turtle": 2111, "alm": 2112, "\u0120spid": 2113, "\u0120treats": 2114, "\u0120magical": 2115, "unt": 2116, "ator": 2117, "\u0120glow": 2118, "\u0120seek": 2119, "\u0120zoom": 2120, "\u0120lem": 2121, "\u0120sandw": 2122, "fortable": 2123, "umber": 2124, "\u0120trip": 2125, "\u0120mist": 2126, "ourn": 2127, "\u0120splas": 2128, "\u0120mark": 2129, "\u0120journ": 2130, "\u0120fold": 2131, "\u0120mach": 2132, "\u0120puzz": 2133, "\u0120part": 2134, "ling": 2135, "\u0120horse": 2136, "\u0120organ": 2137, "\u0120wild": 2138, "\u0120princess": 2139, "pping": 2140, "oose": 2141, "\u0120cookie": 2142, "Sure": 2143, "ens": 2144, "\u0120hugs": 2145, "\u0120Mark": 2146, "\u0120taking": 2147, "ung": 2148, "\u0120wheel": 2149, "epend": 2150, "\u0120cloth": 2151, "\u0120Lisa": 2152, "\u0120sug": 2153, "\u0120instead": 2154, "\u0120bubb": 2155, "\u0120string": 2156, "\u0120net": 2157, "\u0120drove": 2158, "iling": 2159, "\u0120rude": 2160, "\u0120huge": 2161, "\u0120Jim": 2162, "\u0120coin": 2163, "\u0120stars": 2164, "\u0120fighting": 2165, "Be": 2166, "\u0120spicy": 2167, "\u0120lucky": 2168, "Of": 2169, "\u0120craw": 2170, "Hey": 2171, "\u0120bone": 2172, "\u0120inv": 2173, "\u0120Grandma": 2174, "ors": 2175, "not": 2176, "\u0120ca": 2177, "pper": 2178, "\u0120forget": 2179, "up": 2180, "\u0120di": 2181, "aur": 2182, "\u0120sal": 2183, "\u0120Finally": 2184, "\u0120cannot": 2185, "\u0120whistle": 2186, "\u0120card": 2187, "\u0120sick": 2188, "\u0120path": 2189, "\u0120cou": 2190, "\u0120spider": 2191, "\u0120wide": 2192, "Lila": 2193, "\u0120foot": 2194, "\u0120snowman": 2195, "\u0120life": 2196, "\u0120songs": 2197, "\u0120pillow": 2198, "ize": 2199, "ular": 2200, "\u0120Just": 2201, "Later": 2202, "est": 2203, "\u0120Ann": 2204, "ert": 2205, "\u0120fixed": 2206, "\u0120giant": 2207, "oph": 2208, "rill": 2209, "\u0120nod": 2210, "\u0120boss": 2211, "\u0120last": 2212, "\u0120comes": 2213, "\u0120joke": 2214, "\u0120moon": 2215, "\u0120taste": 2216, "den": 2217, "\u0120machine": 2218, "\u0120grumpy": 2219, "\u0120wave": 2220, "\u0120thin": 2221, "\u0120drive": 2222, "\u0120cart": 2223, "\u0120ash": 2224, "\u0120ser": 2225, "\u0120grab": 2226, "\u0120peace": 2227, "lower": 2228, "\u0120daddy": 2229, "\u0120On": 2230, "\u0120Leo": 2231, "ery": 2232, "\u0120sel": 2233, "\u0120shelf": 2234, "\u0120hidden": 2235, "erest": 2236, "\u0120suddenly": 2237, "\u0120wasn": 2238, "\u0120write": 2239, "\u0120landed": 2240, "\u0120confused": 2241, "\u0120ring": 2242, "\u0120change": 2243, "\u0120worm": 2244, "\u0120interest": 2245, "\u0120chased": 2246, "oop": 2247, "\u0120fruits": 2248, "\u0120sour": 2249, "ity": 2250, "\u0120myster": 2251, "\u0120bark": 2252, "\u0120rad": 2253, "\u0120smooth": 2254, "\u0120Come": 2255, "\u0120adventures": 2256, "\u0120val": 2257, "\u0120stepped": 2258, "\u0120fle": 2259, "ope": 2260, "\u0120oven": 2261, "\u0120takes": 2262, "\u0120missed": 2263, "\u0120selfish": 2264, "kin": 2265, "\u0120sheep": 2266, "\u0120messy": 2267, "To": 2268, "\u0120across": 2269, "\u0120ent": 2270, "to": 2271, "\u0120exp": 2272, "\u0120ce": 2273, "\u0120later": 2274, "elly": 2275, "\u0120N": 2276, "ife": 2277, "\u0120sticks": 2278, "\u0120tie": 2279, "St": 2280, "ever": 2281, "\u0120Luna": 2282, "\u0120step": 2283, "\u0120bought": 2284, "\u0120drew": 2285, "\u0120tea": 2286, "pect": 2287, "irpy": 2288, "\u0120ban": 2289, "box": 2290, "?\u00e2\u0122\u013f": 2291, "\u0120wash": 2292, "\u0120lay": 2293, "\u0120pour": 2294, "\u0120beak": 2295, "ose": 2296, "\u0120jog": 2297, "\u0120grate": 2298, "\u0120ducks": 2299, "\u0120spe": 2300, "\u0120legs": 2301, "ugg": 2302, "\u0120fil": 2303, "\u0120Bu": 2304, "\u0120emp": 2305, "mer": 2306, "\u0120hope": 2307, "\u0120empty": 2308, "\u0120slid": 2309, "\u0120feather": 2310, "\u0120sleepy": 2311, "\u0120drum": 2312, "amed": 2313, "ars": 2314, "eth": 2315, "\u0120zoo": 2316, "\u0120pan": 2317, "\u0120phone": 2318, "\u0120grateful": 2319, "\u0120fing": 2320, "ions": 2321, "\u0120lemon": 2322, "let": 2323, "\u0120Cat": 2324, "\u0120clever": 2325, "\u0120Molly": 2326, "\u0120smelly": 2327, "\u0120imag": 2328, "\u0120splash": 2329, "\u0120interesting": 2330, "\u0120Jill": 2331, "\u0120save": 2332, "\u0120chick": 2333, "\u0120calm": 2334, "\u0120med": 2335, "\u0120watching": 2336, "Soon": 2337, "izzy": 2338, "izz": 2339, "\u0120plate": 2340, "\u0120ign": 2341, "yard": 2342, "\u0120clouds": 2343, "\u0120banan": 2344, "\u0120line": 2345, "\u0120faces": 2346, "\u0120ba": 2347, "\u0120act": 2348, "\u0120lift": 2349, "\u0120though": 2350, "\u0120wolf": 2351, "\u0120backyard": 2352, "wel": 2353, "\u0120seemed": 2354, "\u0120dogs": 2355, "\u0120spray": 2356, "Come": 2357, "\u0120prot": 2358, "\u0120whole": 2359, "\u0120mot": 2360, "\u0120fancy": 2361, "\u0120Daddy": 2362, "\u0120quest": 2363, "\u0120arms": 2364, "\u0120puzzle": 2365, "\u0120healthy": 2366, "\u0120supp": 2367, "ward": 2368, "\u0120finish": 2369, "erly": 2370, "\u0120along": 2371, "llo": 2372, "\u0120rocket": 2373, "\u0120explain": 2374, "dge": 2375, "\u0120easy": 2376, "\u0120jewel": 2377, "ont": 2378, "\u0120pract": 2379, "\u0120jelly": 2380, "\u0120Chirpy": 2381, "\u0120tid": 2382, "\u0120fake": 2383, "\u0120crayons": 2384, "\u0120wondered": 2385, "\u0120maybe": 2386, "\u0120scar": 2387, "\u0120ship": 2388, "\u0120nothing": 2389, "onest": 2390, "\u0120emb": 2391, "iger": 2392, "\u0120pool": 2393, "\u0120longer": 2394, "\u0120anyone": 2395, "\u0120Be": 2396, "\u0120Jerry": 2397, "ually": 2398, "\u0120front": 2399, "\u0120working": 2400, "\u0120gives": 2401, "irr": 2402, "\u0120pack": 2403, "\u0120such": 2404, "\u0120Bunny": 2405, "ocked": 2406, "ment": 2407, "\u0120bossy": 2408, "\u0120Doggy": 2409, "\u0120trouble": 2410, "\u0120smelled": 2411, "\u0120saved": 2412, "\u0120pin": 2413, "rass": 2414, "\u0120neigh": 2415, "arrass": 2416, "iting": 2417, "\u0120honest": 2418, "\u0120av": 2419, "arge": 2420, "\u0120embarrass": 2421, "\u0120van": 2422, "\u0120forgive": 2423, "\u0120tidy": 2424, "\u0120weak": 2425, "urse": 2426, "\u0120puts": 2427, "unk": 2428, "\u0120kick": 2429, "\u0120shirt": 2430, "\u0120With": 2431, "\u0120mind": 2432, "\u0120Ollie": 2433, "\u0120neighb": 2434, "\u0120plants": 2435, "\u0120sol": 2436, "\u0120Momo": 2437, "\u0120gently": 2438, "\u0120cozy": 2439, "orrow": 2440, "ming": 2441, "\u0120explor": 2442, "sp": 2443, "\u0120mistake": 2444, "\u0120yog": 2445, "oc": 2446, "oomy": 2447, "\u0120pointed": 2448, "\u0120lad": 2449, "\u0120af": 2450, "\u0120stood": 2451, "ork": 2452, "\u0120onto": 2453, "\u0120waiting": 2454, "\u0120jumping": 2455, "\u0120prince": 2456, "\u0120cross": 2457, "\u0120lock": 2458, "\u0120cheer": 2459, "\u0120queen": 2460, "\u0120Why": 2461, "\u0120Mary": 2462, "\u0120wing": 2463, "ones": 2464, "we": 2465, "\u0120large": 2466, "\u0120lovely": 2467, "ult": 2468, "\u0120sur": 2469, "\u0120ret": 2470, "And": 2471, "\u0120deer": 2472, "\u0120chew": 2473, "\u0120couch": 2474, "\u0120bal": 2475, "\u0120stret": 2476, "aughter": 2477, "era": 2478, "\u0120Their": 2479, "\u0120places": 2480, "\u0120My": 2481, "\u0120ladder": 2482, "oof": 2483, "\u0120return": 2484, "raid": 2485, "\u0120ants": 2486, "\u0120dish": 2487, "\u0120afraid": 2488, "\u0120cleaned": 2489, "\u0120tomorrow": 2490, "\u0120building": 2491, "\u0120sandwich": 2492, "\u0120person": 2493, "Sally": 2494, "ned": 2495, "\u0120pretended": 2496, "\u0120bounce": 2497, "\u0120wip": 2498, "gest": 2499, "\u0120match": 2500, "\u0120rich": 2501, "uce": 2502, "\u0120pizz": 2503, "\u0120gather": 2504, "\u0120search": 2505, "\u0120boring": 2506, "oman": 2507, "\u0120Somet": 2508, "\u0120teeth": 2509, "\u0120hum": 2510, "Kitty": 2511, "My": 2512, "aced": 2513, "\u0120daughter": 2514, "\u0120woman": 2515, "\u0120scarf": 2516, "\u0120goes": 2517, "\u0120Together": 2518, "\u0120law": 2519, "\u0120stra": 2520, "\u0120swimming": 2521, "\u0120furry": 2522, "\u0120splashed": 2523, "\u0120pri": 2524, "\u0120loves": 2525, "\u0120true": 2526, "\u0120screamed": 2527, "\u0120lazy": 2528, "\u0120gen": 2529, "\u0120answer": 2530, "\u0120number": 2531, "\u0120eag": 2532, "\u0120ashamed": 2533, "\u0120pizza": 2534, "aw": 2535, "\u0120appeared": 2536, "\u0120fear": 2537, "\u0120nearby": 2538, "\u0120powerful": 2539, "\u0120flag": 2540, "\u0120St": 2541, "\u0120hang": 2542, "vous": 2543, "\u0120clown": 2544, "ek": 2545, "\u0120chase": 2546, "\u0120motor": 2547, "\u0120wand": 2548, "\u0120TV": 2549, "\u0120rub": 2550, "\u0120success": 2551, "\u0120chocol": 2552, "\u0120If": 2553, "\u0120creative": 2554, "\u0120trust": 2555, "\u0120wearing": 2556, "\u0120noisy": 2557, "\u0120matter": 2558, "pa": 2559, "\u0120dig": 2560, "\u0120hello": 2561, "\u0120ner": 2562, "\u0120tool": 2563, "\u0120saf": 2564, "\u0120Bird": 2565, "ado": 2566, "\u0120nervous": 2567, "elp": 2568, "\u0120test": 2569, "\u0120smiling": 2570, "\u0120sold": 2571, "icked": 2572, "oppy": 2573, "osaur": 2574, "\u0120circle": 2575, "mb": 2576, "\u0120map": 2577, "\u0120drank": 2578, "\u0120class": 2579, "\u0120tries": 2580, "\u0120chocolate": 2581, "\u0120Please": 2582, "\u0120impress": 2583, "\u0120knee": 2584, "\u0120gener": 2585, "\u0120dinosaur": 2586, "\u0120polite": 2587, "\u0120mirr": 2588, "\u0120Bobby": 2589, "\u0120Tiny": 2590, "\u0120balloons": 2591, "\u0120gold": 2592, "\u0120rare": 2593, "\u0120protect": 2594, "\u0120cand": 2595, "Stop": 2596, "\u0120carried": 2597, "\u0120Go": 2598, "ensive": 2599, "\u0120ap": 2600, "\u0120shadow": 2601, "\u0120mirror": 2602, "\u0120Don": 2603, "\u0120bald": 2604, "\u0120gun": 2605, "ina": 2606, "\u0120expensive": 2607, "\u0120reg": 2608, "iff": 2609, "\u0120mysterious": 2610, "\u0120Sp": 2611, "\u0120pump": 2612, "\u0120note": 2613, "\u0120hero": 2614, "\u0120march": 2615, "\u0120har": 2616, "arl": 2617, "\u0120icy": 2618, "\u0120respect": 2619, "\u0120weird": 2620, "\u0120snee": 2621, "\u0120cri": 2622, "\u0120gate": 2623, "\u0120soap": 2624, "rag": 2625, "ute": 2626, "issors": 2627, "\u0120these": 2628, "\u0120poor": 2629, "\u0120towel": 2630, "\u0120whale": 2631, "\u0120feet": 2632, "\u0120tape": 2633, "\u0120dizzy": 2634, "itter": 2635, "\u0120generous": 2636, "ndpa": 2637, "\u0120pres": 2638, "\u0120Benny": 2639, "nic": 2640, "\u0120disco": 2641, "Help": 2642, "ventually": 2643, "\u0120picnic": 2644, "\u0120mic": 2645, "\u0120lead": 2646, "\u0120sque": 2647, "\u0120embarrassed": 2648, "\u0120journey": 2649, "\u0120sugar": 2650, "isp": 2651, "scape": 2652, "\u0120boot": 2653, "\u0120peaceful": 2654, "\u0120tent": 2655, "\u0120fat": 2656, "\u0120Bear": 2657, "\u0120scissors": 2658, "\u0120tasted": 2659, "\u0120yelled": 2660, "Tommy": 2661, "\u0120tick": 2662, "\u0120mel": 2663, "\u0120brush": 2664, "\u0120dancing": 2665, "ness": 2666, "\u0120glue": 2667, "\u0120hur": 2668, "\u0120rough": 2669, "\u0120clap": 2670, "\u0120bridge": 2671, "ote": 2672, "\u0120decor": 2673, "\u0120closet": 2674, "\u0120crown": 2675, "\u0120stir": 2676, "ual": 2677, "imp": 2678, "\u0120print": 2679, "\u0120Sometimes": 2680, "owed": 2681, "airs": 2682, "\u0120How": 2683, "ume": 2684, "\u0120cap": 2685, "\u0120lamp": 2686, "\u0120vase": 2687, "\u0120scare": 2688, "lebr": 2689, "\u0120relie": 2690, "lves": 2691, "any": 2692, "\u0120eld": 2693, "\u0120tele": 2694, "\u0120celebr": 2695, "\u0120gigg": 2696, "\u0120whisp": 2697, "\u0120log": 2698, "\u0120sco": 2699, "\u0120blow": 2700, "\u0120painted": 2701, "\u0120Ducky": 2702, "\u0120pay": 2703, "erries": 2704, "\u0120wis": 2705, "\u0120berries": 2706, "\u0120mixed": 2707, "\u0120spread": 2708, "\u0120wouldn": 2709, "\u0120cage": 2710, "\u0120bake": 2711, "rob": 2712, "getable": 2713, "\u0120mountain": 2714, "\u0120adm": 2715, "\u0120drawing": 2716, "\u0120become": 2717, "\u0120famous": 2718, "\u0120knocked": 2719, "\u0120bean": 2720, "\u0120norm": 2721, "\u0120vegetable": 2722, "asp": 2723, "\u0120kicked": 2724, "ustr": 2725, "\u0120shark": 2726, "ser": 2727, "\u0120incred": 2728, "\u0120lose": 2729, "\u0120normal": 2730, "\u0120wrap": 2731, "ced": 2732, "\u0120group": 2733, "\u0120thick": 2734, "\u01203": 2735, "\u0120fine": 2736, "\u0120glass": 2737, "\u0120ignor": 2738, "\u0120clock": 2739, "\u0120team": 2740, "\u0120elderly": 2741, "\u0120clear": 2742, "\u0120corner": 2743, "\u0120frustr": 2744, "\u0120mighty": 2745, "robe": 2746, "\u0120cone": 2747, "\u0120incredible": 2748, "\u0120Br": 2749, "ighed": 2750, "Dad": 2751, "\u0120moms": 2752, "\u0120balance": 2753, "\u0120sock": 2754, "\u0120space": 2755, "\u0120jam": 2756, "ragile": 2757, "\u0120fright": 2758, "\u0120organized": 2759, "\u0120branches": 2760, "\u0120roar": 2761, "port": 2762, "\u0120sword": 2763, "alous": 2764, "\u0120Mama": 2765, "\u0120guess": 2766, "\u0120fool": 2767, "\u0120sell": 2768, "\u0120feed": 2769, "\u0120Some": 2770, "\u0120which": 2771, "\u0120horn": 2772, "\u0120present": 2773, "\u0120jealous": 2774, "\u0120yarn": 2775, "ony": 2776, "\u0120fragile": 2777, "\u0120burn": 2778, "\u0120understood": 2779, "\u0120mis": 2780, "\u0120stubb": 2781, "\u0120ter": 2782, "\u0120frustrated": 2783, "Where": 2784, "ray": 2785, "\u0120hose": 2786, "cient": 2787, "\u0120spent": 2788, "\u0120shoe": 2789, "\u0120taught": 2790, "\u0120stubborn": 2791, "\u0120twist": 2792, "\u0120creature": 2793, "\u0120chest": 2794, "\u0120spoiled": 2795, "\u0120relieved": 2796, "\u0120ancient": 2797, "\u0120wake": 2798, "ique": 2799, "\u0120fier": 2800, "\u0120pray": 2801, "\u0120fierce": 2802, "\u0120eggs": 2803, "\u0120cab": 2804, "\u0120terri": 2805, "\u0120barn": 2806, "\u0120pumpkin": 2807, "\u0120comfortable": 2808, "\u0120ord": 2809, "ym": 2810, "orry": 2811, "\u0120frightened": 2812, "\u0120toug": 2813, "\u0120unique": 2814, "\u0120measure": 2815, "\u0120goat": 2816, "\u0120wagon": 2817, "\u0120unus": 2818, "\u0120breath": 2819, "\u0120foolish": 2820, "\u0120useful": 2821, "\u0120exploring": 2822, "dle": 2823, "\u0120straw": 2824, "\u0120unusual": 2825, "\u0120dug": 2826, "\u0120clay": 2827, "\u0120discover": 2828, "\u0120tomato": 2829, "\u0120Pe": 2830, "\u0120dead": 2831, "\u0120finding": 2832, "\u0120police": 2833, "\u0120wrote": 2834, "\u0120clum": 2835, "\u0120exam": 2836, "lace": 2837, "\u0120waves": 2838, "\u0120square": 2839, "\u0120hears": 2840, "\u0120cabin": 2841, "\u0120tells": 2842, "\u0120necklace": 2843, "\u0120dull": 2844, "\u0120clumsy": 2845, "\u0120tough": 2846, "\u0120bubbles": 2847, "\u0120nosy": 2848, "kn": 2849, "\u0120searched": 2850, "Together": 2851, "\u0120washed": 2852, "\u0120bathroom": 2853, "\u0120paws": 2854, "bby": 2855, "ond": 2856, "unn": 2857, "anged": 2858, "\u0120board": 2859, "fic": 2860, "known": 2861, "\u0120asking": 2862, "\u0120crazy": 2863, "\u0120thankful": 2864, "\u0120sunf": 2865, "\u0120bitter": 2866, "yal": 2867, "\u0120pir": 2868, "berry": 2869, "alk": 2870, "\u0120ind": 2871, "\u0120diffic": 2872, "\u0120rose": 2873, "cil": 2874, "\u0120swan": 2875, "\u0120bloom": 2876, "\u0120unknown": 2877, "\u0120Ella": 2878, "\u0120covered": 2879, "\u0120difficult": 2880, "\u0120add": 2881, "\u0120pencil": 2882, "\u0120finger": 2883, "\u0120ham": 2884, "\u0120hoop": 2885, "\u0120jet": 2886, "\u0120witch": 2887, "\u0120drop": 2888, "Me": 2889, "\u0120'": 2890, "\u0120chicken": 2891, "\u0120gloomy": 2892, "apped": 2893, "\u0120loyal": 2894, "als": 2895, "Here": 2896, "com": 2897, "\u0120wealthy": 2898, "light": 2899, "\u0120unl": 2900, "\u0120cats": 2901, "\u0120ending": 2902, "\u0120guit": 2903, "bled": 2904, "shine": 2905, "\u0120dove": 2906, "\u0120joined": 2907, "\u0120cher": 2908, "anut": 2909, "\u0120mov": 2910, "\u0120terrible": 2911, "\u0120yours": 2912, "iant": 2913, "\u0120U": 2914, "\u0120Rex": 2915, "\u0120salad": 2916, "\u0120Andy": 2917, "\u0120nuts": 2918, "\u0120rat": 2919, "ground": 2920, "\u0120tiger": 2921, "\u0120potato": 2922, "\u0120mask": 2923, "xible": 2924, "selves": 2925, "\u0120value": 2926, "\u0120changed": 2927, "\u0120moving": 2928, "\u0120exciting": 2929, "ormous": 2930, "\u0120Many": 2931, "\u0120body": 2932, "\u0120Tr": 2933, "\u0120toast": 2934, "\u0120record": 2935, "erp": 2936, "\u0120zip": 2937, "\u0120disg": 2938, "\u0120cheap": 2939, "\u0120guitar": 2940, "irsty": 2941, "\u0120knowing": 2942, "\u0120adventur": 2943, "\u0120yourself": 2944, "\u0120enormous": 2945, "\u0120hairy": 2946, "Every": 2947, "\u0120shoot": 2948, "\u0120Brown": 2949, "\u0120bored": 2950, "\u0120pepper": 2951, "\u0120remind": 2952, "ory": 2953, "land": 2954, "\u0120acorn": 2955, "\u0120adventurous": 2956, "\u0120sunshine": 2957, "\u0120smaller": 2958, "\u0120hats": 2959, "\u0120stuff": 2960, "\u0120solve": 2961, "\u0120Jimmy": 2962, "\u0120flexible": 2963, "\u0120cost": 2964, "rilliant": 2965, "\u0120knife": 2966, "\u0120perform": 2967, "\u0120snacks": 2968, "\u0120nods": 2969, "\u0120shore": 2970, "\u0120brilliant": 2971, "\u0120thirsty": 2972, "\u0120delicate": 2973, "\u0120frown": 2974, "\u0120disgust": 2975, "\u0120collect": 2976, "\u0120stri": 2977, "\u0120seeds": 2978, "\u0120counted": 2979, "\u0120asleep": 2980, "\u0120banana": 2981, "reen": 2982, "\u0120mailbox": 2983, "iness": 2984, "\u0120dough": 2985, "\u0120trick": 2986, "\u0120neighbor": 2987, "ungle": 2988, "\u0120heal": 2989, "live": 2990, "Who": 2991, "\u0120stage": 2992, "ident": 2993, "\u0120market": 2994, "\u0120cube": 2995, "\u0120stat": 2996, "\u0120jungle": 2997, "\u0120squee": 2998, "mbre": 2999, "\u0120explained": 3000, "ates": 3001, "\u0120umbre": 3002, "\u0120disgusting": 3003, "Jim": 3004, "fted": 3005, "\u0120lab": 3006, "\u0120jolly": 3007, "\u0120flash": 3008, "und": 3009, "\u0120fridge": 3010, "inal": 3011, "pid": 3012, "ilt": 3013, "\u0120crane": 3014, "corn": 3015, "\u0120suit": 3016, "\u0120rh": 3017, "iddle": 3018, "\u0120sunflower": 3019, "\u0120times": 3020, "\u0120Al": 3021, "erpill": 3022, "\u0120caterpill": 3023, "\u0120relax": 3024, "\u0120shiver": 3025, "\u0120four": 3026, "\u0120island": 3027, "iginal": 3028, "\u0120harm": 3029, "ict": 3030, "\u0120While": 3031, "ying": 3032, "\u0120stupid": 3033, "\u0120medic": 3034, "\u0120Instead": 3035, "\u0120comb": 3036, "\u0120goose": 3037, "\u0120cro": 3038, "edient": 3039, "\u0120Will": 3040, "\u0120stove": 3041, "If": 3042, "Are": 3043, "\u0120independ": 3044, "Mum": 3045, "most": 3046, "\u0120spring": 3047, "\u0120gem": 3048, "\u0120batter": 3049, "\u0120sighed": 3050, "\u0120vegetables": 3051, "\u0120stones": 3052, "pes": 3053, "\u0120shine": 3054, "How": 3055, "\u0120medicine": 3056, "\u0120depend": 3057, "\u0120rug": 3058, "\u0120Your": 3059, "\u0120careless": 3060, "\u0120original": 3061, "\u0120stamp": 3062, "\u0120gar": 3063, "\u0120cries": 3064, "Inside": 3065, "gu": 3066, "\u0120carrots": 3067, "\u0120scr": 3068, "\u0120successful": 3069, "\u0120sauce": 3070, "\u0120jeep": 3071, "\u0120popcorn": 3072, "\u0120meal": 3073, "\u0120obedient": 3074, "\u0120almost": 3075, "\u0120middle": 3076, "\u0120magn": 3077, "\u0120study": 3078, "\u0120independent": 3079, "\u0120fearful": 3080, "\u0120jack": 3081, "met": 3082, "inky": 3083, "Sorry": 3084, "\u0120Sammy": 3085, "\u0120escape": 3086, "\u0120caterpillar": 3087, "\u0120serious": 3088, "\u0120peanut": 3089, "\u0120bedroom": 3090, "\u0120eager": 3091, "aken": 3092, "\u0120gets": 3093, "\u0120parrot": 3094, "\u0120statue": 3095, "\u0120pebb": 3096, "\u0120helmet": 3097, "\u0120No": 3098, "\u0120fountain": 3099, "\u0120raven": 3100, "\u0120ang": 3101, "\u0120pasta": 3102, "\u0120umbrella": 3103, "\u0120compet": 3104, "There": 3105, "\u0120jacket": 3106, "\u0120belonged": 3107, "\u0120dest": 3108, "\u0120filthy": 3109, "\u0120design": 3110, "\u0120borrow": 3111, "\u0120cam": 3112, "erable": 3113, "\u0120houses": 3114, "\u0120prize": 3115, "\u0120hay": 3116, "\u0120brace": 3117, "\u0120standing": 3118, "\u0120miserable": 3119, "\u0120raced": 3120, "\u0120taken": 3121, "ages": 3122, "\u0120fork": 3123, "\u0120crayon": 3124, "\u0120painting": 3125, "io": 3126, "\u0120triang": 3127, "\u0120impressive": 3128, "\u0120choose": 3129, "\u0120fig": 3130, "\u0120tied": 3131, "iable": 3132, "\u0120spotted": 3133, "\u0120lifted": 3134, "\u0120slipped": 3135, "ours": 3136, "\u0120tank": 3137, "\u0120thoughtful": 3138, "\u0120dependable": 3139, "\u0120steal": 3140, "\u0120garage": 3141, "enny": 3142, "\u0120built": 3143, "\u0120mush": 3144, "\u0120er": 3145, "ipe": 3146, "\u0120mole": 3147, "\u0120crawled": 3148, "\u0120scale": 3149, "\u0120boats": 3150, "\u0120pian": 3151, "\u0120pant": 3152, "\u0120hammer": 3153, "\u0120bottom": 3154, "lph": 3155, "\u0120cheerful": 3156, "\u0120using": 3157, "\u0120smoke": 3158, "\u0120picks": 3159, "\u0120moder": 3160, "berries": 3161, "\u0120shows": 3162, "rn": 3163, "\u0120piano": 3164, "\u0120magnet": 3165, "dile": 3166, "codile": 3167, "\u0120hurts": 3168, "inary": 3169, "\u0120ref": 3170, "\u0120crack": 3171, "\u0120eng": 3172, "\u0120aunt": 3173, "\u0120melon": 3174, "\u0120waff": 3175, "\u0120modern": 3176, "\u0120dolph": 3177, "unnel": 3178, "cream": 3179, "pack": 3180, "\u0120tunnel": 3181, "oin": 3182, "\u0120arrow": 3183, "\u0120reliable": 3184, "\u0120hopping": 3185, "\u0120mushroom": 3186, "\u0120jug": 3187, "Timmy": 3188, "\u0120squash": 3189, "\u0120sink": 3190, "\u0120gum": 3191, "\u0120movie": 3192, "\u0120tax": 3193, "\u0120flute": 3194, "\u0120beet": 3195, "\u0120lean": 3196, "Their": 3197, "iv": 3198, "\u0120popular": 3199, "opter": 3200, "icopter": 3201, "\u0120cryst": 3202, "\u0120ones": 3203, "\u0120sil": 3204, "\u0120competit": 3205, "\u0120helicopter": 3206, "aser": 3207, "\u0120needs": 3208, "ipop": 3209, "llipop": 3210, "\u0120crocodile": 3211, "\u0120liz": 3212, "Molly": 3213, "\u0120press": 3214, "\u0120troubled": 3215, "\u0120pige": 3216, "\u0120locked": 3217, "\u0120tricks": 3218, "\u0120lollipop": 3219, "\u0120playful": 3220, "\u0120humble": 3221, "\u0120taxi": 3222, "appy": 3223, "\u0120kissed": 3224, "\u0120low": 3225, "comfortable": 3226, "amond": 3227, "\u0120uncomfortable": 3228, "\u0120rid": 3229, "host": 3230, "\u0120wander": 3231, "atch": 3232, "\u0120angel": 3233, "edy": 3234, "cles": 3235, "\u0120torn": 3236, "\u0120grace": 3237, "\u0120anx": 3238, "\u0120wrapped": 3239, "\u0120muff": 3240, "\u0120twig": 3241, "\u0120pants": 3242, "\u0120disappoin": 3243, "\u0120Sn": 3244, "\u0120helps": 3245, "\u0120diamond": 3246, "\u0120camera": 3247, "atter": 3248, "oto": 3249, "\u0120anxious": 3250, "\u0120ghost": 3251, "\u0120tears": 3252, "\u0120ruined": 3253, "cident": 3254, "\u0120Jenny": 3255, "ilty": 3256, "\u0120quar": 3257, "aff": 3258, "\u0120Even": 3259, "\u0120fis": 3260, "opl": 3261, "\u0120belt": 3262, "eropl": 3263, "\u0120env": 3264, "\u0120guilty": 3265, "\u0120bull": 3266, "\u0120aeropl": 3267, "ext": 3268, "\u0120helpless": 3269, "\u0120happiness": 3270, "\u0120lizard": 3271, "\u0120boys": 3272, "cut": 3273, "\u0120cere": 3274, "\u0120walks": 3275, "cean": 3276, "\u0120passed": 3277, "\u0120meant": 3278, "\u0120ocean": 3279, "\u0120fluffy": 3280, "\u0120wire": 3281, "\u0120nail": 3282, "\u0120bracelet": 3283, "\u0120deaf": 3284, "zed": 3285, "\u0120stretch": 3286, "\u0120candle": 3287, "\u0120cact": 3288, "tt": 3289, "\u0120beetle": 3290, "\u0120mop": 3291, "\u0120harmless": 3292, "umpet": 3293, "\u0120ordinary": 3294, "\u0120answered": 3295, "\u0120cop": 3296, "\u0120collar": 3297, "\u0120bees": 3298, "\u0120tire": 3299, "\u0120shape": 3300, "\u0120quarrel": 3301, "\u0120radio": 3302, "\u0120flashlight": 3303, "\u0120crystal": 3304, "\u0120harder": 3305, "\u0120poured": 3306, "\u0120trumpet": 3307, "\u0120engine": 3308, "Mama": 3309, "\u0120persist": 3310, "\u0120hunt": 3311, "\u0120tooth": 3312, "\u0120cereal": 3313, "\u0120invited": 3314, "\u0120comput": 3315, "\u0120tag": 3316, "\u0120office": 3317, "\u0120melt": 3318, "\u0120spill": 3319, "\u0120charm": 3320, "\u0120lit": 3321, "coa": 3322, "\u0120scoot": 3323, "\u0120comet": 3324, "\u0120triangle": 3325, "ief": 3326, "\u0120mug": 3327, "\u0120rep": 3328, "ube": 3329, "\u0120yogurt": 3330, "\u0120spend": 3331, "\u0120compass": 3332, "\u0120accident": 3333, "\u0120shade": 3334, "hett": 3335, "aghett": 3336, "aghetti": 3337, "\u0120disappointed": 3338, "\u0120licked": 3339, "\u0120cactus": 3340, "\u0120pale": 3341, "\u0120cush": 3342, "\u0120figure": 3343, "\u0120regular": 3344, "\u0120giving": 3345, "\u0120avoc": 3346, "\u0120pro": 3347, "\u0120sheet": 3348, "\u0120whispered": 3349, "aze": 3350, "uth": 3351, "ellig": 3352, "\u0120create": 3353, "\u0120barber": 3354, "\u0120intellig": 3355, "\u0120pipe": 3356, "\u0120rode": 3357, "\u0120roof": 3358, "Jane": 3359, "\u0120thread": 3360, "ither": 3361, "\u0120vi": 3362, "\u0120load": 3363, "\u0120libr": 3364, "\u0120gifted": 3365, "ccol": 3366, "\u0120practiced": 3367, "\u0120delight": 3368, "ccoli": 3369, "asses": 3370, "\u0120pow": 3371, "\u0120harsh": 3372, "\u0120dust": 3373, "\u0120True": 3374, "\u0120bicy": 3375, "azz": 3376, "\u0120spaghetti": 3377, "\u0120compassion": 3378, "\u0120sailed": 3379, "urkey": 3380, "ubby": 3381, "\u0120forward": 3382, "\u0120persistent": 3383, "\u0120speed": 3384, "\u0120mitten": 3385, "\u0120cocoa": 3386, "\u0120envel": 3387, "\u0120questions": 3388, "\u0120computer": 3389, "\u0120coo": 3390, "\u0120feathers": 3391, "hip": 3392, "\u0120glove": 3393, "ging": 3394, "Bobo": 3395, "\u0120rice": 3396, "\u0120shrimp": 3397, "\u0120desk": 3398, "\u0120stream": 3399, "\u0120inse": 3400, "\u0120pigeon": 3401, "\u0120charming": 3402, "\u0120ears": 3403, "\u0120carp": 3404, "lcan": 3405, "\u0120raft": 3406, "\u0120envious": 3407, "\u0120knot": 3408, "\u0120turkey": 3409, "\u0120stronger": 3410, "omes": 3411, "\u0120coins": 3412, "\u0120tap": 3413, "lcano": 3414, "weet": 3415, "\u0120trap": 3416, "umbers": 3417, "\u0120aeroplane": 3418, "\u0120trunk": 3419, "\u0120wheat": 3420, "\u0120boxes": 3421, "\u0120chubby": 3422, "\u0120carpet": 3423, "\u0120restless": 3424, "\u0120intelligent": 3425, "\u0120tube": 3426, "\u0120spun": 3427, "\u0120dreams": 3428, "\u0120friendship": 3429, "ulif": 3430, "olin": 3431, "\u0120half": 3432, "\u0120loop": 3433, "\u0120crawl": 3434, "\u0120broccoli": 3435, "\u0120onion": 3436, "\u0120deliver": 3437, "anger": 3438, "\u0120acce": 3439, "\u0120vide": 3440, "\u0120volcano": 3441, "\u0120Jake": 3442, "\u0120sle": 3443, "\u0120track": 3444, "\u0120bri": 3445, "\u0120caulif": 3446, "\u0120vine": 3447, "ye": 3448, "\u0120ticket": 3449, "\u0120thief": 3450, "essie": 3451, "cycle": 3452, "\u0120louder": 3453, "\u0120insect": 3454, "\u0120numbers": 3455, "asing": 3456, "\u0120yaw": 3457, "\u0120haircut": 3458, "ital": 3459, "\u0120sleeping": 3460, "\u0120mill": 3461, "\u0120eventually": 3462, "\u0120alert": 3463, "\u0120excite": 3464, "\u0120pebble": 3465, "\u0120hosp": 3466, "\u0120attract": 3467, "\u0120planet": 3468, "\u0120Today": 3469, "\u0120univer": 3470, "isted": 3471, "ulu": 3472, "\u0120hospital": 3473, "\u0120eraser": 3474, "\u0120returned": 3475, "\u0120destro": 3476, "\u0120graceful": 3477, "\u0120happening": 3478, "ache": 3479, "\u0120OK": 3480, "\u0120Emily": 3481, "\u0120decide": 3482, "\u0120learning": 3483, "\u0120screen": 3484, "rework": 3485, "\u0120nicely": 3486, "\u0120leop": 3487, "\u0120cauliflower": 3488, "\u0120competitive": 3489, "\u0120poem": 3490, "\u0120celebrate": 3491, "\u0120curt": 3492, "\u0120peach": 3493, "\u0120soldier": 3494, "\u0120saus": 3495, "\u0120parade": 3496, "atient": 3497, "\u0120attractive": 3498, "\u0120curtain": 3499, "\u0120dolphin": 3500, "\u0120base": 3501, "\u0120violin": 3502, "\u0120ways": 3503, "Go": 3504, "ats": 3505, "\u0120travel": 3506, "ten": 3507, "\u0120rod": 3508, "\u0120ignorant": 3509, "ulb": 3510, "\u0120wheels": 3511, "\u0120yach": 3512, "\u0120scatter": 3513, "\u0120deter": 3514, "\u0120compassionate": 3515, "\u0120barrel": 3516, "\u0120envelope": 3517, "\u0120bubble": 3518, "\u0120lying": 3519, "\u0120firework": 3520, "\u0120sort": 3521, "\u0120question": 3522, "zzy": 3523, "\u0120Pipp": 3524, "\u0120scooter": 3525, "\u0120determ": 3526, "\u0120rag": 3527, "\u0120thu": 3528, "\u0120bicycle": 3529, "elery": 3530, "\u0120needle": 3531, "\u0120Fr": 3532, "\u0120judge": 3533, "\u0120bulb": 3534, "\u0120tem": 3535, "\u0120leopard": 3536, "\u0120yacht": 3537, "\u0120pony": 3538, "\u0120cricket": 3539, "\u0120order": 3540, "\u0120homes": 3541, "\u0120ador": 3542, "tern": 3543, "\u0120truth": 3544, "\u0120hook": 3545, "dom": 3546, "\u0120rubbed": 3547, "ete": 3548, "igator": 3549, "\u0120bushes": 3550, "Sarah": 3551, "\u0120uncle": 3552, "\u0120cushion": 3553, "\u0120spell": 3554, "\u0120grown": 3555, "\u0120cooked": 3556, "\u0120adorable": 3557, "\u0120chalk": 3558, "\u0120soar": 3559, "\u0120purse": 3560, "\u0120skin": 3561, "\u0120themselves": 3562, "\u0120impatient": 3563, "\u0120celery": 3564, "\u0120tray": 3565, "\u0120shells": 3566, "\u0120pengu": 3567, "\u0120sniff": 3568, "\u0120prun": 3569, "\u0120walls": 3570, "\u0120seal": 3571, "\u0120lively": 3572, "\u0120case": 3573, "\u0120alligator": 3574, "\u0120distant": 3575, "\u0120radish": 3576, "\u0120saying": 3577, "\u0120speak": 3578, "\u0120motorcycle": 3579, "\u0120meat": 3580, "\u0120send": 3581, "illa": 3582, "\u0120spinning": 3583, "\u0120forth": 3584, "\u0120counting": 3585, "\u0120enth": 3586, "\u0120bounced": 3587, "\u0120chain": 3588, "\u0120ed": 3589, "\u0120cleaning": 3590, "ebra": 3591, "\u0120film": 3592, "\u0120slept": 3593, "\u0120pit": 3594, "\u0120surf": 3595, "\u0120marry": 3596, "usia": 3597, "\u0120wallet": 3598, "\u0120enthusia": 3599, "\u0120metal": 3600, "urb": 3601, "ebook": 3602, "\u0120bin": 3603, "\u0120week": 3604, "\u0120notebook": 3605, "\u0120wiped": 3606, "\u0120skip": 3607, "ision": 3608, "chair": 3609, "\u0120biggest": 3610, "\u0120impro": 3611, "\u0120avocado": 3612, "\u0120behave": 3613, "\u0120destroy": 3614, "vator": 3615, "\u0120bandage": 3616, "\u0120laughs": 3617, "\u0120steak": 3618, "\u0120pattern": 3619, "\u0120Sh": 3620, "\u0120post": 3621, "\u0120elevator": 3622, "\u0120Buzz": 3623, "usie": 3624, "\u0120dive": 3625, "\u0120shut": 3626, "\u0120skipped": 3627, "\u0120unlock": 3628, "\u0120diary": 3629, "dest": 3630, "ject": 3631, "\u0120zebra": 3632, "\u0120bags": 3633, "ating": 3634, "\u0120armchair": 3635, "rage": 3636, "aged": 3637, "\u0120oy": 3638, "\u0120disturb": 3639, "\u0120pole": 3640, "\u0120showing": 3641, "\u0120gathered": 3642, "\u0120club": 3643, "\u0120nurse": 3644, "bul": 3645, "\u0120earth": 3646, "\u0120enc": 3647, "\u0120stranger": 3648, "\u0120sweater": 3649, "\u0120jellyfish": 3650, "\u0120screw": 3651, "\u0120temp": 3652, "\u0120Poppy": 3653, "\u0120compl": 3654, "\u0120mixer": 3655, "Give": 3656, "\u0120skull": 3657, "\u0120lime": 3658, "\u0120bump": 3659, "bulance": 3660, "\u0120ambulance": 3661, "nam": 3662, "\u0120father": 3663, "\u0120journal": 3664, "Gra": 3665, "\u0120loudly": 3666, "ito": 3667, "\u0120folder": 3668, "\u0120shield": 3669, "\u0120Bet": 3670, "\u0120Lulu": 3671, "\u0120library": 3672, "\u0120Peter": 3673, "\u0120buttons": 3674, "\u0120playground": 3675, "\u0120trucks": 3676, "\u0120ink": 3677, "\u0120lights": 3678, "\u0120tummy": 3679, "\u0120pointing": 3680, "\u0120city": 3681, "\u0120decorate": 3682, "\u0120station": 3683, "irit": 3684, "\u0120prep": 3685, "\u0120falls": 3686, "quito": 3687, "\u0120Polly": 3688, "\u0120fu": 3689, "Billy": 3690, "\u0120Fo": 3691, "ention": 3692, "nger": 3693, "\u0120Birdy": 3694, "lies": 3695, "\u0120herb": 3696, "nament": 3697, "\u0120ornament": 3698, "\u0120modest": 3699, "\u0120guard": 3700, "\u0120mos": 3701, "\u0120knows": 3702, "\u0120cord": 3703, "\u0120polish": 3704, "\u0120marble": 3705, "oby": 3706, "\u0120mosquito": 3707, "umbled": 3708, "\u0120salt": 3709, "\u0120attic": 3710, "\u0120whenever": 3711, "\u0120vest": 3712, "ctop": 3713, "\u0120resc": 3714, "\u0120yet": 3715, "\u0120ple": 3716, "\u0120disappeared": 3717, "ceed": 3718, "\u0120strawberry": 3719, "\u0120once": 3720, "\u0120Mum": 3721, "\u0120kay": 3722, "\u0120brothers": 3723, "\u0120itch": 3724, "\u0120pirate": 3725, "\u0120football": 3726, "\u0120split": 3727, "kele": 3728, "keleton": 3729, "\u0120hipp": 3730, "\u0120aut": 3731, "\u0120led": 3732, "uring": 3733, "ctopus": 3734, "\u0120driving": 3735, "\u0120cable": 3736, "\u0120support": 3737, "\u0120calling": 3738, "\u0120cupboard": 3739, "aky": 3740, "ushed": 3741, "\u0120wishes": 3742, "\u0120complet": 3743, "\u0120tripped": 3744, "\u0120root": 3745, "\u0120kayak": 3746, "\u0120octopus": 3747, "obile": 3748, "\u0120added": 3749, "\u0120edge": 3750, "\u0120mild": 3751, "stic": 3752, "\u0120determined": 3753, "\u0120succeed": 3754, "?\".": 3755, "\u0120reading": 3756, "omobile": 3757, "\u0120coal": 3758, "Well": 3759, "gl": 3760, "utes": 3761, "par": 3762, "\u0120suggest": 3763, "\u0120stack": 3764, "\u0120thunder": 3765, "\u0120kindness": 3766, "\u0120automobile": 3767, "\u0120complain": 3768, "\u0120enthusiastic": 3769, "\u0120sneeze": 3770, "\u0120cartoon": 3771, "\u0120yoga": 3772, "\u0120Little": 3773, "\u0120growl": 3774, "htub": 3775, "\u0120flea": 3776, "la": 3777, "\u0120meadow": 3778, "\u0120drawer": 3779, "\u0120bathtub": 3780, "\u0120ribb": 3781, "ophone": 3782, "\u0120hall": 3783, "\u0120golf": 3784, "\u0120means": 3785, "\u0120skeleton": 3786, "\u0120math": 3787, "\u0120veil": 3788, "\u0120hunter": 3789, "\u0120gor": 3790, "\u0120flame": 3791, "\u0120poke": 3792, "\u0120video": 3793, "\u0120chess": 3794, "\u0120troph": 3795, "\u0120cups": 3796, "\u0120glowing": 3797, "\u0120matt": 3798, "\u0120oyster": 3799, "work": 3800, "\u0120penny": 3801, "\u0120spear": 3802, "\u0120itself": 3803, "\u0120drawings": 3804, "\u0120hippo": 3805, "\u0120repair": 3806, "\u0120switch": 3807, "glasses": 3808, "\u0120sunglasses": 3809, "\u0120teleph": 3810, "\u0120costume": 3811, "\u0120dess": 3812, "\u0120zipp": 3813, ",\u00e2\u0122\u013f": 3814, "\u0120repe": 3815, "\u0120muffin": 3816, "\u0120arg": 3817, "\u0120pastry": 3818, "\u0120pun": 3819, "\u0120rolling": 3820, "\u0120minutes": 3821, "\u0120packed": 3822, "\u0120makeup": 3823, "iron": 3824, "ric": 3825, "\u0120People": 3826, "\u0120waffle": 3827, "case": 3828, "\u0120handle": 3829, "\u0120pear": 3830, "\u0120maze": 3831, "\u0120telephone": 3832, "\u0120pine": 3833, "ait": 3834, "\u0120gear": 3835, "\u0120hedge": 3836, "\u0120mattress": 3837, "\u0120package": 3838, "aving": 3839, "\u0120Miss": 3840, "\u0120shocked": 3841, "ines": 3842, "\u0120trophy": 3843, "\u0120powder": 3844, "\u0120knight": 3845, "\u0120cob": 3846, "\u0120missile": 3847, "\u0120managed": 3848, "\u0120frame": 3849, "\u0120encou": 3850, "\u0120wife": 3851, "\u0120ok": 3852, "\u0120separ": 3853, "web": 3854, "\u0120stairs": 3855, "\u0120rot": 3856, "\u0120camp": 3857, "urch": 3858, "rophone": 3859, "\u0120magaz": 3860, "\u0120strugg": 3861, "\u0120colour": 3862, "\u0120grapes": 3863, "time": 3864, "\u0120file": 3865, "head": 3866, "\u0120Tina": 3867, "\u0120basketball": 3868, "Bye": 3869, "old": 3870, "per": 3871, "Re": 3872, "\u0120cobweb": 3873, "Jimmy": 3874, "\u0120Tweet": 3875, "See": 3876, "\u0120perm": 3877, "\u0120wool": 3878, "\u0120Dan": 3879, "\u0120microphone": 3880, "esday": 3881, "\u0120eye": 3882, "\u0120leash": 3883, "\u0120gasp": 3884, "iew": 3885, "keep": 3886, "\u0120weep": 3887, "\u0120barking": 3888, "ature": 3889, "\u0120safely": 3890, "\u0120tear": 3891, "\u0120view": 3892, "ffe": 3893, "\u0120slides": 3894, "\u0120steps": 3895, "istol": 3896, "ffee": 3897, "\u0120bananas": 3898, "\u0120staff": 3899, "\u0120spirit": 3900, "\u0120task": 3901, "\u0120giggled": 3902, "\u0120hoc": 3903, "\u0120hockey": 3904, "\u0120vend": 3905, "\u0120those": 3906, "\u0120gorilla": 3907, "Jill": 3908, "\u0120cooler": 3909, "was": 3910, "\u0120Rose": 3911, "cing": 3912, "\u0120early": 3913, "\u0120marched": 3914, "rosc": 3915, "\u0120mint": 3916, "\u0120Look": 3917, "washer": 3918, "\u0120flour": 3919, "\u0120hotel": 3920, "hic": 3921, "\u0120sailor": 3922, "\u0120dessert": 3923, "\u0120photo": 3924, "roscope": 3925, "\u0120vehic": 3926, "ilot": 3927, "\u0120often": 3928, "\u0120church": 3929, "\u0120Pete": 3930, "\u0120cooking": 3931, "\u0120remain": 3932, "\u0120five": 3933, "\u0120ot": 3934, "\u0120sausage": 3935, "\u0120ten": 3936, "\u0120tools": 3937, "\u0120medal": 3938, "\u0120either": 3939, "\u0120fireman": 3940, "chor": 3941, "\u0120grandpa": 3942, "\u0120otter": 3943, "\u0120baseball": 3944, "\u0120pretending": 3945, "\u0120pistol": 3946, "\u0120dishwasher": 3947, "\u0120rever": 3948, "\u0120organize": 3949, "\u0120pee": 3950, "\u0120vendor": 3951, "\u0120knock": 3952, "\u0120sight": 3953, "\u0120grill": 3954, "\u0120temple": 3955, "\u0120battery": 3956, "\u0120thinking": 3957, "\u0120opens": 3958, "\u0120ow": 3959, "\u0120realised": 3960, "\u0120iron": 3961, "\u0120laser": 3962, "\u0120sne": 3963, "\u0120sandbox": 3964, "\u0120oil": 3965, "\u0120patch": 3966, "\u0120hours": 3967, "\u0120rise": 3968, "\u0120whip": 3969, "'d": 3970, "ctory": 3971, "\u0120Give": 3972, "\u0120anchor": 3973, "\u0120trash": 3974, "ense": 3975, "\u0120short": 3976, "ney": 3977, "\u0120Betty": 3978, "\u0120rhin": 3979, "\u0120factory": 3980, "seum": 3981, "\u0120may": 3982, "\u0120ward": 3983, "ately": 3984, "\u0120cardboard": 3985, "ugged": 3986, "\u0120lotion": 3987, "Al": 3988, "\u0120message": 3989, "\u0120valu": 3990, "\u0120wardrobe": 3991, "\u0120cell": 3992, "\u0120museum": 3993, "apers": 3994, "\u0120ur": 3995, "ination": 3996, "\u0120hanging": 3997, "ucet": 3998, "\u0120Sunny": 3999, "ailable": 4000, "\u0120Zoom": 4001, "\u0120hive": 4002, "eer": 4003, "\u0120towers": 4004, "keeper": 4005, "\u0120blackboard": 4006, "\u0120mem": 4007, "\u0120excitement": 4008, "\u0120coffee": 4009, "\u0120pilot": 4010, "Fluffy": 4011, "ready": 4012, "\u0120napkin": 4013, "\u0120penguin": 4014, "ron": 4015, "\u0120check": 4016, "\u0120reward": 4017, "loo": 4018, "\u0120quit": 4019, "\u0120Pippin": 4020, "\u0120cane": 4021, "\u0120picking": 4022, "place": 4023, "\u0120Snow": 4024, "azor": 4025, "\u0120faucet": 4026, "\u0120ig": 4027, "\u0120passport": 4028, "\u0120Rob": 4029, "\u0120stumbled": 4030, "\u0120dreamed": 4031, "\u0120igloo": 4032, "\u0120Bessie": 4033, "aroo": 4034, "angaroo": 4035, "\u0120freez": 4036, "play": 4037, "\u0120juicy": 4038, "\u0120allowed": 4039, "\u0120holds": 4040, "\u0120already": 4041, "\u0120available": 4042, "\u0120sett": 4043, "\u0120bathe": 4044, "\u0120tornado": 4045, "imney": 4046, "\u0120fingers": 4047, "htray": 4048, "\u0120hanger": 4049, "\u0120newsp": 4050, "\u0120size": 4051, "\u0120laund": 4052, "\u0120lend": 4053, "\u0120chimney": 4054, "\u0120laundry": 4055, "\u0120oak": 4056, "\u0120fisher": 4057, "\u0120kangaroo": 4058, "\u0120men": 4059, "\u0120Everywhere": 4060, "\u0120telling": 4061, "Em": 4062, "\u0120novel": 4063, "body": 4064, "\u0120mummy": 4065, "\u0120pal": 4066, "\u0120mule": 4067, "\u0120notice": 4068, "\u0120cherries": 4069, "\u0120practice": 4070, "\u0120spilled": 4071, "\u0120reind": 4072, "\u0120complete": 4073, "\u0120enjoying": 4074, "\u0120microscope": 4075, "arian": 4076, "ampoo": 4077, "\u0120gain": 4078, "\u0120sub": 4079, "\u0120fireplace": 4080, "\u0120imagine": 4081, "anda": 4082, "\u0120display": 4083, "ocer": 4084, "\u0120Zip": 4085, "\u0120fastest": 4086, "\u0120magazine": 4087, "\u0120hurry": 4088, "\u0120cabinet": 4089, "\u0120shrink": 4090, "\u0120ashtray": 4091, "Wait": 4092, "\u0120cows": 4093, "\u0120Spike": 4094, "Joe": 4095, "gen": 4096, "\u0120palace": 4097, "\u0120improve": 4098, "aches": 4099, "\u0120rake": 4100, "\u0120reindeer": 4101, "\u0120falling": 4102, "oceros": 4103, "\u0120skirt": 4104, "ured": 4105, "\u0120discovered": 4106, "\u0120stared": 4107, "\u0120roared": 4108, "aid": 4109, "\u0120silver": 4110, "\u0120tub": 4111, "\u0120trail": 4112, "Is": 4113, "\u0120miner": 4114, "come": 4115, "\u0120bill": 4116, "iction": 4117, "\u0120fog": 4118, "\u0120ax": 4119, "stairs": 4120, "ilet": 4121, "\u0120hut": 4122, "\u0120happier": 4123, "\u0120taller": 4124, "ictionary": 4125, "\u0120oats": 4126, "\u0120fisherman": 4127, "\u0120object": 4128, "\u0120por": 4129, "vision": 4130, "\u0120valuable": 4131, "\u0120shampoo": 4132, "\u0120holes": 4133, "\u0120offered": 4134, "\u0120boots": 4135, "\u0120rhinoceros": 4136, "\u0120names": 4137, "\u0120toilet": 4138, "\u0120climbing": 4139, "\u0120blin": 4140, "vice": 4141, "Ow": 4142, "\u0120stretched": 4143, "iest": 4144, "\u0120zipper": 4145, "\u0120listening": 4146, "\u0120sym": 4147, "\u0120bathrobe": 4148, "alend": 4149, "\u0120jewelry": 4150, "\u0120Here": 4151, "\u0120jokes": 4152, "\u0120television": 4153, "\u0120prov": 4154, "\u0120calend": 4155, "\u0120stops": 4156, "\u0120axe": 4157, "\u0120jumps": 4158, "\u0120fuel": 4159, "cu": 4160, "\u0120sparkly": 4161, "\u0120perfume": 4162, "\u0120Susie": 4163, "\u0120bury": 4164, "bol": 4165, "Mummy": 4166, "lu": 4167, "\u0120pressed": 4168, "\u0120Kim": 4169, "reek": 4170, "fa": 4171, "\u0120rece": 4172, "\u0120Toby": 4173, "\u0120neat": 4174, "\u0120creek": 4175, "\u0120popped": 4176, "\u0120opera": 4177, "\u0120calendar": 4178, "\u0120snap": 4179, "\u0120gasped": 4180, "\u0120attach": 4181, "\u0120symbol": 4182, "\u0120tuna": 4183, "\u0120Mar": 4184, "Mr": 4185, "\u0120papers": 4186, "\u0120unpack": 4187, "\u0120resist": 4188, "\u0120dictionary": 4189, "\u0120subway": 4190, "\u0120letters": 4191, "\u0120freezer": 4192, "\u0120chose": 4193, "\u0120pinch": 4194, "zag": 4195, "\u0120spoke": 4196, "\u0120anyway": 4197, "\u0120super": 4198, "\u0120porch": 4199, "\u0120helper": 4200, "affe": 4201, "\u0120bikes": 4202, "\u0120lie": 4203, "arry": 4204, "iches": 4205, "\u0120tightly": 4206, "\u0120comfort": 4207, "\u0120shaking": 4208, "\u0120bookcase": 4209, "\u0120son": 4210, "\u0120razor": 4211, "aurant": 4212, "\u0120sandwiches": 4213, "\u0120Are": 4214, "igzag": 4215, "\u0120weigh": 4216, "\u0120against": 4217, "\u0120stickers": 4218, "\u0120restaurant": 4219, "\u0120newspaper": 4220, "\u0120blouse": 4221, "\u0120vehicle": 4222, "\u0120swinging": 4223, "\u0120ped": 4224, "\u0120disag": 4225, "\u0120nature": 4226, "\u0120squirrels": 4227, "ival": 4228, "\u0120belongs": 4229, "\u0120swamp": 4230, "\u0120butterflies": 4231, "\u0120gym": 4232, "del": 4233, "\u0120inclu": 4234, "\u0120growing": 4235, "\u0120buckle": 4236, "omed": 4237, "\u0120stirred": 4238, "\u0120mustache": 4239, "\u0120billboard": 4240, "xy": 4241, "\u0120beep": 4242, "te": 4243, "\u0120alarm": 4244, "\u0120lightning": 4245, "\u0120lip": 4246, "\u0120fest": 4247, "\u0120hung": 4248, "utor": 4249, "\u0120distance": 4250, "ogn": 4251, "\u0120cards": 4252, "\u0120obser": 4253, "\u0120agree": 4254, "Little": 4255, "\u0120ext": 4256, "\u0120tease": 4257, "\u0120recogn": 4258, "\u0120rubber": 4259, "ik": 4260, "\u0120hate": 4261, "fast": 4262, "ef": 4263, "Ouch": 4264, "\u0120doesn": 4265, "\u0120musician": 4266, "\u0120advice": 4267, "\u0120beef": 4268, "\u0120serve": 4269, "aspoon": 4270, "\u0120sweetie": 4271, "\u0120model": 4272, "lter": 4273, "\u0120crib": 4274, "\u0120blueberries": 4275, "\u0120sofa": 4276, "\u0120circles": 4277, "\u0120breakfast": 4278, "\u0120tutor": 4279, "asis": 4280, "\u0120bookshe": 4281, "\u0120giraffe": 4282, "stri": 4283, "\u0120festival": 4284, "\u0120separate": 4285, "\u0120shelter": 4286, "\u0120gas": 4287, "\u0120airport": 4288, "\u0120olive": 4289, "\u0120rail": 4290, "\u0120bookshelf": 4291, "\u0120frogs": 4292, "\u0120teaspoon": 4293, "\u0120reverse": 4294, "\u0120junk": 4295, "\u0120riding": 4296, "\u0120pleased": 4297, "\u0120drain": 4298, "\u0120Mrs": 4299, "\u0120wipe": 4300, "\u0120oasis": 4301, "\u0120soil": 4302, "\u0120ahead": 4303, "\u0120rescue": 4304, "\u0120leaving": 4305, "ummer": 4306, "\u0120painter": 4307, "\u0120squeeze": 4308, "\u0120chance": 4309, "\u0120poked": 4310, "\u0120knob": 4311, "\u0120Teddy": 4312, "\u0120peeked": 4313, "\u0120lumber": 4314, "\u0120trains": 4315, "\u0120extra": 4316, "\u0120slipp": 4317, "\u0120quiz": 4318, "\u0120refused": 4319, "res": 4320, "rmomet": 4321, "\u0120page": 4322, "\u0120rules": 4323, "\u0120ins": 4324, "\u0120happens": 4325, "\u0120sounded": 4326, "\u0120point": 4327, "\u0120winter": 4328, "\u0120dancer": 4329, "\u0120Grandpa": 4330, "\u0120birdc": 4331, "\u0120disappear": 4332, "rmometer": 4333, "\u0120Dolly": 4334, "\u0120weather": 4335, "\u0120waste": 4336, "\u0120lic": 4337, "\u0120birdcage": 4338, "\u0120theater": 4339, "\u0120reef": 4340, "\u0120carrying": 4341, "Daisy": 4342, "\u0120invite": 4343, "iform": 4344, "\u0120goal": 4345, "\u0120ostri": 4346, "\u0120uniform": 4347, "\u0120swung": 4348, "\u0120trade": 4349, "\u0120cliff": 4350, "ience": 4351, "\u0120lawn": 4352, "ola": 4353, "\u0120leaned": 4354, "\u0120Pandy": 4355, "angu": 4356, "\u0120accept": 4357, "\u0120admire": 4358, "\u0120fort": 4359, "\u0120accidentally": 4360, "\u0120pastel": 4361, "bbles": 4362, "\u0120stom": 4363, "\u0120langu": 4364, "\u0120twir": 4365, "\u0120suff": 4366, "\u0120panda": 4367, "riger": 4368, "\u0120bet": 4369, "rigerator": 4370, "\u0120peek": 4371, "render": 4372, "\u0120blinked": 4373, "\u0120starts": 4374, "na": 4375, "\u0120refrigerator": 4376, "\u0120anywhere": 4377, "!\".": 4378, "\u0120imagined": 4379, "\u0120dreaming": 4380, "\u0120remove": 4381, "night": 4382, "\u0120shower": 4383, "\u0120Lee": 4384, "\u0120Co": 4385, "\u0120classroom": 4386, "\u0120ceiling": 4387, "\u0120caring": 4388, "ium": 4389, "\u0120grand": 4390, "\u0120missing": 4391, "aked": 4392, "\u0120license": 4393, "\u0120stable": 4394, "\u0120thermometer": 4395, "\u0120monkeys": 4396, "astic": 4397, "\u0120warned": 4398, "\u0120summer": 4399, "\u0120Where": 4400, "\u0120above": 4401, "\u0120brick": 4402, "ected": 4403, "\u0120cudd": 4404, "\u0120problems": 4405, "amber": 4406, "\u0120chasing": 4407, "\u0120label": 4408, "\u0120apron": 4409, "\u0120sent": 4410, "urnit": 4411, "urniture": 4412, "\u0120lawy": 4413, "\u0120lid": 4414, "uggage": 4415, "med": 4416, "\u0120respectful": 4417, "\u0120furniture": 4418, "\u0120frowned": 4419, "\u0120zoomed": 4420, "\u0120pages": 4421, "\u0120prevent": 4422, "\u0120bent": 4423, "\u0120luggage": 4424, "\u0120mistakes": 4425, "\u0120sunset": 4426, "\u0120ostrich": 4427, "ison": 4428, "\u0120suggested": 4429, "\u0120windows": 4430, "ations": 4431, "\u0120jail": 4432, "low": 4433, "\u0120wine": 4434, "\u0120ribbon": 4435, "\u0120older": 4436, "\u0120shouts": 4437, "\u0120grape": 4438, "\u0120Cl": 4439, "\u0120wigg": 4440, "ucture": 4441, "\u0120structure": 4442, "\u0120spoil": 4443, "eor": 4444, "\u0120fixing": 4445, "\u0120chamber": 4446, "\u0120lions": 4447, "\u0120delay": 4448, "\u0120finds": 4449, "\u0120handed": 4450, "\u0120searching": 4451, "\u0120unite": 4452, "Did": 4453, "\u0120fought": 4454, "\u0120lawyer": 4455, "\u0120brightly": 4456, "\u0120pair": 4457, "\u0120meeting": 4458, "\u0120choice": 4459, "\u0120surprises": 4460, "\u0120Ellie": 4461, "\u0120art": 4462, "\u0120Un": 4463, "Ch": 4464, "\u0120favour": 4465, "eterin": 4466, "eterinarian": 4467, "adium": 4468, "\u0120stadium": 4469, "\u0120proudly": 4470, "iki": 4471, "\u0120veterinarian": 4472, "vet": 4473, "rod": 4474, "\u0120chairs": 4475, "\u0120slip": 4476, "\u0120Spe": 4477, "\u0120sadly": 4478, "\u0120Bow": 4479, "\u0120incre": 4480, "\u0120Carl": 4481, "\u0120puddles": 4482, "\u0120berry": 4483, "\u0120introd": 4484, "\u0120ranch": 4485, "veal": 4486, "\u0120Boun": 4487, "\u0120argue": 4488, "\u0120V": 4489, "\u0120admired": 4490, "\u0120cur": 4491, "\u0120favourite": 4492, "Your": 4493, "\u0120inf": 4494, "\u0120excitedly": 4495, "\u0120rac": 4496, "\u0120grabs": 4497, "mend": 4498, "\u0120steam": 4499, "thank": 4500, "\u0120human": 4501, "eorge": 4502, "sity": 4503, "\u0120Hel": 4504, "\u0120pushing": 4505, "\u0120saving": 4506, "\u0120Red": 4507, "\u0120reveal": 4508, "ommend": 4509, "alley": 4510, "\u0120yield": 4511, "olog": 4512, "\u0120mall": 4513, "\u0120reminded": 4514, "\u0120recommend": 4515, "\u0120leak": 4516, "\u0120surrender": 4517, "\u0120harb": 4518, "\u0120appl": 4519, "cuss": 4520, "aul": 4521, "\u0120weap": 4522, "\u0120regret": 4523, "\u0120putting": 4524, "\u0120valley": 4525, "\u0120mineral": 4526, "\u0120evening": 4527, "elcome": 4528, "\u0120matches": 4529, "\u0120forgave": 4530, "\u0120sneezed": 4531, "\u0120aw": 4532, "\u0120pup": 4533, "\u0120rushed": 4534, "ecause": 4535, "\u0120spade": 4536, "\u0120apolog": 4537, "\u0120plates": 4538, "\u0120discuss": 4539, "\u0120prepare": 4540, "\u0120harbor": 4541, "\u0120ignore": 4542, "\u0120Big": 4543, "\u0120country": 4544, "\u0120language": 4545, "\u0120Buzzy": 4546, "\u0120pulls": 4547, "\u0120plastic": 4548, "\u0120supply": 4549, "\u0120float": 4550, "\u0120sniffed": 4551, "\u0120Jazz": 4552, "\u0120replace": 4553, "\u0120meas": 4554, "\u0120shovel": 4555, "\u0120Bill": 4556, "\u0120raise": 4557, "\u0120Next": 4558, "\u0120fre": 4559, "\u0120cared": 4560, "\u0120socks": 4561, "\u0120strip": 4562, "\u0120doors": 4563, "\u0120mystery": 4564, "\u0120lives": 4565, "\u0120restore": 4566, "\u0120sticker": 4567, "\u0120sudden": 4568, "ari": 4569, "\u0120kinds": 4570, "\u0120slippery": 4571, "ero": 4572, "\u0120Ow": 4573, "\u0120player": 4574, "\u0120panic": 4575, "ricane": 4576, "\u0120hoping": 4577, "iday": 4578, "\u0120shone": 4579, "lex": 4580, "hero": 4581, "\u0120beg": 4582, "\u0120Mike": 4583, "\u0120Binky": 4584, "\u0120superhero": 4585, "\u0120delighted": 4586, "\u0120gro": 4587, "Yay": 4588, "aud": 4589, "chan": 4590, "\u0120chickens": 4591, "\u0120shoulder": 4592, "\u0120rained": 4593, "\u0120colourful": 4594, "\u0120breat": 4595, "\u0120Alice": 4596, "\u0120claw": 4597, "\u0120Bubbles": 4598, "Yuck": 4599, "\u0120softly": 4600, "rise": 4601, "\u0120port": 4602, "Grandma": 4603, "\u0120hol": 4604, "icer": 4605, "\u0120holiday": 4606, "\u0120\u00e2\u0122": 4607, "\u0120barks": 4608, "ason": 4609, "\u0120throwing": 4610, "\u0120planes": 4611, "Mary": 4612, "\u0120bend": 4613, "\u0120Freddy": 4614, "\u0120shakes": 4615, "\u0120infant": 4616, "\u0120ended": 4617, "\u0120shivering": 4618, "\u0120kneel": 4619, "\u0120sunrise": 4620, "\u0120pushes": 4621, "\u0120Olive": 4622, "\u0120thanks": 4623, "\u0120fresh": 4624, "\u0120suffer": 4625, "\u0120points": 4626, "imed": 4627, "wards": 4628, "\u0120Pat": 4629, "\u0120tip": 4630, "\u0120Speedy": 4631, "\u0120freeze": 4632, "\u0120keeping": 4633, "\u0120Would": 4634, "\u0120giggle": 4635, "\u0120copper": 4636, "\u0120smells": 4637, "\u0120dear": 4638, "\u0120enter": 4639, "\u0120provide": 4640, "cast": 4641, "chanic": 4642, "\u0120dishes": 4643, "\u0120End": 4644, "cond": 4645, "\u0120unh": 4646, "Next": 4647, "\u0120applaud": 4648, "\u0120heads": 4649, "\u0120hurricane": 4650, "\u0120cherry": 4651, "\u0120thumb": 4652, "\u0120menu": 4653, "\u0120meowed": 4654, "\u0120mass": 4655, "\u0120second": 4656, "\u0120brighter": 4657, "ince": 4658, "\u0120sandcast": 4659, "\u0120mechanic": 4660, "\u0120wre": 4661, "\u0120sprayed": 4662, "\u0120letting": 4663, "\u0120event": 4664, "\u0120weapon": 4665, "\u0120laught": 4666, "\u0120x": 4667, "\u0120laughter": 4668, "\u0120clapping": 4669, "\u0120feelings": 4670, "Will": 4671, "icky": 4672, "\u0120splashing": 4673, "ement": 4674, "\u0120Or": 4675, "acked": 4676, "\u0120castles": 4677, "\u0120Fl": 4678, "cer": 4679, "\u0120score": 4680, "apping": 4681, "\u0120universe": 4682, "\u0120navy": 4683, "\u0120dem": 4684, "\u0120sticky": 4685, "ophie": 4686, "\u0120rooms": 4687, "\u0120row": 4688, "\u0120flies": 4689, "igi": 4690, "\u0120Dave": 4691, "\u0120unhappy": 4692, "\u0120greedy": 4693, "\u0120dare": 4694, "\u0120alive": 4695, "\u0120breaks": 4696, "\u0120ener": 4697, "\u0120courage": 4698, "\u0120invit": 4699, "Ready": 4700, "\u0120repeat": 4701, "\u0120demand": 4702, "\u0120trusted": 4703, "Lisa": 4704, "\u0120somewhere": 4705, "arlie": 4706, "\u0120prune": 4707, "bles": 4708, "\u0120wreck": 4709, "\u0120Y": 4710, "\u0120skill": 4711, "\u0120examine": 4712, "\u0120parts": 4713, "year": 4714, "\u0120eaten": 4715, "oe": 4716, "All": 4717, "erc": 4718, "enry": 4719, "\u0120mention": 4720, "\u0120raining": 4721, "\u0120Help": 4722, "Buddy": 4723, "\u0120throws": 4724, "\u0120jogged": 4725, "quest": 4726, "\u0120starting": 4727, "\u0120rush": 4728, "\u0120poison": 4729, "\u0120pirates": 4730, "heart": 4731, "\u0120vac": 4732, "\u0120content": 4733, "Emma": 4734, "\u0120Kiki": 4735, "\u0120sigh": 4736, "\u0120flapped": 4737, "\u0120drops": 4738, "\u0120chirp": 4739, "\u0120sport": 4740, "Qu": 4741, "\u0120sparkled": 4742, "\u0120Zoomy": 4743, "\u0120given": 4744, "\u0120streng": 4745, "\u0120steel": 4746, "Ann": 4747, "\u0120bumped": 4748, "\u0120yawned": 4749, "\u0120stud": 4750, "\u0120request": 4751, "\u0120scold": 4752, "\u0120myself": 4753, "\u0120strength": 4754, "\u0120shrugged": 4755, "Mark": 4756, "\u0120coats": 4757, "\u0120punish": 4758, "\u0120equ": 4759, "\u0120snugg": 4760, "\u0120university": 4761, "\u0120paid": 4762, "\u0120Johnny": 4763, "\u0120pigs": 4764, "\u0120scratch": 4765, "\u0120toe": 4766, "\u0120exerc": 4767, "\u0120tracks": 4768, "\u0120upstairs": 4769, "\u0120prayed": 4770, "\u0120crossed": 4771, "\u0120squeezed": 4772, "\u0120impressed": 4773, "\u0120flood": 4774, "\u0120bouncing": 4775, "\u0120Ru": 4776, "Alice": 4777, "\u0120rabbits": 4778, "ges": 4779, "\u0120badly": 4780, "..": 4781, "\u0120warn": 4782, "\u0120leather": 4783, "\u0120expect": 4784, "\u0120news": 4785, "\u0120tide": 4786, "\u0120Ted": 4787, "\u0120minute": 4788, "\u0120bears": 4789, "\u0120claws": 4790, "\u0120buzz": 4791, "\u0120sweetheart": 4792, "\u0120Sm": 4793, "yth": 4794, "\u0120nation": 4795, "Sh": 4796, "ythm": 4797, "\u0120vacation": 4798, "\u0120hist": 4799, "\u0120heat": 4800, "\u0120strawberries": 4801, "\u0120observe": 4802, "\u0120explored": 4803, "\u0120settle": 4804, "\u0120sandcastle": 4805, "\u0120yawn": 4806, "\u0120history": 4807, "\u0120Lilly": 4808, "\u0120Lola": 4809, "mare": 4810, "\u0120Mummy": 4811, "\u0120Sque": 4812, "ially": 4813, "inking": 4814, "\u0120believed": 4815, "\u0120horses": 4816, "Daddy": 4817, "\u0120Hoppy": 4818, "\u0120checked": 4819, "\u0120Mandy": 4820, "\u0120tour": 4821, "\u0120network": 4822, "\u0120cheek": 4823, "\u0120Under": 4824, "\u0120offer": 4825, "\u0120easily": 4826, "\u0120placed": 4827, "spec": 4828, "\u0120spots": 4829, "\u0120snowball": 4830, "ween": 4831, "men": 4832, "\u0120energy": 4833, "\u0120Bee": 4834, "\u0120imagination": 4835, "\u0120blueberry": 4836, "otten": 4837, "\u0120between": 4838, "specially": 4839, "\u0120Gigi": 4840, "izes": 4841, "\u0120daisy": 4842, "\u0120waving": 4843, "reeze": 4844, "reat": 4845, "\u0120vroom": 4846, "\u0120soak": 4847, "\u0120safari": 4848, "\u0120rhythm": 4849, "\u0120massage": 4850, "\u0120stomach": 4851, "\u0120baking": 4852, "quake": 4853, "\u0120nightmare": 4854, "\u0120insisted": 4855, "\u0120blowing": 4856, "\u0120entered": 4857, "Before": 4858, "\u0120stair": 4859, "\u0120palm": 4860, "\u0120beauty": 4861, "\u0120twisted": 4862, "\u0120bother": 4863, "\u0120writing": 4864, "\u0120scoop": 4865, "\u0120prunes": 4866, "\u0120brain": 4867, "\u0120ing": 4868, "ipment": 4869, "\u0120poppy": 4870, "\u0120hills": 4871, "noon": 4872, "\u0120afternoon": 4873, "\u0120equipment": 4874, "\u0120especially": 4875, "hest": 4876, "\u0120sir": 4877, "\u0120pad": 4878, "\u0120See": 4879, "\u0120ingred": 4880, "\u0120calls": 4881, "\u0120ingredient": 4882, "\u0120Fox": 4883, "\u0120earthquake": 4884, "\u0120ignored": 4885, "\u0120Snowy": 4886, "\u0120burned": 4887, "\u0120nobody": 4888, "mble": 4889, "\u0120sty": 4890, "apa": 4891, "\u0120sew": 4892, "\u0120tug": 4893, "isty": 4894, "xygen": 4895, "\u0120hearts": 4896, "\u0120lear": 4897, "\u0120learnt": 4898, "\u0120lemonade": 4899, "\u0120increase": 4900, "illie": 4901, "Jenny": 4902, "\u0120gaz": 4903, "\u0120backpack": 4904, "\u0120mailman": 4905, "\u0120whistled": 4906, "\u0120pedal": 4907, "\u0120Sk": 4908, "Fred": 4909, "\u0120shopkeeper": 4910, "ffic": 4911, "\u0120permit": 4912, "\u0120tremble": 4913, "\u0120yucky": 4914, "anges": 4915, "\u0120moves": 4916, "\u0120introduce": 4917, "\u0120lemons": 4918, "\u0120crash": 4919, "\u0120beans": 4920, "\u0120floated": 4921, "edn": 4922, "ednesday": 4923, "ittens": 4924, "Welcome": 4925, "\u0120planned": 4926, "\u0120strike": 4927, "\u0120traffic": 4928, "\u0120include": 4929, "\u0120slap": 4930, "\u0120racing": 4931, "\u0120Lucky": 4932, "resses": 4933, "\u0120wisdom": 4934, "\u0120pur": 4935, "\u0120wags": 4936, "\u0120Finny": 4937, "laimed": 4938, "\u0120George": 4939, "\u0120luck": 4940, "\u0120\u010a": 4941, "\u0120following": 4942, "\u0120price": 4943, "ecting": 4944, "\u0120mama": 4945, "\u0120pitch": 4946, "\u0120below": 4947, "\u0120Elly": 4948, "\u0120Have": 4949, "Le": 4950, "\u0120weight": 4951, "\u0120exclaimed": 4952, "house": 4953, "\u0120buried": 4954, "\u0120follows": 4955, "\u0120comf": 4956, "\u0120ingredients": 4957, "\u0120recognize": 4958, "\u0120furt": 4959, "tain": 4960, "\u0120candles": 4961, "Mimi": 4962, "\u0120marbles": 4963, "riage": 4964, "unday": 4965, "emember": 4966, "eration": 4967, "\u0120Alex": 4968, "\u0120apart": 4969, "\u0120Wednesday": 4970, "\u0120growled": 4971, "\u0120Su": 4972, "uct": 4973, "ores": 4974, "\u0120conf": 4975, "\u0120teaching": 4976, "\u0120hopes": 4977, "\u0120folded": 4978, "\u0120closely": 4979, "\u0120Finn": 4980, "\u0120Who": 4981, "\u0120heel": 4982, "\u0120Sunday": 4983, "\u0120encourage": 4984, "\u0120Paul": 4985, "\u0120Owl": 4986, "\u0120zigzag": 4987, "\u0120pulling": 4988, "\u0120digg": 4989, "\u0120bouncy": 4990, "\u0120further": 4991, "\u0120chewed": 4992, "\u0120digging": 4993, "\u0120winning": 4994, "Woof": 4995, "With": 4996, "\u0120dresses": 4997, "\u0120image": 4998, "rec": 4999, "cery": 5000, "\u0120shouting": 5001, "\u0120grocery": 5002, "\u0120twisty": 5003, "\u0120peanuts": 5004, "\u0120puzzles": 5005, "bbing": 5006, "\u0120Dog": 5007, "look": 5008, "\u0120scrat": 5009, "\u0120chores": 5010, "\u0120whisper": 5011, "\u0120Is": 5012, "\u0120spike": 5013, "\u0120Froggy": 5014, "\u0120cape": 5015, "\u0120snail": 5016, "\u0120acorns": 5017, "\u0120worms": 5018, "hood": 5019, "\u0120deeper": 5020, "\u0120urge": 5021, "ifi": 5022, "\u0120exper": 5023, "\u0120Whenever": 5024, "\u0120Tilly": 5025, "\u0120Squeaky": 5026, "\u0120Grace": 5027, "\u0120planted": 5028, "\u0120attention": 5029, "ecture": 5030, "\u0120exercise": 5031, "\u0120Danny": 5032, "\u0120cub": 5033, "\u0120operation": 5034, "\u0120underground": 5035, "\u0120hon": 5036, "\u0120agre": 5037, "\u0120quite": 5038, "\u0120creatures": 5039, "Everyone": 5040, "\u0120simp": 5041, "\u0120struggle": 5042, "oral": 5043, "\u0120Mittens": 5044, "ddy": 5045, "\u0120blood": 5046, "\u0120lecture": 5047, "\u0120washing": 5048, "\u0120hurting": 5049, "\u0120vanished": 5050, "\u0120gifts": 5051, "\u0120dressed": 5052, "\u0120invitation": 5053, "\u0120solved": 5054, "\u0120licks": 5055, "\u0120snuggled": 5056, "\u0120Sharing": 5057, "ippy": 5058, "\u0120ble": 5059, "\u0120marriage": 5060, "\u0120quietly": 5061, "gie": 5062, "\u0120warning": 5063, "\u0120jazz": 5064, "\u0120breathe": 5065, "reci": 5066, "\u0120elephants": 5067, "\u0120sizes": 5068, "\u0120dried": 5069, "\u0120fallen": 5070, "\u0120landscape": 5071, "ories": 5072, "\u0120sprink": 5073, "\u0120neighbour": 5074, "\u0120mice": 5075, "uesday": 5076, "\u0120appreci": 5077, "\u0120Sophie": 5078, "\u0120Joey": 5079, "\u0120\u00e2\u0122\u0135": 5080, "\u0120eagerly": 5081, "\u0120sailing": 5082, "\u0120Coco": 5083, "\u0120paused": 5084, "ips": 5085, "\u0120counter": 5086, "\u0120Good": 5087, "\u0120Bounce": 5088, "\u0120Penny": 5089, "\u0120worth": 5090, "looking": 5091, "\u0120Rock": 5092, "\u0120oxygen": 5093, "Because": 5094, "\u0120release": 5095, "\u0120shined": 5096, "Not": 5097, "pted": 5098, "\u0120reaches": 5099, "\u0120balan": 5100, "\u0120Zara": 5101, "isses": 5102, "\u0120oh": 5103, "\u0120kisses": 5104, "\u0120style": 5105, "\u0120bricks": 5106, "\u0120glo": 5107, "\u0120plays": 5108, "\u0120Tuesday": 5109, "\u0120ideas": 5110, "sed": 5111, "\u0120inst": 5112, "\u0120wob": 5113, "\u0120fireworks": 5114, "Bella": 5115, "iggly": 5116, "ucked": 5117, "\u0120seeing": 5118, "\u0120flap": 5119, "ops": 5120, "\u0120accepted": 5121, "right": 5122, "\u0120Pip": 5123, "Today": 5124, "\u0120blink": 5125, "mm": 5126, "\u0120Ros": 5127, "\u0120tremb": 5128, "These": 5129, "\u0120muddy": 5130, "\u0120memory": 5131, "\u0120married": 5132, "\u0120tomatoes": 5133, "\u0120exit": 5134, "\u0120Annie": 5135, "\u0120wagging": 5136, "\u0120fash": 5137, "Remy": 5138, "\u0120Charlie": 5139, "\u0120wandered": 5140, "unately": 5141, "ipping": 5142, "\u0120gloves": 5143, "\u0120captain": 5144, "\u0120pillows": 5145, "\u0120receive": 5146, "\u0120resp": 5147, "\u0120Pinky": 5148, "raged": 5149, "\u0120during": 5150, "\u0120Everything": 5151, "etch": 5152, "\u0120web": 5153, "\u0120petals": 5154, "\u0120watered": 5155, "\u0120Eventually": 5156, "\u0120si": 5157, "ived": 5158, "\u0120manage": 5159, "\u0120pinched": 5160, "\u0120brings": 5161, "\u0120vanish": 5162, "\u0120cakes": 5163, "\u0120fashion": 5164, "\u0120Bluey": 5165, "\u0120printer": 5166, "\u0120destroyed": 5167, "\u0120treasures": 5168, "nce": 5169, "\u0120allow": 5170, "ups": 5171, "\u0120hadn": 5172, "\u0120worse": 5173, "\u0120Fifi": 5174, "Surpr": 5175, "\u0120vel": 5176, "\u0120hits": 5177, "\u0120bur": 5178, "xu": 5179, "\u0120velvet": 5180, "\u0120appear": 5181, "do": 5182, "\u0120disagree": 5183, "\u0120catching": 5184, "\u0120scattered": 5185, "\u0120Ro": 5186, "\u0120memories": 5187, "\u0120sorts": 5188, "\u0120Papa": 5189, "\u0120hers": 5190, "\u0120scolded": 5191, "\u0120signs": 5192, "\u0120pears": 5193, "\u0120oranges": 5194, "\u0120bones": 5195, "\u0120rang": 5196, "\u0120snapped": 5197, "\u0120sits": 5198, "\u0120seats": 5199, "uxu": 5200, "\u0120gazed": 5201, "\u0120raised": 5202, "Bl": 5203, "\u0120Maria": 5204, "\u0120zipped": 5205, "\u0120pies": 5206, "\u0120prints": 5207, "\u0120shot": 5208, "\u0120sliding": 5209, "\u0120God": 5210, "\u0120fro": 5211, "\u0120easier": 5212, "ssible": 5213, "\u0120skills": 5214, "\u0120climbs": 5215, "\u0120twirled": 5216, "ccer": 5217, "\u0120blankets": 5218, "\u0120forgotten": 5219, "\u0120baked": 5220, "ester": 5221, "Yum": 5222, "esterday": 5223, "\u0120difference": 5224, "orted": 5225, "\u0120luxu": 5226, "\u0120golden": 5227, "ising": 5228, "\u0120kitty": 5229, "\u0120Tw": 5230, "\u0120cutting": 5231, "\u0120season": 5232, "aggie": 5233, "\u0120nowhere": 5234, "\u0120crow": 5235, "ah": 5236, "\u0120soccer": 5237, "\u0120dared": 5238, "\u0120bites": 5239, "\u0120Henry": 5240, "\u0120Harry": 5241, "anny": 5242, "\u0120lung": 5243, "\u0120celebrated": 5244, "choo": 5245, "chie": 5246, "\u0120straight": 5247, "\u0120unlocked": 5248, "sters": 5249, "\u0120sorting": 5250, "\u0120collected": 5251, "\u0120bleed": 5252, "aped": 5253, "ding": 5254, "\u0120welcomed": 5255, "\u0120visited": 5256, "\u0120spoons": 5257, "\u0120ours": 5258, "\u0120stitch": 5259, "\u0120jogging": 5260, "Surprise": 5261, "medi": 5262, "\u0120emer": 5263, "\u0120Spark": 5264, "mediately": 5265, "\u0120isn": 5266, "\u0120tong": 5267, "\u0120trave": 5268, "\u0120winner": 5269, "umble": 5270, "\u0120since": 5271, "\u0120ruin": 5272, "\u0120prett": 5273, "Ok": 5274, "Moral": 5275, "\u0120Tony": 5276, "\u0120attached": 5277, "\u0120weeping": 5278, "\u0120marching": 5279, "\u0120luxury": 5280, "\u0120simple": 5281, "\u0120Each": 5282, "\u0120shouldn": 5283, "\u0120guessed": 5284, "\u0120zero": 5285, "\u0120created": 5286, "\u0120stuffed": 5287, "\u0120pets": 5288, "ction": 5289, "\u0120waist": 5290, "\u0120famil": 5291, "\u0120urged": 5292, "\u0120bowed": 5293, "\u0120selling": 5294, "\u0120floating": 5295, "rr": 5296, "\u0120Smith": 5297, "\u0120bye": 5298, "\u0120King": 5299, "\u0120vict": 5300, "\u0120kingdom": 5301, "\u0120olives": 5302, "\u0120kicking": 5303, "\u0120Wiggly": 5304, "\u0120punished": 5305, "\u0120Liz": 5306, "\u0120Baby": 5307, "sit": 5308, "\u0120toes": 5309, "\u0120grant": 5310, "\u0120muscles": 5311, "\u0120jewels": 5312, "\u0120Rosie": 5313, "\u0120beds": 5314, "\u0120melted": 5315, "Goodbye": 5316, "\u0120slice": 5317, "\u0120grin": 5318, "\u0120understanding": 5319, "\u0120collection": 5320, "\u0120tore": 5321, "\u0120measured": 5322, "aker": 5323, "\u0120cras": 5324, "omeday": 5325, "iers": 5326, "\u0120trapped": 5327, "\u0120lined": 5328, "'ve": 5329, "\u0120acted": 5330, "fortunately": 5331, "\u0120encouraged": 5332, "va": 5333, "\u0120Sandy": 5334, "\u0120received": 5335, "\u0120waffles": 5336, "\u0120Before": 5337, "\u0120Wally": 5338, "\u0120west": 5339, "\u0120meow": 5340, "ents": 5341, "\u0120patterns": 5342, "rin": 5343, "ino": 5344, "\u0120brus": 5345, "eath": 5346, "\u0120mouths": 5347, "kins": 5348, "\u0120bang": 5349, "ring": 5350, "\u0120Kate": 5351, "Meow": 5352, "\u0120peaches": 5353, "\u0120breeze": 5354, "aded": 5355, "une": 5356, "\u0120printed": 5357, "\u0120soldiers": 5358, "\u0120someday": 5359, "\u0120potatoes": 5360, "\u0120pupil": 5361, "umes": 5362, "\u0120Millie": 5363, "\u0120drinks": 5364, "\u0120shed": 5365, "\u0120experience": 5366, "\u0120Tuna": 5367, "\u0120presents": 5368, "\u0120firef": 5369, "\u0120Ruby": 5370, "\u0120surround": 5371, "\u0120none": 5372, "osed": 5373, "eep": 5374, "\u0120voices": 5375, "\u0120drinking": 5376, "\u0120Uncle": 5377, "ishing": 5378, "\u0120relaxed": 5379, "\u0120victory": 5380, "cus": 5381, "\u0120paints": 5382, "\u0120breaking": 5383, "eve": 5384, "\u0120hurried": 5385, "ission": 5386, "\u0120twink": 5387, "\u0120tongue": 5388, "\u0120costumes": 5389, "\u0120flat": 5390, "\u0120mentioned": 5391, "\u0120begged": 5392, "\u0120teasing": 5393, "\u0120whistling": 5394, "\u0120fetch": 5395, "\u0120permission": 5396, "\u0120sip": 5397, "\u0120disagreed": 5398, "\u0120pearl": 5399, "akes": 5400, "\u0120stro": 5401, "vest": 5402, "\u0120These": 5403, "\u0120esc": 5404, "\u0120appro": 5405, "\u0120skipping": 5406, "\u0120fishing": 5407, "\u0120May": 5408, "Leo": 5409, "\u0120highest": 5410, "\u0120pra": 5411, "\u0120watches": 5412, "\u0120sorted": 5413, "\u0120ringing": 5414, "ship": 5415, "\u0120tonight": 5416, "\u0120Bo": 5417, "\u0120opin": 5418, "\u0120lets": 5419, "icing": 5420, "\u0120Qu": 5421, "\u0120perfectly": 5422, "\u0120shadows": 5423, "\u0120immediately": 5424, "\u0120herbs": 5425, "\u0120warmth": 5426, "\u0120spit": 5427, "ther": 5428, "\u0120remained": 5429, "\u0120Its": 5430, "walk": 5431, "Bobby": 5432, "irring": 5433, "Jen": 5434, "\u0120sneak": 5435, "\u0120six": 5436, "\u0120lips": 5437, "\u0120kneeled": 5438, "Blue": 5439, "\u0120contest": 5440, "\u0120Che": 5441, "utter": 5442, "\u0120cartoons": 5443, "\u0120sidewalk": 5444, "\u0120colours": 5445, "\u0120stamps": 5446, "\u0120ago": 5447, "Ha": 5448, "\u0120Toto": 5449, "\u0120Boo": 5450, "\u0120Follow": 5451, "oved": 5452, "\u0120east": 5453, "\u0120headed": 5454, "\",": 5455, "\u0120strang": 5456, "\u0120ladyb": 5457, "\u0120fed": 5458, "\u0120supposed": 5459, "\u0120roots": 5460, "\u0120lick": 5461, "\u0120crunch": 5462, "\u0120mixing": 5463, "\u0120works": 5464, "\u0120decorations": 5465, "\u0120melting": 5466, "\u0120known": 5467, "\u0120emergen": 5468, "Mandy": 5469, "\u0120rested": 5470, "\u0120Ab": 5471, "\u0120lines": 5472, "\u0120Suzy": 5473, "\u0120lily": 5474, "\u0120Jul": 5475, "\u0120instr": 5476, "\u0120laid": 5477, "\u0120Gr": 5478, "\u0120succeeded": 5479, "\u0120cones": 5480, "\u0120wiggle": 5481, "ety": 5482, "sing": 5483, "\u0120shock": 5484, "\u0120setting": 5485, "\u0120Slow": 5486, "\u0120studied": 5487, "\u0120strangers": 5488, "\u0120Rocky": 5489, "Really": 5490, "\u0120twigs": 5491, "\u0120brid": 5492, "\u0120theirs": 5493, "\u0120Dr": 5494, "\u0120girls": 5495, "boo": 5496, "!\",": 5497, "\u0120screams": 5498, "\u0120lands": 5499, "\u0120ordered": 5500, "\u0120stirring": 5501, "\u0120moments": 5502, "\u0120fields": 5503, "\u0120alright": 5504, "\u0120stealing": 5505, "ded": 5506, "Andy": 5507, "\u0120rul": 5508, "\u0120bravely": 5509, "avid": 5510, "\u0120Both": 5511, "\u0120mister": 5512, "!'": 5513, "\u0120invest": 5514, "\u0120scratched": 5515, "\u0120playtime": 5516, "\u0120ripped": 5517, "\u0120investig": 5518, "\u0120tucked": 5519, "\u0120burning": 5520, "\u0120resting": 5521, "ishes": 5522, "\u0120Clara": 5523, "\u0120Chicky": 5524, "\u0120bridges": 5525, "\u0120officer": 5526, "please": 5527, "Sammy": 5528, "Bird": 5529, "abies": 5530, "\u0120settled": 5531, "\u0120matched": 5532, "\u0120achie": 5533, "\u0120tex": 5534, "\u0120texture": 5535, "Happy": 5536, "\u0120waits": 5537, "\u0120turning": 5538, "\u0120Sky": 5539, "Peter": 5540, "ored": 5541, "\u0120trembling": 5542, "isten": 5543, "\u0120nails": 5544, "atie": 5545, "\u0120muffins": 5546, "\u0120Someone": 5547, "ids": 5548, "\u0120escaped": 5549, "\u0120James": 5550, "\u0120piles": 5551, "\u0120investigate": 5552, "osity": 5553, "\u0120broom": 5554, "\u0120ladybug": 5555, "\u0120sore": 5556, "\u0120Pepper": 5557, "\u0120appreciate": 5558, "\u0120admir": 5559, "\u0120threat": 5560, "\u0120babies": 5561, "\u0120silence": 5562, "\u0120sisters": 5563, "\u0120emergency": 5564, "\u0120area": 5565, "ides": 5566, "\u0120dads": 5567, "\u0120answers": 5568, "\u0120pupp": 5569, "\u0120keys": 5570, "\u0120chewing": 5571, "\u0120slapped": 5572, "\u0120wiz": 5573, "\u0120importance": 5574, "Boo": 5575, "\u0120served": 5576, "\u0120Hop": 5577, "\u0120safety": 5578, "izing": 5579, "Bu": 5580, "Would": 5581, "\u0120sparkle": 5582, "\u0120touching": 5583, "\u0120Later": 5584, "\u0120soared": 5585, "igail": 5586, "\u0120sings": 5587, "\u0120hen": 5588, "allen": 5589, "Ella": 5590, "bers": 5591, "antly": 5592, "Momo": 5593, "\u0120Dino": 5594, "\u0120keeps": 5595, "\u0120amazement": 5596, "\u0120challen": 5597, "\u0120twin": 5598, "\u0120hesit": 5599, "\u0120revealed": 5600, "anna": 5601, "achel": 5602, "\u0120item": 5603, "\u0120dire": 5604, "\u0120soaked": 5605, "zing": 5606, "\u0120writ": 5607, "\u0120foods": 5608, "\u0120rides": 5609, "\u0120dinosaurs": 5610, "\u0120recorded": 5611, "\u0120tickle": 5612, "\u0120inch": 5613, "\u0120Zigzag": 5614, "\u0120Me": 5615, "\u0120wizard": 5616, "\u0120vet": 5617, "\u0120trips": 5618, "\u0120glowed": 5619, "\u0120An": 5620, "\u0120Frog": 5621, "Mmm": 5622, "\u0120hi": 5623, "\u0120beamed": 5624, "\u0120quack": 5625, "\u0120curled": 5626, "\u0120hated": 5627, "\u0120wink": 5628, "\u0120shopping": 5629, "\u0120eats": 5630, "Eventually": 5631, "\u0120Bug": 5632, "\u0120praised": 5633, "\u0120wooden": 5634, "\u0120bringing": 5635, "\u0120mittens": 5636, "\u0120studying": 5637, "\u0120guy": 5638, "\u0120brushes": 5639, "\u0120spaceship": 5640, "\u0120gust": 5641, "\u0120crawling": 5642, "\u0120Something": 5643, "Cat": 5644, "\u0120ruler": 5645, "\u0120flav": 5646, "\u0120downstairs": 5647, "\u0120shooting": 5648, "\u0120tastes": 5649, "\u0120napping": 5650, "\u0120sprinkles": 5651, "\u0120marks": 5652, "\u0120cuddled": 5653, "\u0120dot": 5654, "hello": 5655, "plash": 5656, "\u0120fut": 5657, "ales": 5658, "aved": 5659, "\u0120future": 5660, "\u0120monsters": 5661, "\u0120collecting": 5662, "\u0120measuring": 5663, "\u0120Happy": 5664, "'.": 5665, "\u0120families": 5666, "\u0120Out": 5667, "\u0120First": 5668, "\u0120Mo": 5669, "\u0120thrill": 5670, "\u0120oat": 5671, "irts": 5672, "\u0120result": 5673, "Jake": 5674, "\u0120approached": 5675, "\u0120Rabbit": 5676, "\u0120crunchy": 5677, "act": 5678, "Un": 5679, "\u0120remem": 5680, "\u0120bleeding": 5681, "\u0120remembers": 5682, "\u0120nicer": 5683, "\u0120beat": 5684, "\u0120sneaky": 5685, "\u0120disturbed": 5686, "\u0120leader": 5687, "\u0120scaring": 5688, "Or": 5689, "hind": 5690, "\u0120peel": 5691, "\u0120Hope": 5692, "\u0120firemen": 5693, "\u0120neighborhood": 5694, "\u0120Star": 5695, "\u0120grey": 5696, "\u0120Not": 5697, "\u0120motion": 5698, "\u0120noon": 5699, "\u0120possible": 5700, "Emily": 5701, "Somet": 5702, "\u0120apologized": 5703, "\u0120weighed": 5704, "ues": 5705, "\u0120Did": 5706, "\u0120tickets": 5707, "Cl": 5708, "\u0120naps": 5709, "\u0120loose": 5710, "\u0120pride": 5711, "\u0120youth": 5712, "\u0120swims": 5713, "ped": 5714, "\u0120strings": 5715, "\u0120recognized": 5716, "\u0120siren": 5717, "\u0120poking": 5718, "fied": 5719, "\u0120Ho": 5720, "cious": 5721, "ha": 5722, "elvet": 5723, "\u0120tricked": 5724, "\u0120wonders": 5725, "\u0120gained": 5726, "\u0120wanting": 5727, "\u0120crashed": 5728, "\u0120obe": 5729, "\u0120seesaw": 5730, "\u0120worker": 5731, "unnies": 5732, "ls": 5733, "oming": 5734, "\u0120draws": 5735, "\u0120scooped": 5736, ".'": 5737, "\u0120zooming": 5738, "\u0120opinion": 5739, "\u0120yelling": 5740, "\u0120prepared": 5741, "\u0120grinned": 5742, "\u0120Slowly": 5743, "\u0120awe": 5744, "\u0120poems": 5745, "\u0120doggy": 5746, "\u0120acting": 5747, "\u0120Beep": 5748, "\u0120happiest": 5749, "\u0120chef": 5750, "\u0120sneaked": 5751, "\u0120respons": 5752, "\u0120eff": 5753, "\u0120Always": 5754, "\u0120Lizzy": 5755, "\u0120owned": 5756, "\u0120bunnies": 5757, "\u0120anytime": 5758, "\u0120struck": 5759, "\u0120pedals": 5760, "oys": 5761, "\u0120knelt": 5762, "ena": 5763, "Ollie": 5764, "\u0120secrets": 5765, "\u0120pause": 5766, "\u0120decorated": 5767, "\u0120horns": 5768, "\u0120agreement": 5769, "\u0120Squ": 5770, "ided": 5771, "\u0120frost": 5772, "\u0120tallest": 5773, "\u0120obey": 5774, "riends": 5775, "Remember": 5776, "ogo": 5777, "\u0120Stop": 5778, "Have": 5779, "\u0120decides": 5780, "\u0120Once": 5781, "\u0120behaved": 5782, "\u0120tugged": 5783, "\u0120sides": 5784, "\u0120woof": 5785, "\u0120slim": 5786, "zen": 5787, "\u0120goodnight": 5788, "\u0120keeper": 5789, "\u0120sparkling": 5790, "\u0120chirped": 5791, "\u0120precious": 5792, "mother": 5793, "lier": 5794, "ien": 5795, "Tr": 5796, "\u0120repeated": 5797, "ud": 5798, "\u0120claps": 5799, "indy": 5800, "affes": 5801, "\u0120snowballs": 5802, "\u0120contain": 5803, "rs": 5804, "\u0120Ray": 5805, "\u0120ourselves": 5806, "allow": 5807, "\u0120giraffes": 5808, "\u0120balancing": 5809, "\u0120kindly": 5810, "\u0120spending": 5811, "ays": 5812, "\u0120writes": 5813, "ppers": 5814, "\u0120Like": 5815, "omas": 5816, "\u0120prop": 5817, "\u0120hissed": 5818, "First": 5819, "\u0120frozen": 5820, "\u0120frosting": 5821, "\u0120effort": 5822, "\u0120buzzing": 5823, "\u0120struggled": 5824, "oh": 5825, "\u0120Steve": 5826, "\u0120admiring": 5827, "\u0120rele": 5828, "iggy": 5829, "\u0120sweeties": 5830, "\u0120Velvet": 5831, "\u0120slimy": 5832, "\u0120brushed": 5833, "\u0120bloomed": 5834, "Susie": 5835, "\u0120Am": 5836, "\u0120polished": 5837, "anted": 5838, "\u0120Zoe": 5839, "arth": 5840, "\u0120comfy": 5841, "\u0120boo": 5842, "\u0120staying": 5843, "\u0120rubbing": 5844, "Ducky": 5845, "\u0120rocking": 5846, "\u0120pockets": 5847, "\u0120thrilled": 5848, "\u0120beside": 5849, "\u0120comple": 5850, "\u0120Aunt": 5851, "\u0120Maggie": 5852, "Ah": 5853, "\u0120eight": 5854, "urry": 5855, "isdom": 5856, "\u0120machines": 5857, "\u0120earlier": 5858, "\u0120yesterday": 5859, "\u0120seems": 5860, "\u0120rust": 5861, "\u0120Keep": 5862, "Sp": 5863, "\u0120traveled": 5864, "\u0120folding": 5865, "\u0120boom": 5866, "\u0120cracked": 5867, "ities": 5868, "\u0120hugging": 5869, "\u0120radishes": 5870, "\u0120Stitch": 5871, "\u0120opening": 5872, "\u0120loving": 5873, "\u0120circus": 5874, "\u0120surrounded": 5875, "\u0120curiosity": 5876, "\u0120Rachel": 5877, "\u0120spraying": 5878, "\u0120demanded": 5879, "\u0120paintings": 5880, "amie": 5881, "\u0120Green": 5882, "\u0120removed": 5883, "\u0120gaze": 5884, "\u0120honk": 5885, "\u0120pebbles": 5886, "\u0120zookeeper": 5887, "\u0120hardly": 5888, "\u0120catches": 5889, "edding": 5890, "\u0120sting": 5891, "\u0120stripes": 5892, "\u0120powers": 5893, "\u0120loaded": 5894, "\u0120Pippa": 5895, "Sometimes": 5896, "\u0120splashes": 5897, "\u0120pots": 5898, "\u0120petted": 5899, "\u0120matching": 5900, "\u0120David": 5901, "Thanks": 5902, "\u0120stare": 5903, "\u0120toss": 5904, "\u0120belly": 5905, "Yummy": 5906, "ibb": 5907, "\u0120whatever": 5908, "\u0120apologize": 5909, "\u0120rocked": 5910, "\u0120comforted": 5911, "\u0120Bree": 5912, "\u0120decision": 5913, "\u0120ribbons": 5914, "\u0120Joy": 5915, "\u0120Birdie": 5916, "ern": 5917, "\u0120struggling": 5918, "\u0120expected": 5919, "\u0120deser": 5920, "\u0120steep": 5921, "wh": 5922, "\u0120protected": 5923, "\u0120neighbors": 5924, "\u0120smiley": 5925, "\u0120chases": 5926, "During": 5927, "\u0120granted": 5928, "\u0120crumb": 5929, "\u0120Mat": 5930, "\u0120purred": 5931, "\u0120diving": 5932, "\u0120sadness": 5933, "Whiskers": 5934, "\u0120organizing": 5935, "lowers": 5936, "\u0120eagle": 5937, "\u0120heroes": 5938, "\u0120dipped": 5939, "\u0120sunlight": 5940, "\u0120lied": 5941, "\u0120pastels": 5942, "\u0120Frank": 5943, "Ex": 5944, "\u0120safer": 5945, "\u0120roads": 5946, "\u0120scru": 5947, "\u0120argued": 5948, "\u0120Milly": 5949, "\u0120goals": 5950, "\u0120Water": 5951, "\u0120discovery": 5952, "\u0120Abigail": 5953, "\u0120villag": 5954, "\u0120peered": 5955, "Ro": 5956, "\u0120Bouncy": 5957, "use": 5958, "\u0120tim": 5959, "ana": 5960, "loe": 5961, "\u0120dragons": 5962, "\u0120buildings": 5963, "\u0120buckets": 5964, "\u0120parties": 5965, "\u0120beard": 5966, "\u0120wedding": 5967, "Rex": 5968, "\u0120flutter": 5969, "\u0120planets": 5970, "\u0120ann": 5971, "\u0120Robby": 5972, "\u0120polishing": 5973, "\u0120fasc": 5974, "ira": 5975, "\u0120released": 5976, "\u0120Chr": 5977, "\u0120crabs": 5978, "\u0120Gogo": 5979, "\u0120tails": 5980, "\u0120Watch": 5981, "\u0120sausages": 5982, "\u0120Ju": 5983, "\u0120argu": 5984, "\u0120contro": 5985, "\u0120bottles": 5986, "\u0120wiggled": 5987, "\u0120teased": 5988, "uke": 5989, "\u0120arguing": 5990, "\u0120sled": 5991, "\u0120dragged": 5992, "\u0120padd": 5993, "\u0120Car": 5994, "\u0120roaring": 5995, "\u0120clearing": 5996, "\u0120shirts": 5997, "\u0120movies": 5998, "\u0120gathering": 5999, "\u0120airpl": 6000, "\u0120wid": 6001, "joyed": 6002, "\u0120teaches": 6003, "\u0120spiders": 6004, "\u0120limes": 6005, "\u0120Remember": 6006, "\u0120Dare": 6007, "\u0120overjoyed": 6008, "\u0120actually": 6009, "\u0120sighs": 6010, "\u0120continue": 6011, "\u0120cuddle": 6012, "\u0120soaring": 6013, "\u0120Jess": 6014, "\u0120smallest": 6015, "\u0120drives": 6016, "\u0120sparkles": 6017, "\u0120rip": 6018, "\u0120situ": 6019, "\u0120cubes": 6020, "\u0120refres": 6021, "\u0120talent": 6022, "\u0120challenge": 6023, "\u0120Olly": 6024, "\u0120grandmother": 6025, "\u0120Splash": 6026, "umm": 6027, "\u0120pouring": 6028, "\u0120pretends": 6029, "\u0120fascin": 6030, "\u0120cuts": 6031, "\u0120peppers": 6032, "\u0120bank": 6033, "\u0120shivered": 6034, "\u0120mane": 6035, "\u0120quarreling": 6036, "\u0120dusty": 6037, "ley": 6038, "\u0120wondering": 6039, "\u0120villagers": 6040, "\u0120stretching": 6041, "njoy": 6042, "ib": 6043, "\u0120weeks": 6044, "\u0120wherever": 6045, "\u0120darker": 6046, "jam": 6047, "Tiny": 6048, "sses": 6049, "\u0120X": 6050, "\u0120rings": 6051, "\u0120onwards": 6052, "\u0120Katie": 6053, "\u0120united": 6054, "Achoo": 6055, "\u0120bead": 6056, "\u0120Everyday": 6057, "\u0120Being": 6058, "Johnny": 6059, "\u0120prettiest": 6060, "\u0120caut": 6061, "\u0120realize": 6062, "\u0120company": 6063, "\u0120penguins": 6064, "annah": 6065, "Luna": 6066, "Fr": 6067, "\u0120Spring": 6068, "\u0120bedtime": 6069, "\u0120completed": 6070, "\u0120Wisdom": 6071, "\u0120Leave": 6072, "\u00e2\u0122\u013f.": 6073, "\u0120knights": 6074, "\u0120flags": 6075, "\u0120Je": 6076, "\u0120Because": 6077, "\u0120playroom": 6078, "\u0120Prin": 6079, "\u0120actions": 6080, "\u0120Zero": 6081, "\u0120learns": 6082, "\u0120gotten": 6083, "\u0120patience": 6084, "inda": 6085, "dam": 6086, "\u0120shrug": 6087, "\u0120kites": 6088, "\u0120responsible": 6089, "\u0120fears": 6090, "\u0120destination": 6091, "\u0120wires": 6092, "\u0120reply": 6093, "\u0120wrist": 6094, "\u0120dam": 6095, "aws": 6096, "\u0120packing": 6097, "\u0120mountains": 6098, "\u0120fault": 6099, "\u0120applauded": 6100, "\u0120ma": 6101, "\u0120scrubbed": 6102, "\u0120crept": 6103, "\u0120Ava": 6104, "Uh": 6105, "\u0120Earth": 6106, "\u0120satis": 6107, "\u0120third": 6108, "\u0120phot": 6109, "\u0120pencils": 6110, "\u0120wins": 6111, "\u0120sticking": 6112, "\u0120baker": 6113, "\u0120visiting": 6114, "\u0120wound": 6115, "\u0120uses": 6116, "\u0120peas": 6117, "\u0120reminder": 6118, "\u0120control": 6119, "ashed": 6120, "Grandpa": 6121, "\u0120joking": 6122, "\u0120awake": 6123, "\u0120instruct": 6124, "\u0120staring": 6125, "\u0120healed": 6126, "\u0120Put": 6127, "\u0120hitting": 6128, "\u0120Fish": 6129, "\u0120screaming": 6130, "\u0120begin": 6131, "Rob": 6132, "uckily": 6133, "\u0120Friends": 6134, "\u0120Moo": 6135, "icorn": 6136, "enty": 6137, "\u0120helmets": 6138, "\u0120unicorn": 6139, "ler": 6140, "seek": 6141, "\u0120towels": 6142, "Silly": 6143, "\u0120Lou": 6144, "\u0120chips": 6145, "ica": 6146, "\u0120creation": 6147, "\u0120wasted": 6148, "bie": 6149, "Mar": 6150, "\u0120Behind": 6151, "laire": 6152, "\u0120masks": 6153, "\u0120items": 6154, "\u0120forgi": 6155, "\u0120firefight": 6156, "\u0120outdo": 6157, "\u0120lollipops": 6158, "Watch": 6159, "\u0120heav": 6160, "\u0120guns": 6161, "\u0120died": 6162, "\u0120Hippy": 6163, "\u0120seas": 6164, "\u0120glitter": 6165, "uddles": 6166, "\u0120arrive": 6167, "\u0120weren": 6168, "\u0120stole": 6169, "\u0120scales": 6170, "\u0120perched": 6171, "\u0120accom": 6172, "\u0120logs": 6173, "\u0120achieve": 6174, "die": 6175, "\u0120practicing": 6176, "ining": 6177, "\u0120whose": 6178, "Stay": 6179, "\u0120pumpkins": 6180, "\u0120instructions": 6181, "\u0120swoop": 6182, "\u0120batteries": 6183, "\u0120candies": 6184, "\u0120agrees": 6185, "\u0120project": 6186, "\u0120snakes": 6187, "\u0120chirping": 6188, "Benny": 6189, "\u0120shelves": 6190, "\u0120protecting": 6191, "\u0120parked": 6192, "\u0120exact": 6193, "\u0120Cra": 6194, "\u0120patiently": 6195, "\u0120activ": 6196, "\u0120videos": 6197, "\u0120shoulders": 6198, "\u0120blows": 6199, "hee": 6200, "Fo": 6201, "\u0120promises": 6202, "go": 6203, "\u0120dent": 6204, "usan": 6205, "uest": 6206, "ners": 6207, "jamas": 6208, "\u0120examined": 6209, "\u0120airplane": 6210, "Doggy": 6211, "\u0120roses": 6212, "\u0120accompl": 6213, "\u0120tasks": 6214, "Dave": 6215, "\u0120Hoot": 6216, "Poppy": 6217, "\u0120Bop": 6218, "Bunny": 6219, "\u0120beads": 6220, "\u0120bowls": 6221, "\u0120crumbs": 6222, "zes": 6223, "\u0120listens": 6224, "\u0120Love": 6225, "\u0120Catty": 6226, "\u0120Brownie": 6227, "Pete": 6228, "\u0120Ol": 6229, "\u0120dolphins": 6230, "\u0120cough": 6231, "\u0120bunch": 6232, "\u0120guest": 6233, "cakes": 6234, "\u0120requested": 6235, "\u0120remote": 6236, "\u0120improved": 6237, "anta": 6238, "\u0120reaching": 6239, "\u0120brand": 6240, "\u0120Jan": 6241, "ayla": 6242, "\u0120alien": 6243, "\u0120Bye": 6244, "irm": 6245, "\u0120copy": 6246, "\u0120Sun": 6247, "\u0120cheering": 6248, "\u0120photos": 6249, "\u0120Julie": 6250, "\u0120Chew": 6251, "Bad": 6252, "\u0120Blink": 6253, "Time": 6254, "\u0120cans": 6255, "\u0120Cuddles": 6256, "\u0120timer": 6257, "\u0120By": 6258, "\u0120replaced": 6259, "athy": 6260, "\u0120workers": 6261, "\u0120stern": 6262, "\u0120Enjoy": 6263, "aster": 6264, "\u0120neither": 6265, "Mike": 6266, "\u0120passing": 6267, "\u0120misses": 6268, "\u0120curtains": 6269, "\u0120confl": 6270, "Chirpy": 6271, "\u0120rainbows": 6272, "\u0120rubs": 6273, "George": 6274, "uctantly": 6275, "\u0120rolls": 6276, "\u0120patted": 6277, "ilo": 6278, "\u0120pajamas": 6279, "\u0120outdoors": 6280, "esome": 6281, "dies": 6282, "\u0120complaining": 6283, "\u0120Squirrel": 6284, "Lola": 6285, "Run": 6286, "\u0120puppet": 6287, "\u0120Princess": 6288, "\u0120closes": 6289, "\u0120beneath": 6290, "\u0120lap": 6291, "\u0120drums": 6292, "\u0120tune": 6293, "\u0120Beth": 6294, "\u0120Mouse": 6295, "\u0120filling": 6296, "Miss": 6297, "angled": 6298, "\u0120refuse": 6299, "\u0120Sorry": 6300, "\u0120sweat": 6301, "\u0120faced": 6302, "...": 6303, "\u0120seven": 6304, "\u0120balanced": 6305, "bl": 6306, "\u0120rescued": 6307, "neath": 6308, "\u0120quacked": 6309, "\u0120Abby": 6310, "Paul": 6311, "istle": 6312, "\u0120awesome": 6313, "\u01201": 6314, "\u0120mission": 6315, "\u0120However": 6316, "\u0120guys": 6317, "\u0120conflict": 6318, "\u0120cautious": 6319, "\u0120vent": 6320, "\u0120observed": 6321, "\u0120cause": 6322, "\u0120introduc": 6323, "\u0120Thomas": 6324, "\u0120pastries": 6325, "nie": 6326, "\u0120\u0120": 6327, "\u0120Our": 6328, "\u0120exactly": 6329, "\u0120doctors": 6330, "\u0120rule": 6331, "\u0120becoming": 6332, "\u0120mes": 6333, "\u0120policeman": 6334, "you": 6335, "uly": 6336, "\u0120rockets": 6337, "\u0120Yes": 6338, "\u0120Dot": 6339, "lay": 6340, "\u0120fairies": 6341, "\u0120pout": 6342, "An": 6343, "\u0120insist": 6344, "\u0120blooming": 6345, "\u0120tractor": 6346, "\u0120farther": 6347, "\u0120Sad": 6348, "avi": 6349, "Oops": 6350, "Great": 6351, "\u0120remembering": 6352, "\u0120included": 6353, "\u0120curly": 6354, "Zoom": 6355, "Fine": 6356, "\u0120teamwork": 6357, "zie": 6358, "\u0120fascinated": 6359, "\u0120wobbled": 6360, "\u0120slam": 6361, "\u0120truly": 6362, "\u0120helpers": 6363, "\u0120sights": 6364, "\u0120paddle": 6365, "\u0120stumble": 6366, "\u0120firm": 6367, "Henry": 6368, "\u0120Jilly": 6369, "acob": 6370, "\u0120caused": 6371, "\u0120prayer": 6372, "\u0120spong": 6373, "\u0120recording": 6374, "kelly": 6375, "ais": 6376, "\u0120traded": 6377, "\u0120starfish": 6378, "\u0120supplies": 6379, "\u0120thro": 6380, "\u0120pointy": 6381, "\u0120situation": 6382, "\u0120inviting": 6383, "eah": 6384, "gers": 6385, "\u0120neighbourhood": 6386, "\u0120everyday": 6387, "\u0120ornaments": 6388, "\u0120Ally": 6389, "inkle": 6390, "\u0120valued": 6391, "\u0120adding": 6392, "Some": 6393, "\u0120reluctantly": 6394, "\u0120dots": 6395, "\u0120stays": 6396, "\u0120tables": 6397, "\u0120prettier": 6398, "\u0120bare": 6399, "\u0120desert": 6400, "\u0120snowmen": 6401, "\u0120steady": 6402, "\u0120minerals": 6403, "araway": 6404, "\u0120thorn": 6405, "ody": 6406, "\u0120ast": 6407, "\u0120glasses": 6408, "\u0120faraway": 6409, "\u0120Get": 6410, "\u0120Foxy": 6411, "\u0120swooped": 6412, "\u0120Welcome": 6413, "\u0120Two": 6414, "\u0120Sure": 6415, "\u0120unf": 6416, "\u0120forks": 6417, "\u0120usually": 6418, "\u0120usual": 6419, "Polly": 6420, "\u0120dar": 6421, "\u0120Jamie": 6422, "\u0120winked": 6423, "\u0120sneezing": 6424, "\u0120solut": 6425, "\u0120loading": 6426, "\u0120sponge": 6427, "\u0120Quick": 6428, "\u0120insects": 6429, "\u0120pans": 6430, "Dog": 6431, "\u0120sobbed": 6432, "\u0120Santa": 6433, "James": 6434, "\u0120growling": 6435, "sm": 6436, "arter": 6437, "\u0120throat": 6438, "\u0120Chloe": 6439, "\u0120noses": 6440, "\u0120Josh": 6441, "\u0120Dizzy": 6442, "\u0120scarves": 6443, "\u0120confident": 6444, "\u0120yourselves": 6445, "\u0120Want": 6446, "agull": 6447, "\u0120homework": 6448, "\u0120superheroes": 6449, "\u0120Stay": 6450, "Joey": 6451, "\u0120smarter": 6452, "\u0120windy": 6453, "\u0120librarian": 6454, "Tina": 6455, "\u0120Kids": 6456, "\u0120gems": 6457, "Days": 6458, "ora": 6459, "\u0120underneath": 6460, "\u0120kicks": 6461, "\u0120knowled": 6462, "\u0120itchy": 6463, "\u0120knowledge": 6464, "\u0120jackets": 6465, "\u0120Skelly": 6466, "\u0120For": 6467, "\u0120surface": 6468, "\u0120untie": 6469, "\u0120comm": 6470, "\u0120Duck": 6471, "\u0120princesses": 6472, "...\"": 6473, "Those": 6474, "ido": 6475, "eed": 6476, "Hold": 6477, "Yeah": 6478, "coon": 6479, "\u0120squares": 6480, "\u0120Henny": 6481, "\u0120warnings": 6482, "\u0120giggling": 6483, "iar": 6484, "\u0120reads": 6485, "vin": 6486, "Our": 6487, "\u0120choo": 6488, "son": 6489, "\u0120younger": 6490, "\u0120clowns": 6491, "\u0120Mix": 6492, "Toby": 6493, "\u0120ropes": 6494, "\u0120biting": 6495, "\u0120crowd": 6496, "\u0120Unfortunately": 6497, "pite": 6498, "Danny": 6499, "True": 6500, "\u0120seagull": 6501, "\u0120paddled": 6502, "\u0120wears": 6503, "\u0120delivered": 6504, "\u0120Mon": 6505, "\u0120twirl": 6506, "\u0120onions": 6507, "\u0120buzzed": 6508, "\u0120complained": 6509, "\u0120bumpy": 6510, "\u0120stem": 6511, "Ew": 6512, "\u0120piggy": 6513, "Mrs": 6514, "\u0120Anne": 6515, "ouch": 6516, "\u0120direction": 6517, "\u0120dived": 6518, "Roar": 6519, "\u0120tangled": 6520, "\u0120startled": 6521, "ults": 6522, "\u0120leaning": 6523, "bbie": 6524, "\u0120Ant": 6525, "\u0120Jones": 6526, "\u0120badge": 6527, "\u0120Po": 6528, "Grace": 6529, "\u0120unp": 6530, "\u0120deal": 6531, "though": 6532, "Annie": 6533, "\u0120vowed": 6534, "\u0120napkins": 6535, "anes": 6536, "\u0120tickled": 6537, "\u0120risk": 6538, "\u0120covers": 6539, "\u0120pec": 6540, "Shh": 6541, "\u0120yells": 6542, "\u0120satisfied": 6543, "int": 6544, "\u0120knocks": 6545, "\u0120refreshed": 6546, "tuce": 6547, "\u0120Sc": 6548, "cuse": 6549, "\u0120cous": 6550, "\u0120arrows": 6551, "Maggie": 6552, "\u0120Whistle": 6553, "Pe": 6554, "\u0120wipes": 6555, "\u0120speaking": 6556, "\u0120lettuce": 6557, "\u0120guessing": 6558, "Unfortunately": 6559, "\u0120Quack": 6560, "\u0120ripe": 6561, "\u0120Susan": 6562, "\u0120hides": 6563, "\u0120choices": 6564, "\u0120Dodo": 6565, "\u0120Rover": 6566, "Buzz": 6567, "\u0120signed": 6568, "\u0120slower": 6569, "\u0120seeker": 6570, "\u0120introduced": 6571, "\u0120singer": 6572, "\u0120creating": 6573, "\u0120Matt": 6574, "\u0120froze": 6575, "\u0120cent": 6576, "uggles": 6577, "\u0120joked": 6578, "\u0120squeal": 6579, "\u0120toaster": 6580, "\u0120explorers": 6581, "fit": 6582, "\u0120avo": 6583, "anging": 6584, "Sophie": 6585, "\u0120praying": 6586, "\u0120written": 6587, "\u0120discovering": 6588, "\u0120provided": 6589, "\u0120Dara": 6590, "\u0120refle": 6591, "\u0120Lion": 6592, "Excuse": 6593, "\u0120mushrooms": 6594, "\u0120Jeff": 6595, "\u0120Paws": 6596, "\u0120paying": 6597, "\u0120knees": 6598, "ences": 6599, "\u0120hider": 6600, "\u0120wandering": 6601, "\u0120Ash": 6602, "\u0120images": 6603, "Charlie": 6604, "\u0120stung": 6605, "\u0120Wink": 6606, "\u0120magnets": 6607, "\u0120barely": 6608, "\u0120tipto": 6609, "\u0120behaving": 6610, "?\",": 6611, "\u0120marked": 6612, "brush": 6613, "rrr": 6614, "\u0120restored": 6615, "\u0120Dee": 6616, "\u0120leading": 6617, "lled": 6618, "\u0120chuck": 6619, "ados": 6620, "\u0120nine": 6621, "\u0120greet": 6622, "Teddy": 6623, "\u0120gears": 6624, "\u0120bravery": 6625, "ky": 6626, "\u0120Snuggles": 6627, "\u0120competition": 6628, "eal": 6629, "\u0120outfit": 6630, "oline": 6631, "tle": 6632, "\u0120wishing": 6633, "\u0120properly": 6634, "\u0120ventured": 6635, "aa": 6636, "\u0120muscle": 6637, "\u0120dances": 6638, "\u0120salty": 6639, "\u0120pens": 6640, "amb": 6641, "\u0120chat": 6642, "\u0120Betsy": 6643, "\u0120ranger": 6644, "\u0120Ziggy": 6645, "\u0120deserve": 6646, "\u0120however": 6647, "sequ": 6648, "\u0120matters": 6649, "\u0120darkness": 6650, "\u0120burst": 6651, "\u0120Fu": 6652, "\u0120rainy": 6653, "\u0120cobwebs": 6654, "\u0120ruining": 6655, "\u0120chefs": 6656, "\u0120consequ": 6657, "\u0120blocking": 6658, "\u0120bak": 6659, "usted": 6660, "itely": 6661, "sty": 6662, "\u0120scur": 6663, "\u0120vines": 6664, "abel": 6665, "\u0120fab": 6666, "\u0120fabric": 6667, "\u0120entire": 6668, "\u0120basement": 6669, "\u0120performed": 6670, "\u0120least": 6671, "\u0120Buggy": 6672, "Sn": 6673, "\u0120scratches": 6674, "\u0120heavier": 6675, "\u0120Claire": 6676, "\u0120mints": 6677, "\u0120twirling": 6678, "\u0120avocados": 6679, "However": 6680, "\u0120Linda": 6681, "rink": 6682, "fl": 6683, "\u0120scurried": 6684, "\u0120losing": 6685, "\u0120sunflowers": 6686, "\u0120Jenna": 6687, "\u0120rainco": 6688, "\u0120swords": 6689, "Tweet": 6690, "\u0120click": 6691, "agic": 6692, "\u0120Laser": 6693, "\u0120silent": 6694, "\u0120jobs": 6695, "\u0120necklaces": 6696, "\u0120flames": 6697, "\u0120Luke": 6698, "\u0120relief": 6699, "\u0120Grumpy": 6700, "\u0120snat": 6701, "\u0120sewed": 6702, "\u0120rotting": 6703, "len": 6704, "Follow": 6705, "\u0120tricky": 6706, "Listen": 6707, "Jerry": 6708, "\u0120lighter": 6709, "ophia": 6710, "\u0120bows": 6711, "\u0120Skip": 6712, "\u0120exha": 6713, "\u0120solution": 6714, "\u0120consequences": 6715, "Alex": 6716, "\u0120Lena": 6717, "\u0120tires": 6718, "\u0120stain": 6719, "Beep": 6720, "\u0120unpacked": 6721, "Ab": 6722, "\u0120partic": 6723, "rance": 6724, "\u0120races": 6725, "\u0120pins": 6726, "\u0120bumps": 6727, "\u0120wraps": 6728, "aisies": 6729, "\u0120wow": 6730, "\u0120decorating": 6731, "\u0120backed": 6732, "cher": 6733, "\u0120dentist": 6734, "\u0120purr": 6735, "\u0120needles": 6736, "\u0120cautiously": 6737, "izzie": 6738, "\u0120lifting": 6739, "\u0120Pr": 6740, "\u0120accomplish": 6741, "\u0120triangles": 6742, "\u0120daisies": 6743, "ept": 6744, "\u0120hesitated": 6745, "\u0120annoy": 6746, "\u0120Those": 6747, "\u0120growls": 6748, "\u0120crackers": 6749, "oke": 6750, "\u0120stomped": 6751, "\u0120grabbing": 6752, "\u0120cott": 6753, "\u0120figured": 6754, "\u0120bodies": 6755, "\u0120mater": 6756, "\u0120buying": 6757, "\u0120Tree": 6758, "\u0120material": 6759, "\u0120Rolly": 6760, "\u0120Fido": 6761, "\u0120Adam": 6762, "\u0120swans": 6763, "\u0120ties": 6764, "\u0120gri": 6765, "vers": 6766, "\u0120grows": 6767, "\u0120\u010a\u0120": 6768, "\u0120sweets": 6769, "\u0120Goodbye": 6770, "\u0120owners": 6771, "\u0120flavor": 6772, "\u0120cheeks": 6773, "\u0120Cathy": 6774, "Big": 6775, "\u0120suffering": 6776, "\u0120Jessie": 6777, "\u0120El": 6778, "vroom": 6779, "\u0120fact": 6780, "\u0120groups": 6781, "bly": 6782, "\u0120forehead": 6783, "\u0120lungs": 6784, "Harry": 6785, "\u0120repa": 6786, "\u0120interested": 6787, "\u0120bakery": 6788, "\u0120Milo": 6789, "\u0120freed": 6790, "Lilly": 6791, "itches": 6792, "\u0120Nothing": 6793, "\u0120chuckled": 6794, "For": 6795, "\u0120swept": 6796, "\u0120conn": 6797, "?'": 6798, "\u0120thud": 6799, "\u0120exhausted": 6800, "Tw": 6801, "\u0120twinkling": 6802, "\u0120tapped": 6803, "Ru": 6804, "\u0120nect": 6805, "rosty": 6806, "\u0120nectar": 6807, "elle": 6808, "\u0120feast": 6809, "\u0120darling": 6810, "indr": 6811, "\u0120Mad": 6812, "\u0120worries": 6813, "\u0120uns": 6814, "\u0120tunnels": 6815, "\u0120fuzzy": 6816, "\u0120repaired": 6817, "\u0120reason": 6818, "\u0120Trust": 6819, "\u0120Copper": 6820, "\u0120Ball": 6821, "\u0120activities": 6822, "lets": 6823, "\u0120pecked": 6824, "\u0120Hannah": 6825, "\u0120entrance": 6826, "\u0120Try": 6827, "\u0120raindr": 6828, "\u0120meals": 6829, "\u0120Listen": 6830, "\u0120particular": 6831, "\u0120completely": 6832, "\u0120mailed": 6833, "ctions": 6834, "\u0120nests": 6835, "\u0120waiter": 6836, "\u0120cuddly": 6837, "\u0120sense": 6838, "\u0120Nana": 6839, "\u0120colored": 6840, "arky": 6841, "\u0120leap": 6842, "step": 6843, "band": 6844, "\u0120plenty": 6845, "\u0120peeking": 6846, "\u0120slammed": 6847, "\u0120Cara": 6848, "no": 6849, "\u0120players": 6850, "\u0120month": 6851, "\u0120Birthday": 6852, "\u0120budge": 6853, "\u0120Q": 6854, "\u0120scra": 6855, "\u0120forgets": 6856, "\u0120den": 6857, "\u0120handful": 6858, "\u0120Oliver": 6859, "\u0120mer": 6860, "ossible": 6861, "\u0120genie": 6862, "\u0120Christ": 6863, "\u0120stool": 6864, "iggie": 6865, "\u0120talks": 6866, "\u0120Pup": 6867, "\u0120Suzie": 6868, "\u0120passports": 6869, "\u0120feeding": 6870, "\u0120films": 6871, "\u0120baths": 6872, "\u0120impossible": 6873, "\u0120determination": 6874, "May": 6875, "\u0120printing": 6876, "boat": 6877, "\u0120designed": 6878, "\u0120buses": 6879, "\u0120opp": 6880, "ueen": 6881, "lephant": 6882, "\u0120suitcase": 6883, "\u0120bars": 6884, "\u0120counts": 6885, "\u0120stolen": 6886, "\u0120spreading": 6887, "\u0120spikes": 6888, "\u0120Snap": 6889, "\u0120wiping": 6890, "\u0120steer": 6891, "\u0120lamb": 6892, "\u0120Rain": 6893, "\u0120honked": 6894, "etty": 6895, "nies": 6896, "Whee": 6897, "\u0120cowb": 6898, "\u0120separated": 6899, "blings": 6900, "\u0120siblings": 6901, "\u0120hops": 6902, "\u0120chop": 6903, "\u0120sewing": 6904, "\u0120fires": 6905, "\u0120Twinkle": 6906, "\u0120fever": 6907, "\u0120twinkle": 6908, "\u0120ty": 6909, "\u0120camping": 6910, "\u0120Mira": 6911, "\u0120lower": 6912, "\u0120changing": 6913, "yes": 6914, "retch": 6915, "but": 6916, "\u0120behavi": 6917, "\u0120Bloom": 6918, "mas": 6919, "\u0120liqu": 6920, "\u0120celebration": 6921, "\u0120squealed": 6922, "\u0120dollhouse": 6923, "Sunny": 6924, "\u0120backward": 6925, "\u0120age": 6926, "\u0120snatched": 6927, "\u0120cash": 6928, "ho": 6929, "\u0120twice": 6930, "lee": 6931, "\u0120sway": 6932, "itched": 6933, "\u0120celebrating": 6934, "\u0120Peanut": 6935, "rious": 6936, "\u0120shrinking": 6937, "\u0120ache": 6938, "weed": 6939, "\u0120kings": 6940, "\u0120shops": 6941, "\u0120kittens": 6942, "cope": 6943, "Rose": 6944, "\u0120Jessica": 6945, "\u0120Jacob": 6946, "\u0120Gina": 6947, "aura": 6948, "\u0120hus": 6949, "\u0120touches": 6950, "airy": 6951, "\u0120pancakes": 6952, "\u0120avoid": 6953, "\u0120spat": 6954, "\u0120Frosty": 6955, "rig": 6956, "hog": 6957, "\u0120Nina": 6958, "ne": 6959, "\u0120paths": 6960, "ives": 6961, "cky": 6962, "\u0120Hold": 6963, "\u0120rotten": 6964, "\u0120calmed": 6965, "Sandy": 6966, "\u0120seaweed": 6967, "\u0120dropping": 6968, "\u0120Jon": 6969, "\u0120Mel": 6970, "iles": 6971, "Pipp": 6972, "\u0120twisting": 6973, "\u0120stroked": 6974, "\u0120untied": 6975, "llen": 6976, "\u0120playhouse": 6977, "Millie": 6978, "cl": 6979, "\u0120students": 6980, "\u0120puppies": 6981, "\u0120Sof": 6982, "hi": 6983, "\u0120screws": 6984, "\u0120astron": 6985, "\u0120Re": 6986, "\u0120somebody": 6987, "igning": 6988, "\u0120liquid": 6989, "ammy": 6990, "\u0120wakes": 6991, "\u0120squish": 6992, "\u0120Woof": 6993, "\u0120bracelets": 6994, "\u0120astronaut": 6995, "immer": 6996, "aren": 6997, "\u0120thrown": 6998, "\u0120loops": 6999, "\u0120Other": 7000, "Luckily": 7001, "\u0120wrapping": 7002, "\u0120plain": 7003, "\u0120tramp": 7004, "\u0120planning": 7005, "\u0120skunk": 7006, "\u0120aimed": 7007, "\u0120pennies": 7008, "\u0120shoo": 7009, "\u0120lifts": 7010, "\u0120dancers": 7011, "\u0120sparks": 7012, "\u0120firefly": 7013, "pen": 7014, "Dan": 7015, "\u0120poster": 7016, "yan": 7017, "endy": 7018, "\u0120cust": 7019, "\u0120Christmas": 7020, "\u0120rewarded": 7021, "\u0120objects": 7022, "\u0120directions": 7023, "using": 7024, "ingo": 7025, "\u0120reflection": 7026, "\u0120husband": 7027, "\u00e2\u0122\u0136": 7028, "Take": 7029, "river": 7030, "uppy": 7031, "\u0120clues": 7032, "\u0120leads": 7033, "\u0120increased": 7034, "\u0120blocked": 7035, "\u0120rising": 7036, "\u0120dod": 7037, "\u0120cousin": 7038, "\u0120Yesterday": 7039, "\u0120Without": 7040, "\u0120forgetting": 7041, "rigued": 7042, "\u0120custom": 7043, "Kate": 7044, "ude": 7045, "\u0120trampoline": 7046, "\u0120beginning": 7047, "\u0120storekeeper": 7048, "\u0120pouted": 7049, "\u0120zebras": 7050, "\u0120hedgehog": 7051, "\u0120aff": 7052, "\u0120\u00e2\u0122\u013a": 7053, "\u0120borrowed": 7054, "\u0120Rollie": 7055, "\u0120snowfl": 7056, "\u0120countryside": 7057, "Jump": 7058, "\u0120mesmer": 7059, "\u0120Jay": 7060, "\u0120vehicles": 7061, "\u0120instrum": 7062, "\u0120Mic": 7063, "\u0120Kayla": 7064, "\u0120Up": 7065, "\u0120frowning": 7066, "ivity": 7067, "Pat": 7068, "Under": 7069, "\u0120marker": 7070, "yond": 7071, "\u0120presses": 7072, "\u0120beyond": 7073, "\u0120Queen": 7074, "\u0120damage": 7075, "\u0120Only": 7076, "iece": 7077, "ivery": 7078, "\u0120fart": 7079, "\u0120Tara": 7080, "\u0120Biggie": 7081, "jo": 7082, "\u0120health": 7083, "\u0120whispers": 7084, "\u0120swimsuit": 7085, "\u0120slips": 7086, "\u0120nibb": 7087, "\u0120Julia": 7088, "armer": 7089, "\u0120warmer": 7090, "\u0120flapping": 7091, "\u0120tiptoed": 7092, "\u0120regretted": 7093, "itted": 7094, "Zip": 7095, "\u0120laying": 7096, "\u0120Robo": 7097, "ades": 7098, "\u0120yelp": 7099, "\u0120Fire": 7100, "\u0120rains": 7101, "\u0120glued": 7102, "\u0120everybody": 7103, "\u0120creations": 7104, "\u0120hearing": 7105, "\u0120swir": 7106, "\u0120colder": 7107, "iversity": 7108, "ael": 7109, "\u0120shaped": 7110, "\u0120Elephant": 7111, "\u0120streets": 7112, "\u0120fins": 7113, "\u0120rusty": 7114, "\u0120cushions": 7115, "Out": 7116, "\u0120san": 7117, "\u0120farthest": 7118, "\u0120creativity": 7119, "\u0120Mikey": 7120, "ans": 7121, "\u0120sale": 7122, "Always": 7123, "Co": 7124, "\u0120strongest": 7125, "ibbit": 7126, "\u0120fits": 7127, "\u0120Sparky": 7128, "\u0120bells": 7129, "\u0120dollars": 7130, "\u0120Larry": 7131, "\u0120earn": 7132, "iam": 7133, "angle": 7134, "\u0120lending": 7135, "\u0120Moon": 7136, "\u0120Chirp": 7137, "eese": 7138, "\u0120cashier": 7139, "Milly": 7140, "\u0120including": 7141, "\u0120sniffs": 7142, "\u0120sank": 7143, "\u0120raincoat": 7144, "\u0120Rich": 7145, "\u0120trembled": 7146, "\u0120stopping": 7147, "ters": 7148, "\u0120source": 7149, "iti": 7150, "imon": 7151, "\u0120Missy": 7152, "\u0120wobbly": 7153, "\u0120indeed": 7154, "\u0120guests": 7155, "\u0120single": 7156, "\u0120recommended": 7157, "\u0120wee": 7158, "\u0120spells": 7159, "\u0120accomplishment": 7160, "\u0120belts": 7161, "\u0120surprising": 7162, "\u0120ends": 7163, "\u0120hopeful": 7164, "the": 7165, "\u0120seasons": 7166, "\u0120Take": 7167, "\u0120Snowman": 7168, "\u0120Els": 7169, "Bear": 7170, "\u0120plans": 7171, "ichael": 7172, "\u0120encourag": 7173, "\u0120supported": 7174, "stick": 7175, "illed": 7176, "\u0120suffered": 7177, "\u0120artist": 7178, "\u0120performance": 7179, "eet": 7180, "Nina": 7181, "\u0120slowed": 7182, "\u0120gross": 7183, "\u0120flavors": 7184, "iding": 7185, "ertain": 7186, "\u0120spins": 7187, "cho": 7188, "Quack": 7189, "\u0120labels": 7190, "\u0120raindrops": 7191, "\u0120delivery": 7192, "uing": 7193, "arac": 7194, "\u0120raccoon": 7195, "\u0120forgiving": 7196, "obody": 7197, "\u0120Woo": 7198, "\u0120pours": 7199, "ility": 7200, "\u0120vanilla": 7201, "\u0120turtles": 7202, "\u0120stands": 7203, "Bill": 7204, "uess": 7205, "\u0120recipe": 7206, "\u0120beam": 7207, "\u0120tying": 7208, "\u0120Sw": 7209, "\u0120geese": 7210, "\u0120willing": 7211, "\u0120robber": 7212, "\u0120drawn": 7213, "Vroom": 7214, "\u0120wept": 7215, "\u0120Bones": 7216, "\u0120charac": 7217, "\u0120pops": 7218, "\u0120corners": 7219, "\u0120Sophia": 7220, "elia": 7221, "\u0120queens": 7222, "\u0120sailboat": 7223, "\u0120grip": 7224, "\u0120die": 7225, "\u0120drivers": 7226, "itude": 7227, "\u0120moo": 7228, "\u0120hallway": 7229, "\u0120imagining": 7230, "\u0120seconds": 7231, "\u0120Fuzzy": 7232, "Mine": 7233, "\u0120preparing": 7234, "\u0120widened": 7235, "\u0120adult": 7236, "\u0120Spirit": 7237, "\u0120grocer": 7238, "\u0120coop": 7239, "\u0120talented": 7240, "\u0120Pam": 7241, "\u0120Beaky": 7242, "\u0120Izzy": 7243, "ummies": 7244, "\u0120sailors": 7245, "lling": 7246, "\u0120softer": 7247, "\u0120aside": 7248, "\u0120watering": 7249, "\u0120sending": 7250, "\u0120knots": 7251, "\u0120unsure": 7252, "\u0120tipped": 7253, "Lulu": 7254, "\u0120treehouse": 7255, "\u0120horiz": 7256, "\u0120Lizzie": 7257, "\u0120notes": 7258, "\u0120echo": 7259, "igers": 7260, "\u0120achieved": 7261, "\u0120horizon": 7262, "\u0120squeak": 7263, "\u0120delivering": 7264, "\u0120pleasure": 7265, "\u0120hotter": 7266, "\u0120Stella": 7267, "Clara": 7268, "\u0120pupils": 7269, "\u0120burrow": 7270, "\u0120angels": 7271, "Ellie": 7272, "\u0120yum": 7273, "\u0120curiously": 7274, "\u0120blinking": 7275, "\u0120June": 7276, "\u0120tweet": 7277, "\u0120symbols": 7278, "\u0120det": 7279, "\u0120Stretch": 7280, "wk": 7281, "\u0120passen": 7282, "\u0120Rudy": 7283, "\u0120Cindy": 7284, "\u0120tummies": 7285, "\u0120tiss": 7286, "\u0120pigeons": 7287, "\u0120figures": 7288, "umbling": 7289, "oey": 7290, "\u0120bandages": 7291, "\u0120Robert": 7292, "\u0120coup": 7293, "\u0120Doctor": 7294, "\u0120robots": 7295, "alph": 7296, "\u0120tossed": 7297, "\u0120hour": 7298, "\u0120backwards": 7299, "\u0120roars": 7300, "Baby": 7301, "\u0120merma": 7302, "uzz": 7303, "\u0120rather": 7304, "atur": 7305, "Maria": 7306, "cited": 7307, "\u0120Play": 7308, "\u0120Crab": 7309, "Moo": 7310, "ighting": 7311, "Dolly": 7312, "\u0120groceries": 7313, "\u0120zipping": 7314, "Put": 7315, "Very": 7316, "\u0120unw": 7317, "prin": 7318, "\u0120among": 7319, "\u0120blown": 7320, "\u0120icing": 7321, "!\u00e2\u0122\u013f.": 7322, "\u0120rumble": 7323, "\u0120afterwards": 7324, "ipper": 7325, "\u0120screwd": 7326, "ushing": 7327, "\u0120sped": 7328, "\u0120prove": 7329, "\u0120glee": 7330, "\u0120Titi": 7331, "\u0120Tia": 7332, "\u0120dip": 7333, "\u0120overcome": 7334, "Ruby": 7335, "Quick": 7336, "\u0120surfboard": 7337, "\u0120shovels": 7338, "\u0120slices": 7339, "\u0120Toot": 7340, "\u0120merry": 7341, "\u0120wobble": 7342, "\u0120mate": 7343, "\u0120Turt": 7344, "\u0120Abbie": 7345, "\u0120heading": 7346, "\u0120disturbing": 7347, "\u0120swall": 7348, "\u0120reversed": 7349, "\u0120firefighters": 7350, "Jul": 7351, "\u0120swallowed": 7352, "\u0120chip": 7353, "eds": 7354, "\u0120scored": 7355, "\u0120flipped": 7356, "\u0120Jump": 7357, "\u0120squeezing": 7358, "usty": 7359, "Frank": 7360, "aty": 7361, "Su": 7362, "\u0120waking": 7363, "\u0120intrigued": 7364, "Sad": 7365, "Like": 7366, "\u0120maker": 7367, "\u0120Barky": 7368, "awn": 7369, "Betty": 7370, "\u0120puff": 7371, "\u0120hawk": 7372, "\u0120encouraging": 7373, "\u0120aud": 7374, "\u0120Ex": 7375, "osen": 7376, "onies": 7377, "\u0120chosen": 7378, "\u0120Ron": 7379, "hew": 7380, "\u0120Farmer": 7381, "\u0120Ang": 7382, "\u0120couple": 7383, "\u0120designs": 7384, "\u0120slipping": 7385, "\u0120screwdriver": 7386, "\u0120squishy": 7387, "\u0120Emmy": 7388, "\u0120gardener": 7389, "\u0120center": 7390, "\u0120rivers": 7391, "\u0120respond": 7392, "\u0120markers": 7393, "iley": 7394, "\u0120tigers": 7395, "\u0120jars": 7396, "pecting": 7397, "\u0120frowns": 7398, "bird": 7399, "\u0120fluttered": 7400, "\u0120Sadly": 7401, "\u0120Kit": 7402, "Ribbit": 7403, "\u0120firefighter": 7404, "\u0120Sl": 7405, "\u0120Ryan": 7406, "\u0120suits": 7407, "\u0120secure": 7408, "\u0120sprinkled": 7409, "\u0120creamy": 7410, "ashes": 7411, "\u0120sharks": 7412, "\u0120ignoring": 7413, "\u0120bru": 7414, "\u0120giggles": 7415, "\u0120tissue": 7416, "\u0120tighter": 7417, "\u0120firmly": 7418, "ounce": 7419, "fly": 7420, "\u0120Laura": 7421, "\u0120shown": 7422, "\u0120familiar": 7423, "\u0120thorns": 7424, "Spike": 7425, "\u0120Wo": 7426, "\u0120drawers": 7427, "child": 7428, "\u0120Zee": 7429, "\u0120express": 7430, "Car": 7431, "ments": 7432, "\u0120def": 7433, "\u0120daring": 7434, "\u0120crossing": 7435, "\u0120audience": 7436, "\u0120performing": 7437, "\u0120coloured": 7438, "\u0120cloudy": 7439, "\u0120cor": 7440, "\u0120ais": 7441, "\u0120Nick": 7442, "ae": 7443, "rat": 7444, "\u0120pedaled": 7445, "Get": 7446, "\u0120mixture": 7447, "\u0120til": 7448, "\u0120gracefully": 7449, "ggy": 7450, "\u0120haircuts": 7451, "\u0120yielded": 7452, "\u0120ponies": 7453, "\u0120disob": 7454, "\u0120crowns": 7455, "\u0120bits": 7456, "\u0120todd": 7457, "\u0120Sleep": 7458, "\u0120nervously": 7459, "\u0120hangers": 7460, "bbled": 7461, "\u0120Patch": 7462, "Zoomy": 7463, "\u0120pays": 7464, "\u01202": 7465, "\u0120peck": 7466, "\u0120ev": 7467, "\u0120stroke": 7468, "een": 7469, "Bang": 7470, "fall": 7471, "\u0120respected": 7472, "\u0120napped": 7473, "aven": 7474, "\u0120minded": 7475, "ddie": 7476, "Bessie": 7477, "ably": 7478, "Boys": 7479, "\u0120tested": 7480, "ading": 7481, "parent": 7482, "\u0120Chris": 7483, "Kim": 7484, "\u0120University": 7485, "\u0120Near": 7486, "\u0120beeh": 7487, "\u0120Turtle": 7488, "\u0120surfing": 7489, "\u0120neighbours": 7490, "arrow": 7491, "vered": 7492, "\u0120shady": 7493, "iona": 7494, "arlings": 7495, "\u0120magician": 7496, "\u0120enthusiasm": 7497, "\u0120darlings": 7498, "\u0120wisely": 7499, "\u0120stitches": 7500, "\u0120sails": 7501, "kend": 7502, "Dear": 7503, "\u0120weekend": 7504, "\u0120thoughts": 7505, "Freddy": 7506, "\u0120Tweetie": 7507, "\u0120reminds": 7508, "\u0120temper": 7509, "oring": 7510, "tha": 7511, "antha": 7512, "\u0120surroundings": 7513, "\u0120spits": 7514, "\u0120fleas": 7515, "\u0120teams": 7516, "\u0120lessons": 7517, "\u0120fills": 7518, "\u0120flip": 7519, "\u0120Along": 7520, "\u0120paintbrush": 7521, "\u0120melons": 7522, "\u0120mermaid": 7523, "oni": 7524, "Katie": 7525, "\u0120grandchild": 7526, "\u0120explo": 7527, "\u0120hoops": 7528, "\u0120elbow": 7529, "\u0120sports": 7530, "Guess": 7531, "\u0120lies": 7532, "\u0120Fighting": 7533, "rac": 7534, "\u0120panicked": 7535, "\u0120cleaner": 7536, "\u0120amount": 7537, "cused": 7538, "\u0120longest": 7539, "\u0120scooters": 7540, "\u0120lent": 7541, "ita": 7542, "immering": 7543, "\u0120sill": 7544, "\u0120beloved": 7545, "Pippin": 7546, "\u0120beehive": 7547, "Alright": 7548, "ongrat": 7549, "oga": 7550, "lle": 7551, "ongratul": 7552, "\u0120oysters": 7553, "\u0120grandparent": 7554, "\u0120forgiven": 7555, "\u0120magazines": 7556, "\u0120arr": 7557, "\u0120Wise": 7558, "\u0120elf": 7559, "\u0120repeating": 7560, "\u0120discussed": 7561, "\u0120sweetest": 7562, "\u0120Thanks": 7563, "Keep": 7564, "\u0120wadd": 7565, "\u0120Maya": 7566, "\u0120reass": 7567, "\u0120lace": 7568, "\u0120Granny": 7569, "\u0120nightmares": 7570, "\u0120tubes": 7571, "\u0120Willy": 7572, "\u0120understands": 7573, "\u0120spoonful": 7574, "\u0120nood": 7575, "\u0120bathing": 7576, "\u0120Zoey": 7577, "asty": 7578, "Am": 7579, "\u0120sweep": 7580, "\u0120manners": 7581, "crow": 7582, "Uncle": 7583, "\u0120wrink": 7584, "\u0120sprang": 7585, "\u0120nur": 7586, "\u0120bully": 7587, "\u0120Holly": 7588, "\u0120guide": 7589, "\u0120Yet": 7590, "onna": 7591, "ancy": 7592, "\u0120crew": 7593, "romise": 7594, "while": 7595, "Jazz": 7596, "\u0120breathed": 7597, "steps": 7598, "ilda": 7599, "ently": 7600, "\u0120Bally": 7601, "\u0120bulbs": 7602, "\u0120neare": 7603, "\u0120grassy": 7604, "\u0120wiggly": 7605, "\u0120testing": 7606, "\u0120spies": 7607, "\u0120coug": 7608, "\u0120solving": 7609, "\u0120sheets": 7610, "\u0120Roo": 7611, "\u0120footsteps": 7612, "ntil": 7613, "Afterwards": 7614, "\u0120speeding": 7615, "\u0120focused": 7616, "ounced": 7617, "cept": 7618, "?!\"": 7619, "\u0120mesmerized": 7620, "\u0120camel": 7621, "\u0120braver": 7622, "\u0120hesitant": 7623, "\u0120Sparkle": 7624, "\u0120licking": 7625, "\u0120rushing": 7626, "\u0120Well": 7627, "\u0120joining": 7628, "\u0120Puppy": 7629, "\u0120polar": 7630, "\u0120greeted": 7631, "\u0120Martha": 7632, "espite": 7633, "--": 7634, "\u0120Bubb": 7635, "Which": 7636, "Kiki": 7637, "\u0120worn": 7638, "\u0120materials": 7639, "\u0120changes": 7640, "\u0120Nobody": 7641, "undred": 7642, "\u0120stored": 7643, "\u0120bicycles": 7644, "\u0120mast": 7645, "\u0120anger": 7646, "Leave": 7647, "\u0120peacefully": 7648, "\u0120ships": 7649, "\u0120spice": 7650, "\u0120terrified": 7651, "\u0120nuzz": 7652, "\u0120gonna": 7653, "\u0120Show": 7654, "\u0120politely": 7655, "Snow": 7656, "\u0120spills": 7657, "\u0120scarecrow": 7658, "\u0120knives": 7659, "\u0120evil": 7660, "\u0120Mixy": 7661, "ppies": 7662, "\u0120burying": 7663, "ca": 7664, "\u0120healing": 7665, "\u0120aren": 7666, "\u0120donkey": 7667, "\u0120aeroplanes": 7668, "freeze": 7669, "Even": 7670, "\u0120seals": 7671, "\u0120scattering": 7672, "\u0120miles": 7673, "\u0120Chewy": 7674, "amboo": 7675, "\u0120dump": 7676, "\u0120worrying": 7677, "Bee": 7678, "zoom": 7679, "beep": 7680, "David": 7681, "\u0120Lenny": 7682, "\u0120puzzled": 7683, "\u0120stacked": 7684, "\u0120Kip": 7685, "Penny": 7686, "\u0120Nice": 7687, "\u0120loses": 7688, "dding": 7689, "\u0120travelled": 7690, "\u0120baskets": 7691, "\u0120Win": 7692, "\u0120Okay": 7693, "\u0120gazing": 7694, "\u0120blast": 7695, "ipes": 7696, "\u0120Tess": 7697, "Hurry": 7698, "\u0120und": 7699, "\u0120temperature": 7700, "\u0120tasting": 7701, "\u0120dripping": 7702, "\u0120clue": 7703, "\u0120believing": 7704, "\u0120pinching": 7705, "erm": 7706, "\u0120soaking": 7707, "\u0120rats": 7708, "\u012010": 7709, "isc": 7710, "\u0120sandy": 7711, "rect": 7712, "\u0120Isn": 7713, "\u0120Simon": 7714, "rey": 7715, "anwhile": 7716, "\u0120Abi": 7717, "Binky": 7718, "\u0120punishment": 7719, "\u0120banged": 7720, "\u0120humans": 7721, "\u0120crashing": 7722, "\u0120force": 7723, "\u0120Ana": 7724, "\u0120hundred": 7725, "\u0120gest": 7726, "\u0120Lia": 7727, "\u0120swimmer": 7728, "\u0120Chess": 7729, "\u0120snowflakes": 7730, "\u0120relaxing": 7731, "\u0120resisted": 7732, "\u0120beeped": 7733, "\u0120Fairy": 7734, "form": 7735, "elie": 7736, "\u0120quarreled": 7737, "\u0120ramp": 7738, "\u0120Wendy": 7739, "\u0120joins": 7740, "abby": 7741, "\u0120backpacks": 7742, "\u0120Ph": 7743, "years": 7744, "\u0120dressing": 7745, "\u0120delayed": 7746, "\u0120toddler": 7747, "\u0120Luckily": 7748, "\u0120flight": 7749, "\u0120covering": 7750, "\u0120Te": 7751, "orter": 7752, "Two": 7753, "Open": 7754, "By": 7755, "\u0120encouragement": 7756, "\u0120benches": 7757, "\u0120toward": 7758, "\u0120scraped": 7759, "\u0120purpose": 7760, "\u0120focus": 7761, "\u0120Judy": 7762, "Bow": 7763, "\u0120correct": 7764, "'.\"": 7765, "\u0120lipstick": 7766, "\u0120bamboo": 7767, "Spe": 7768, "\u0120twinkled": 7769, "\u0120potion": 7770, "\u0120permitted": 7771, "\u0120months": 7772, "\u0120Cow": 7773, "\u0120languages": 7774, "\u0120orders": 7775, "\u0120freedom": 7776, "Tony": 7777, "\u0120risks": 7778, "\u0120poppies": 7779, "\u0120master": 7780, "shm": 7781, "\u0120noodles": 7782, "\u0120faded": 7783, "\u0120wounds": 7784, "shmallow": 7785, "rier": 7786, "Kids": 7787, "isions": 7788, "\u0120Jojo": 7789, "\u0120creams": 7790, "\u0120birdhouse": 7791, "\u0120cells": 7792, "\u0120annoyed": 7793, "\u0120Herb": 7794, "opes": 7795, "\u0120sniffing": 7796, "\u0120cheers": 7797, "\u0120adults": 7798, "Birdy": 7799, "\u0120unwra": 7800, "ecca": 7801, "Buzzy": 7802, "\u0120puck": 7803, "\u0120opinions": 7804, "\u0120floats": 7805, "andas": 7806, "Instead": 7807, "\u0120flown": 7808, "\u0120sneezes": 7809, "\u0120scen": 7810, "\u0120handsome": 7811, "\u0120nodding": 7812, "\u0120Mint": 7813, "\u0120smelling": 7814, "\u0120burnt": 7815, "\u01205": 7816, "\u0120drifted": 7817, "ider": 7818, "bage": 7819, "\u0120within": 7820, "\u0120scient": 7821, "\u0120height": 7822, "\u0120damaged": 7823, "\u0120bothering": 7824, "\u0120tearing": 7825, "\u0120slither": 7826, "\u0120pleaded": 7827, "\u0120instruments": 7828, "\u0120ease": 7829, "\u0120Ali": 7830, "da": 7831, "Back": 7832, "\u0120scientist": 7833, "\u0120Marie": 7834, "Mira": 7835, "Goodnight": 7836, "\u0120pound": 7837, "\u0120seller": 7838, "\u0120handing": 7839, "\u0120germ": 7840, "\u0120Say": 7841, "\u0120wasting": 7842, "\u0120files": 7843, "\u0120results": 7844, "\u0120dreamt": 7845, "\u0120Mabel": 7846, "bell": 7847, "\u0120explains": 7848, "\u0120destroying": 7849, "\u0120brushing": 7850, "ousy": 7851, "\u0120hiss": 7852, "\u0120characters": 7853, "\u0120Razor": 7854, "\u0120Cr": 7855, "Carl": 7856, "\u0120certain": 7857, "\u0120Ste": 7858, "Pandy": 7859, "Behind": 7860, "\u0120sweaty": 7861, "\u0120Hug": 7862, "unched": 7863, "\u0120business": 7864, "\u0120Robbie": 7865, "\u0120talents": 7866, "\u0120onward": 7867, "Try": 7868, "\u0120engines": 7869, "\u0120bravest": 7870, "ition": 7871, "\u0120sternly": 7872, "\u0120Pen": 7873, "\u0120Janie": 7874, "prints": 7875, "\u0120postman": 7876, "\u0120mosquitoes": 7877, "\u0120minds": 7878, "urious": 7879, "under": 7880, "cake": 7881, "\u0120tuck": 7882, "\u0120scares": 7883, "\u0120stomp": 7884, "\u0120apologised": 7885, "uel": 7886, "\u0120manag": 7887, "\u0120snuck": 7888, "\u0120bitten": 7889, "attered": 7890, "\u0120tilted": 7891, "\u0120switched": 7892, "\u0120reminding": 7893, "\u0120decisions": 7894, "\u0120singers": 7895, "\u0120desper": 7896, "\u0120behavior": 7897, "\u0120Poor": 7898, "ashing": 7899, "\u0120Judge": 7900, "bbers": 7901, "inny": 7902, "\u0120squeaked": 7903, "\u0120peeled": 7904, "\u0120Everybody": 7905, "\u0120yumm": 7906, "\u0120purrs": 7907, "\u0120Bra": 7908, "\u0120treated": 7909, "\u0120smashed": 7910, "\u0120rustling": 7911, "\u0120displayed": 7912, "\u0120Until": 7913, "\u0120neatly": 7914, "\u0120matey": 7915, "\u0120planting": 7916, "\u0120Bess": 7917, "\u0120marshmallow": 7918, "\u0120insp": 7919, "\u0120yelped": 7920, "\u0120sy": 7921, "\u0120grandparents": 7922, "\u0120cracks": 7923, "\u0120bellies": 7924, "aver": 7925, "\u0120shines": 7926, "\u0120scamp": 7927, "\u0120Navy": 7928, "\u0120hoo": 7929, "\u0120failed": 7930, "\u0120coloring": 7931, "\u0120Yoga": 7932, "line": 7933, "\u0120zooms": 7934, "\u0120Make": 7935, "rup": 7936, "\u0120nasty": 7937, "\u0120breathing": 7938, "\u0120combed": 7939, "\u0120pandas": 7940, "\u0120despite": 7941, "\u0120address": 7942, "ighing": 7943, "uffin": 7944, "omp": 7945, "\u0120waterfall": 7946, "cc": 7947, "\u0120Loop": 7948, "\u0120Angel": 7949, "Tilly": 7950, "\u0120wider": 7951, "\u0120robbers": 7952, "\u0120antic": 7953, "Play": 7954, "Abigail": 7955, "\u0120sweaters": 7956, "\u0120echoed": 7957, "\u0120doorway": 7958, "\u0120Todd": 7959, "evin": 7960, "\u0120edges": 7961, "\u0120inj": 7962, "\u0120Shadow": 7963, "Aunt": 7964, "\u0120gap": 7965, "\u0120disobey": 7966, "\u0120Blinky": 7967, "wise": 7968, "Liz": 7969, "\u0120Michael": 7970, "\u0120tar": 7971, "\u0120Flick": 7972, "oscope": 7973, "orking": 7974, "Wake": 7975, "\u0120taped": 7976, "\u0120magnif": 7977, "ulp": 7978, "father": 7979, "\u0120scolds": 7980, "\u0120flaps": 7981, "\u0120action": 7982, "\u0120crawls": 7983, "\u0120Mindy": 7984, "Ros": 7985, "\u0120swap": 7986, "\u0120gobbled": 7987, "\u0120backs": 7988, "\u0120Gary": 7989, "\u0120warri": 7990, "\u0120Fishy": 7991, "\u0120Eddie": 7992, "Slow": 7993, "\u0120steth": 7994, "\u0120sever": 7995, "\u0120shinier": 7996, "\u0120probably": 7997, "\u0120newspapers": 7998, "\u0120several": 7999, "\u0120occ": 8000, "Rock": 8001, "Lena": 8002, "\u0120encount": 8003, "\u0120Meg": 8004, "\u0120serving": 8005, "\u0120quieter": 8006, "\u0120plucked": 8007, "\u0120connected": 8008, "tock": 8009, "\u0120Share": 8010, "\u0120ouch": 8011, "igger": 8012, "Ted": 8013, "Adam": 8014, "\u0120gesture": 8015, "Too": 8016, "Fl": 8017, "\u0120student": 8018, "\u0120plot": 8019, "\u0120doorbell": 8020, "\u0120squaw": 8021, "\u0120cares": 8022, "fire": 8023, "\u0120rescuing": 8024, "\u0120grandson": 8025, "\u0120goo": 8026, "\u0120Se": 8027, "\u0120spy": 8028, "\u0120simply": 8029, "\u0120rows": 8030, "iel": 8031, "\u0120whistles": 8032, "mies": 8033, "vant": 8034, "Shrink": 8035, "Magic": 8036, "\u0120snaps": 8037, "\u0120shorter": 8038, "\u0120astronauts": 8039, "ssss": 8040, "\u0120unpacking": 8041, "\u0120cottage": 8042, "\u0120Time": 8043, "\u0120swo": 8044, "\u0120accidents": 8045, "ibi": 8046, "\u0120swollen": 8047, "\u0120mood": 8048, "\u0120Nut": 8049, "Steve": 8050, "\u0120Zippy": 8051, "\u0120Mousy": 8052, "anie": 8053, "abelle": 8054, "Zara": 8055, "\u0120bothered": 8056, "found": 8057, "Hannah": 8058, "\u0120stethoscope": 8059, "\u0120trusting": 8060, "\u0120causing": 8061, "Mat": 8062, "Mad": 8063, "aint": 8064, "\u0120leapt": 8065, "\u0120dresser": 8066, "\u0120sou": 8067, "\u0120proper": 8068, "\u0120pills": 8069, "retty": 8070, "\u0120throughout": 8071, "Olive": 8072, "\u0120prayers": 8073, "\u0120Dina": 8074, "\u0120runner": 8075, "\u0120joyful": 8076, "Thomas": 8077, "mates": 8078, "\u0120locks": 8079, "\u0120Prince": 8080, "rest": 8081, "Jamie": 8082, "\u0120goats": 8083, "what": 8084, "\u0120target": 8085, "\u0120Wait": 8086, "\u0120Karen": 8087, "\u0120dears": 8088, "\u0120Bang": 8089, "artled": 8090, "Red": 8091, "\u0120waddled": 8092, "\u0120munch": 8093, "\u0120flips": 8094, "\u0120Cro": 8095, "\u0120lowered": 8096, "\u0120stepping": 8097, "\u0120cons": 8098, "\u0120Jackie": 8099, "\u0120teachers": 8100, "\u0120cowboy": 8101, "\u0120Toys": 8102, "\u0120inches": 8103, "\u0120envelopes": 8104, "ears": 8105, "\u0120char": 8106, "\u0120Vroom": 8107, "\u0120explorer": 8108, "\u0120anticip": 8109, "\u0120playd": 8110, "\u0120Ready": 8111, "\u0120Ruff": 8112, "\u0120Ralph": 8113, "unity": 8114, "Nice": 8115, "Finn": 8116, "\u0120Bad": 8117, "ening": 8118, "\u0120knocking": 8119, "\u0120floors": 8120, "\u0120efforts": 8121, "\u0120Pl": 8122, "\u0120uniforms": 8123, "lied": 8124, "\u0120Tri": 8125, "\u0120trot": 8126, "\u0120aware": 8127, "\u0120footprints": 8128, "Someone": 8129, "\u0120nearly": 8130, "\u0120Fiona": 8131, "llas": 8132, "\u0120disc": 8133, "\u0120Ria": 8134, "ivi": 8135, "\u0120whimp": 8136, "\u0120sens": 8137, "\u0120glitt": 8138, "\u0120appreciation": 8139, "oosh": 8140, "\u0120necks": 8141, "\u0120collap": 8142, "\u0120checks": 8143, "\u0120lapt": 8144, "\u0120except": 8145, "\u0120plug": 8146, "\u0120charge": 8147, "\u0120Jacky": 8148, "\u0120fluttering": 8149, "\u0120umbrellas": 8150, "\u0120stamped": 8151, "acy": 8152, "\u0120sandcastles": 8153, "\u0120Davey": 8154, "\u0120statues": 8155, "\u0120Honey": 8156, "omb": 8157, "iscuit": 8158, "ails": 8159, "Hoppy": 8160, "\u0120shrank": 8161, "\u0120Amelia": 8162, "rily": 8163, "\u0120prick": 8164, "\u0120finishing": 8165, "\u0120adds": 8166, "rons": 8167, "\u0120stroll": 8168, "\u0120hunters": 8169, "\u0120dodged": 8170, "\u0120chocolates": 8171, "\u0120passengers": 8172, "\u0120germs": 8173, "oger": 8174, "\u0120wrigg": 8175, "\u0120aprons": 8176, "\u0120aisle": 8177, "\u0120sets": 8178, ".'\"": 8179, "\u0120Gerry": 8180, "\u0120weeds": 8181, "\u0120novels": 8182, "order": 8183, "\u0120demanding": 8184, "\u0120Taking": 8185, "\u0120scratching": 8186, "\u0120meows": 8187, "issa": 8188, "Dr": 8189, "\u0120nurses": 8190, "Lucky": 8191, "\u0120minding": 8192, "\u0120discussing": 8193, "urrender": 8194, "\u0120killed": 8195, "\u0120driveway": 8196, "\u0120Cari": 8197, "\u0120becomes": 8198, "\u0120laptop": 8199, "\u0120haird": 8200, "\u0120Eliz": 8201, "\u0120toolbox": 8202, "\u0120posit": 8203, "\u0120attack": 8204, "\u0120Sadie": 8205, "\u0120Despite": 8206, "Speedy": 8207, "\u0120Gl": 8208, "sol": 8209, "\u0120scampered": 8210, "\u0120bounces": 8211, "\u0120supplied": 8212, "\u0120sprays": 8213, "\u0120deed": 8214, "\u0120tempt": 8215, "\u0120suggestion": 8216, "\u0120friendships": 8217, "\u0120burns": 8218, "Coco": 8219, "\u0120slapping": 8220, "\u0120closing": 8221, "Arrr": 8222, "\u0120invites": 8223, "\u0120belongings": 8224, "\u0120anticipation": 8225, "\u0120springing": 8226, "\u0120form": 8227, "\u0120erase": 8228, "\u0120cotton": 8229, "\u0120Stan": 8230, "\u0120twists": 8231, "\u0120rays": 8232, "\u0120snuggle": 8233, "\u0120forgives": 8234, "\u0120models": 8235, "\u0120shall": 8236, "\u0120massages": 8237, "\u0120humming": 8238, "onnie": 8239, "\u0120responded": 8240, "\u0120newfound": 8241, "\u0120ghosts": 8242, "\u0120expecting": 8243, "\u0120Shelly": 8244, "\u0120cheated": 8245, "Does": 8246, "\u0120Wooly": 8247, "Gigi": 8248, "otte": 8249, "\u0120traveling": 8250, "\u0120Ne": 8251, "\u0120cond": 8252, "\u0120battle": 8253, "\u0120although": 8254, "alloween": 8255, "\u0120mommies": 8256, "rie": 8257, "\u0120invitations": 8258, "\u0120carries": 8259, "\u0120aim": 8260, "\u0120refreshing": 8261, "ots": 8262, "hel": 8263, "\u0120presented": 8264, "\u0120conc": 8265, "\u0120twenty": 8266, "\u0120rowed": 8267, "\u0120Bumpy": 8268, "\u0120squir": 8269, "arlotte": 8270, "\u0120foxes": 8271, "\u0120cooper": 8272, "\u0120final": 8273, "\u0120duckling": 8274, "\u0120cafe": 8275, "\u0120Bibi": 8276, "Pip": 8277, "\u0120marshmallows": 8278, "\u0120clicked": 8279, "\u0120Zipper": 8280, "oor": 8281, "\u0120jets": 8282, "\u0120designing": 8283, "\u0120beaver": 8284, "five": 8285, "\u0120Muffin": 8286, "\u0120Halloween": 8287, "\u0120mugs": 8288, "\u0120Whoever": 8289, "\u0120drown": 8290, "\u0120Although": 8291, "\u0120tricycle": 8292, "\u0120picnics": 8293, "\u0120oppos": 8294, "\u0120convin": 8295, "\u0120Ruth": 8296, "\u0120Excited": 8297, "iens": 8298, "\u0120Cle": 8299, "po": 8300, "\u0120scoops": 8301, "\u0120congratul": 8302, "\u0120Pop": 8303, "\u0120Maddie": 8304, "Sadly": 8305, "\u0120\u00e2\u0122\u0136": 8306, "\u0120travels": 8307, "\u0120aliens": 8308, "\u0120tests": 8309, "\u0120questioned": 8310, "\u0120Speed": 8311, "inted": 8312, "\u0120strips": 8313, "\u0120craft": 8314, "Near": 8315, "atty": 8316, "Mouse": 8317, "covered": 8318, "\u0120defe": 8319, "\u0120Flutter": 8320, "\u0120Bubba": 8321, "iri": 8322, "Br": 8323, "\u0120fights": 8324, "roken": 8325, "Ball": 8326, "\u0120opposite": 8327, "\u0120Biggy": 8328, "Hmm": 8329, "Find": 8330, "Elly": 8331, "Chloe": 8332, "\u0120Im": 8333, "\u0120rout": 8334, "\u0120grandfather": 8335, "\u0120encountered": 8336, "\u0120afford": 8337, "\u0120Never": 8338, "\u0120decl": 8339, "inch": 8340, "iment": 8341, "\u0120raising": 8342, "\u0120upside": 8343, "\u0120Vivi": 8344, "Meanwhile": 8345, "Jess": 8346, "\u0120flashed": 8347, "\u0120calmly": 8348, "\u0120Rita": 8349, "\u0120yawning": 8350, "\u0120sincere": 8351, "\u0120realizes": 8352, "aturday": 8353, "Trust": 8354, "Choo": 8355, "\u0120crystals": 8356, "\u0120buddy": 8357, "\u0120Samantha": 8358, "\u0120cupcakes": 8359, "\u0120buckled": 8360, "byes": 8361, "Both": 8362, "\u0120winners": 8363, "\u0120defin": 8364, "verse": 8365, "ris": 8366, "',": 8367, "\u0120weapons": 8368, "\u0120caw": 8369, "shadow": 8370, "Josh": 8371, "\u0120packages": 8372, "\u0120cheat": 8373, "\u0120Saturday": 8374, "\u0120sacks": 8375, "\u0120messes": 8376, "\u0120goodbyes": 8377, "\u0120coach": 8378, "\u0120attem": 8379, "val": 8380, "quet": 8381, "\u0120convers": 8382, "\u0120Truck": 8383, "\u0120Flo": 8384, "\u0120drift": 8385, "\u0120caps": 8386, "\u0120Mina": 8387, "\u0120Eva": 8388, "emies": 8389, "\u0120enemies": 8390, "asha": 8391, "\u0120yummiest": 8392, "\u0120scrub": 8393, "\u0120swallow": 8394, "\u0120returning": 8395, "rian": 8396, "\u0120admiration": 8397, "\u0120Softy": 8398, "\u0120Megan": 8399, "Since": 8400, "\u0120sprout": 8401, "\u0120Louise": 8402, "\u0120unable": 8403, "\u0120Playing": 8404, "\u0120Another": 8405, "ugging": 8406, "ooks": 8407, "\u0120sadder": 8408, "\u0120freezing": 8409, "\u0120brightest": 8410, "\u0120bless": 8411, "\u0120Yawn": 8412, "\u0120respon": 8413, "\u0120Man": 8414, "reverse": 8415, "\u0120response": 8416, "\u0120cosy": 8417, "\u0120Oh": 8418, "\u0120diamonds": 8419, "\u0120bride": 8420, "stalk": 8421, "\u0120reapp": 8422, "\u0120opport": 8423, "\u0120honking": 8424, "\u0120garbage": 8425, "\u0120stretches": 8426, "\u0120prevented": 8427, "erk": 8428, "antastic": 8429, "\u0120whoever": 8430, "\u0120whispering": 8431, "\u0120odd": 8432, "\u0120awful": 8433, "\u0120Gray": 8434, "alth": 8435, "\u0120weighs": 8436, "\u0120journeys": 8437, "\u0120awoke": 8438, "off": 8439, "Brrr": 8440, "\u0120traps": 8441, "\u0120spices": 8442, "\u0120dragonfly": 8443, "\u0120born": 8444, "\u0120reassured": 8445, "\u0120clip": 8446, "ivia": 8447, "\u0120stall": 8448, "\u0120beanstalk": 8449, "\u0120argum": 8450, "\u0120examining": 8451, "\u0120definitely": 8452, "\u0120beetles": 8453, "\u0120automobiles": 8454, "\u0120Maisy": 8455, "mine": 8456, "ici": 8457, "Hop": 8458, "\u0120visitors": 8459, "\u0120stuffing": 8460, "\u0120playdate": 8461, "\u0120washes": 8462, "cie": 8463, "broken": 8464, "\u0120wiser": 8465, "\u0120customer": 8466, "uper": 8467, "emma": 8468, "Rachel": 8469, "\u0120travelling": 8470, "\u0120Sofia": 8471, "\u0120Jolly": 8472, "\u0120Flop": 8473, "ouquet": 8474, "\u0120hairdress": 8475, "\u0120bouquet": 8476, "\u0120Nurse": 8477, "orse": 8478, "bble": 8479, ",'": 8480, "\u0120tumbled": 8481, "\u0120decoration": 8482, "\u0120campfire": 8483, "\u0120Elle": 8484, "\u0120honesty": 8485, "\u0120bud": 8486, "vy": 8487, "Only": 8488, "\u0120bomb": 8489, "ebecca": 8490, "\u0120welcoming": 8491, "\u0120offering": 8492, "\u0120wealth": 8493, "\u0120troubles": 8494, "\u0120occas": 8495, "\u0120increasing": 8496, "\u0120Ot": 8497, "\u0120Jax": 8498, "\u0120Hello": 8499, "\u0120loudest": 8500, "\u0120inspired": 8501, "\u0120type": 8502, "\u0120parted": 8503, "\u0120groan": 8504, "\u0120Chick": 8505, "\u0120Nutty": 8506, "irac": 8507, "\u0120whales": 8508, "\u0120Thunder": 8509, "\u0120Ricky": 8510, "yl": 8511, "\u0120declared": 8512, "\u0120correctly": 8513, "yler": 8514, "ooky": 8515, "fus": 8516, "\u0120beaks": 8517, "\u0120Quacky": 8518, "athan": 8519, "\u0120cleared": 8520, "\u0120cowboys": 8521, "\u0120nuzzled": 8522, "\u0120Dotty": 8523, "\u0120prizes": 8524, "\u0120exch": 8525, "Finny": 8526, "\u0120warmly": 8527, "\u0120Missile": 8528, "\u0120rewards": 8529, "\u0120obeyed": 8530, "\u0120customers": 8531, "Should": 8532, "\u0120sirens": 8533, "\u0120comforting": 8534, "\u0120Fel": 8535, "shaped": 8536, "\u0120connect": 8537, "\u0120Flappy": 8538, "match": 8539, "elieve": 8540, "\u0120towns": 8541, "\u0120Magic": 8542, "\u0120Bingo": 8543, "\u0120rely": 8544, "\u0120Vicky": 8545, "Honey": 8546, "\u0120trigger": 8547, "\u0120owns": 8548, "\u0120insisting": 8549, "\u0120fantastic": 8550, "\u0120bends": 8551, "\u0120Fe": 8552, "\u0120spoiling": 8553, "\u0120hairdresser": 8554, "\u0120surrendered": 8555, "\u0120supporting": 8556, "\u0120shares": 8557, "\u0120poses": 8558, "\u0120pipes": 8559, "\u0120cleans": 8560, "rench": 8561, "Sun": 8562, "Outside": 8563, "Julie": 8564, "\u0120wrinkled": 8565, "\u0120Cook": 8566, "\u0120chopped": 8567, "\u0120recorder": 8568, "\u0120moons": 8569, "\u0120beaming": 8570, "unes": 8571, "ellow": 8572, "Beth": 8573, "\u0120thanking": 8574, "\u0120snowy": 8575, "\u0120Wolf": 8576, "\u0120scurry": 8577, "\u0120experien": 8578, "\u0120enjoyable": 8579, "\u0120active": 8580, "\u0120coral": 8581, "\u0120Piggy": 8582, "\u0120environ": 8583, "\u0120dollar": 8584, "\u0120Kevin": 8585, "worm": 8586, "elope": 8587, "\u0120loc": 8588, "Je": 8589, "\u0120streamers": 8590, "\u0120Bub": 8591, "udged": 8592, "\u0120Patty": 8593, "\u0120Mother": 8594, "\u0120Zack": 8595, "inger": 8596, "Suzy": 8597, "\u0120examp": 8598, "\u0120shorts": 8599, "\u0120shooed": 8600, "\u0120environment": 8601, "Tree": 8602, "\u0120ill": 8603, "\u0120scent": 8604, "\u0120bruises": 8605, "\u0120Luc": 8606, "uster": 8607, "\u0120grat": 8608, "irl": 8609, "Bo": 8610, "\u0120hisses": 8611, "\u0120steering": 8612, "\u0120self": 8613, "\u0120plugged": 8614, "\u0120Elsa": 8615, "\u0120warrior": 8616, "\u0120visits": 8617, "\u0120exercises": 8618, "screen": 8619, "aptain": 8620, "\u0120dangers": 8621, "\u0120cuddles": 8622, "\u0120Rel": 8623, "\u0120Min": 8624, "\u0120Ar": 8625, "\u0120unfortunately": 8626, "\u0120squished": 8627, "\u0120signing": 8628, "\u0120Light": 8629, "bee": 8630, "Ray": 8631, "\u0120pilots": 8632, "\u0120disappoint": 8633, "munk": 8634, "\u0120gratitude": 8635, "\u0120applauding": 8636, "\u0120providing": 8637, "\u0120Moppy": 8638, "alf": 8639, "\u0120tickles": 8640, "\u0120ting": 8641, "\u0120Rub": 8642, "Grow": 8643, "\u0120storms": 8644, "\u0120nights": 8645, "\u0120jud": 8646, "\u0120convinced": 8647, "\u0120badger": 8648, "\u0120Elsie": 8649, "\u0120youn": 8650, "\u0120responsib": 8651, "\u0120choosing": 8652, "\u0120Kelly": 8653, "Joy": 8654, "\u0120youngest": 8655, "\u0120nearest": 8656, "\u0120brains": 8657, "\u0120activity": 8658, "Abby": 8659, "\u0120exploded": 8660, "\u0120coughed": 8661, "\u0120arranged": 8662, "Claire": 8663, "\u0120rewarding": 8664, "\u0120Tre": 8665, "\u0120Fly": 8666, "pr": 8667, "good": 8668, "erpiece": 8669, "\u0120sunscreen": 8670, "\u0120peep": 8671, "\u0120bond": 8672, "\u0120Floppy": 8673, "asers": 8674, "Mon": 8675, "\u0120Tweety": 8676, "\u0120Sweet": 8677, "\u0120Katy": 8678, "\u0120Joan": 8679, "\u0120Sal": 8680, "ilities": 8681, "\u0120annoying": 8682, "sn": 8683, "\u0120soapy": 8684, "meow": 8685, "Splash": 8686, "\u0120rails": 8687, "\u0120laces": 8688, "\u0120threads": 8689, "\u0120tapping": 8690, "\u0120offic": 8691, "\u0120appreciated": 8692, "\u0120Pine": 8693, "\u0120Phil": 8694, "boards": 8695, "\u0120weighing": 8696, "\u0120heartbroken": 8697, "\u0120emerged": 8698, "\u0120congratulated": 8699, "\u0120Pick": 8700, "Danger": 8701, "\u0120tin": 8702, "\u0120Sil": 8703, "\u0120crocodiles": 8704, "\u0120clerk": 8705, "\u0120scram": 8706, "\u0120attempt": 8707, "\u0120Nancy": 8708, "water": 8709, "Ahoy": 8710, "\u0120snug": 8711, "\u0120messed": 8712, "\u0120example": 8713, "\u0120dial": 8714, "\u0120Kay": 8715, "\u0120Any": 8716, "Momma": 8717, "\u0120hooks": 8718, "\u0120Jonny": 8719, "\u0120tops": 8720, "\u0120chipmunk": 8721, "\u0120soot": 8722, "\u0120guarding": 8723, "\u0120bathed": 8724, "\u0120manager": 8725, "\u0120Tippy": 8726, "ortunately": 8727, "\u0120Microscope": 8728, "Friends": 8729, "\u0120De": 8730, "etah": 8731, "Snowy": 8732, "\u0120masterpiece": 8733, "\u0120Baa": 8734, "\u0120erasers": 8735, "\u0120tips": 8736, "\u0120finishes": 8737, "\u0120fet": 8738, "\u0120common": 8739, "\u0120Tomorrow": 8740, "mbers": 8741, "\u0120trotted": 8742, "\u0120nibbled": 8743, "\u0120members": 8744, "\u0120digs": 8745, "People": 8746, "\u0120kinder": 8747, "\u0120cheetah": 8748, "\u0120particularly": 8749, "\u0120chews": 8750, "\u0120blond": 8751, "ircle": 8752, "\u0120rips": 8753, "\u0120beast": 8754, "Lizzy": 8755, "\u0120argument": 8756, "ative": 8757, "\u0120faith": 8758, "\u0120Helping": 8759, "\u0120earned": 8760, "Anne": 8761, "\u0120observing": 8762, "\u0120forgiveness": 8763, "\u0120Joke": 8764, "\u0120Cici": 8765, "chievous": 8766, "\u0120instantly": 8767, "\u0120fishes": 8768, "\u0120experienced": 8769, "\u0120curl": 8770, "\u0120cheaper": 8771, "\u0120Jumpy": 8772, "Rosie": 8773, "\u0120mischievous": 8774, "\u0120generosity": 8775, "\u0120cages": 8776, "\u0120Twist": 8777, "Gr": 8778, "Baa": 8779, "\u0120meowing": 8780, "\u0120foam": 8781, "mered": 8782, "Cindy": 8783, "\u0120stores": 8784, "\u0120grandd": 8785, "\u0120Ag": 8786, "etchup": 8787, "\u0120mattered": 8788, "\u0120teles": 8789, "\u0120passes": 8790, "\u0120limp": 8791, "Sque": 8792, "\u0120sleeps": 8793, "iolet": 8794, "\u0120breaths": 8795, "ordinary": 8796, "ettle": 8797, "ending": 8798, "\u0120trans": 8799, "\u0120rin": 8800, "\u0120gasps": 8801, "\u0120Freddie": 8802, "Got": 8803, "\u0120rumbling": 8804, "\u0120hatch": 8805, "\u0120Momma": 8806, "over": 8807, "abra": 8808, "\u0120grassho": 8809, "\u0120accomplished": 8810, "\u0120Hopper": 8811, "acing": 8812, "\u0120thump": 8813, "\u0120telescope": 8814, "\u0120strum": 8815, "\u0120smartest": 8816, "\u0120mats": 8817, "\u0120whined": 8818, "\u0120moat": 8819, "Gina": 8820, "\u0120scrambled": 8821, "\u0120jugg": 8822, "\u0120farmers": 8823, "\u0120Ice": 8824, "\u0120drip": 8825, "Robbie": 8826, "\u0120syrup": 8827, "\u0120gardens": 8828, "\u0120collapsed": 8829, "\u0120angrily": 8830, "\u0120More": 8831, "ouraged": 8832, "idey": 8833, "\u0120vegg": 8834, "\u0120styles": 8835, "\u0120forests": 8836, "\u0120experiences": 8837, "\u0120discoveries": 8838, "hole": 8839, "\u0120tor": 8840, "\u0120medals": 8841, "\u0120types": 8842, "\u0120otters": 8843, "\u0120meaning": 8844, "\u0120faint": 8845, "\u0120conqu": 8846, "\u0120Does": 8847, "pit": 8848, "ering": 8849, "adabra": 8850, "acock": 8851, "\u0120snapping": 8852, "\u0120hardest": 8853, "\u0120fif": 8854, "\u0120movements": 8855, "\u0120expression": 8856, "\u0120chilly": 8857, "\u0120bubbly": 8858, "\u0120affect": 8859, "Pinky": 8860, "\u0120vests": 8861, "\u0120unfair": 8862, "\u0120surv": 8863, "\u0120court": 8864, "Whenever": 8865, "\u0120toothbrush": 8866, "\u0120scores": 8867, "\u0120extraordinary": 8868, "Never": 8869, "\u0120attitude": 8870, "\u0120vibr": 8871, "\u0120horri": 8872, "\u0120bluebird": 8873, "\u0120Monkey": 8874, "Mo": 8875, "mel": 8876, "lls": 8877, "\u0120spears": 8878, "\u0120ketchup": 8879, "\u0120Berry": 8880, "Mother": 8881, "\u0120sooner": 8882, "\u0120grasshopper": 8883, "\u0120behaviour": 8884, "\u0120patches": 8885, "\u0120habit": 8886, "yd": 8887, "erts": 8888, "Karen": 8889, "\u0120pokes": 8890, "\u0120momma": 8891, "\u0120afar": 8892, "\u0120Ashley": 8893, "lo": 8894, "ieves": 8895, "Jacob": 8896, "\u0120thicker": 8897, "\u0120scri": 8898, "\u0120Friend": 8899, "Jon": 8900, "\u0120squeezes": 8901, "\u0120slithered": 8902, "\u0120shrunk": 8903, "\u0120classmates": 8904, "\u0120Terry": 8905, "\u0120Fle": 8906, "\u0120icky": 8907, "\u0120prickly": 8908, "\u0120glittering": 8909, "\u0120expert": 8910, "\u0120topp": 8911, "\u0120kneeling": 8912, "\u0120announced": 8913, "\u0120Super": 8914, "\u0120Riri": 8915, "elling": 8916, "\u0120peacock": 8917, "\u0120marking": 8918, "ctric": 8919, "\u0120costs": 8920, "\u0120Cally": 8921, "\u0120Achoo": 8922, "\u0120zigzags": 8923, "\u0120watermel": 8924, "\u0120thieves": 8925, "\u0120skirts": 8926, "\u0120jumper": 8927, "\u0120hood": 8928, "\u0120acts": 8929, "\u0120Zog": 8930, "\u0120App": 8931, "\u0120wolves": 8932, "\u0120Swim": 8933, "\u0120Cloud": 8934, "Papa": 8935, "\u0120thumbs": 8936, "\u0120squeaky": 8937, "\u0120concer": 8938, "\u0120cocoon": 8939, "\u0120woodcut": 8940, "\u0120boards": 8941, "\u0120Eliza": 8942, "\u0120Becky": 8943, "\u0120servant": 8944, "idence": 8945, "bu": 8946, "affle": 8947, "\u0120cheating": 8948, "\u0120Jason": 8949, "cat": 8950, "\u0120trading": 8951, "\u0120raking": 8952, "rick": 8953, "Jessie": 8954, "\u0120explaining": 8955, "\u0120Eric": 8956, "\u0120tidied": 8957, "\u0120biscuit": 8958, "\u0120lunchtime": 8959, "\u0120luckily": 8960, "\u0120Ac": 8961, "anced": 8962, "Frog": 8963, "\u0120Puffy": 8964, "\u0120spilling": 8965, "\u0120Day": 8966, "Fire": 8967, "\u0120transform": 8968, "\u0120desserts": 8969, "\u0120Use": 8970, "\u0120Maddy": 8971, "\u0120Daniel": 8972, "\u0120Animal": 8973, "\u00e2\u0122\u00a6": 8974, "ror": 8975, "\u0120Pig": 8976, "\u0120Mine": 8977, "\u0120Still": 8978, "\u0120Gill": 8979, "rough": 8980, "amma": 8981, "\u0120messages": 8982, "\u0120mirac": 8983, "\u0120Captain": 8984, "idy": 8985, "\u0120windowsill": 8986, "\u0120chill": 8987, "\u0120beating": 8988, "\u0120Tammy": 8989, "\u0120Lung": 8990, "\u0120Gilly": 8991, "oot": 8992, "\u0120seeking": 8993, "\u0120actor": 8994, "\u0120Rainbow": 8995, "\u0120Lina": 8996, "its": 8997, "\u0120William": 8998, "sess": 8999, "\u0120Math": 9000, "pril": 9001, "Any": 9002, "\u0120foreshadow": 9003, "\u0120Hi": 9004, "war": 9005, "acles": 9006, "Bluey": 9007, "\u0120leans": 9008, "\u0120Pinch": 9009, "racadabra": 9010, "Freeze": 9011, "Bounce": 9012, "\u0120watermelon": 9013, "\u0120hissing": 9014, "\u0120funn": 9015, "\u0120flashing": 9016, "\u0120dev": 9017, "\u0120cloths": 9018, "\u0120Wil": 9019, "\u0120Tiger": 9020, "\u0120Step": 9021, "\u0120Monster": 9022, "\u0120Frankie": 9023, "\u0120winding": 9024, "\u0120positive": 9025, "\u0120discouraged": 9026, "pop": 9027, "\u0120woodcutter": 9028, "\u0120forts": 9029, "\u0120dripped": 9030, "\u0120teapot": 9031, "\u0120disagreeing": 9032, "\u0120compete": 9033, "icking": 9034, "\u0120pressing": 9035, "\u0120glimmering": 9036, "\u0120veggies": 9037, "\u0120trusts": 9038, "\u0120tidying": 9039, "\u0120kangaroos": 9040, "\u0120Peep": 9041, "\u0120tempted": 9042, "\u0120landing": 9043, "\u0120Flora": 9044, "\u0120dock": 9045, "\u0120shallow": 9046, "\u0120overw": 9047, "\u0120formed": 9048, "lers": 9049, "eling": 9050, "\u0120rack": 9051, "\u0120fade": 9052, "\u0120Tooth": 9053, "flowers": 9054, "\u0120worst": 9055, "\u0120electric": 9056, "\u0120cops": 9057, "Nothing": 9058, "\u0120apology": 9059, "iving": 9060, "creams": 9061, "ai": 9062, "\u0120sleds": 9063, "\u0120Silver": 9064, "\u0120Life": 9065, "upid": 9066, "\u0120comets": 9067, "\u0120ass": 9068, "Owl": 9069, "\u0120sav": 9070, "\u0120Shark": 9071, "\u0120Mag": 9072, "\u0120Jelly": 9073, "Bug": 9074, "\u0120situations": 9075, "\u0120papa": 9076, "\u0120officers": 9077, "\u0120conversation": 9078, "\u01204": 9079, "Rain": 9080, "\u0120Roger": 9081, "\u0120Charlotte": 9082, "storm": 9083, "aye": 9084, "\u0120suns": 9085, "\u0120ding": 9086, "\u00e2\u0122\u013f,": 9087, "\u0120zips": 9088, "\u0120structures": 9089, "\u0120scurrying": 9090, "\u0120pizzas": 9091, "\u0120overwhel": 9092, "\u0120miller": 9093, "\u0120Butter": 9094, "\u0120granddaughter": 9095, "\u0120foggy": 9096, "\u0120Olivia": 9097, "\u0120Hurry": 9098, "\u0120Amber": 9099, "Zoe": 9100, "\u0120Janey": 9101, "\u0120webs": 9102, "\u0120deserved": 9103, "Rabbit": 9104, "\u0120opportunity": 9105, "\u0120cubs": 9106, "\u0120Yummy": 9107, "\u0120Spidey": 9108, "\u0120Sasha": 9109, "\u0120Mixie": 9110, "\u0120Buster": 9111, "\u0120snorted": 9112, "\u0120rhino": 9113, "\u0120differences": 9114, "\u0120Gold": 9115, "of": 9116, "\u0120quacking": 9117, "\u0120Tell": 9118, "ifully": 9119, "ended": 9120, "Fifi": 9121, "\u0120heaven": 9122, "\u0120Birds": 9123, "\u0120unlo": 9124, "\u0120levers": 9125, "\u0120inchworm": 9126, "\u0120inter": 9127, "\u0120approach": 9128, "\u0120Tyler": 9129, "ssess": 9130, "\u0120seagulls": 9131, "\u0120possess": 9132, "\u0120cooperate": 9133, "\u0120Rufus": 9134, "\u0120Felix": 9135, "\u0120Boom": 9136, "welcome": 9137, "sers": 9138, "ragon": 9139, "?\u00e2\u0122\u013f.": 9140, "andra": 9141, "\u0120pose": 9142, "\u0120disappointment": 9143, "\u0120Smoke": 9144, "ocular": 9145, "\u0120speaks": 9146, "\u0120sneaks": 9147, "snap": 9148, "\u0120binocular": 9149, "\u0120artwork": 9150, "\u0120surfed": 9151, "\u0120scowl": 9152, "\u0120answering": 9153, "\u0120Snake": 9154, "\u0120shortcut": 9155, "\u0120Grand": 9156, "\u0120sipped": 9157, "\u0120robin": 9158, "\u0120dep": 9159, "Climb": 9160, "\u0120arrest": 9161, "\u0120Inky": 9162, "ssy": 9163, "\u0120unwrapped": 9164, "\u0120ribbit": 9165, "\u0120reun": 9166, "\u0120amused": 9167, "\u0120Amanda": 9168, "ugar": 9169, "\u0120repeats": 9170, "\u0120pepperoni": 9171, "\u0120applause": 9172, "\u0120keyhole": 9173, "\u0120checkout": 9174, "\u0120Mae": 9175, "\u0120Cars": 9176, "Lia": 9177, "Deal": 9178, "\u0120visitor": 9179, "\u0120striking": 9180, "\u0120puppets": 9181, "\u0120paddling": 9182, "Eat": 9183, "\u0120unz": 9184, "\u0120croaked": 9185, "\u0120attacked": 9186, "\u0120Circle": 9187, "\u0120Brian": 9188, "orsie": 9189, "\u0120spooky": 9190, "\u0120Otto": 9191, "\u0120Gus": 9192, "Each": 9193, "\u0120groaned": 9194, "\u0120beautifully": 9195, "\u0120Jean": 9196, "gar": 9197, "cidents": 9198, "\u0120swimsuits": 9199, "\u0120consider": 9200, "\u0120checking": 9201, "uses": 9202, "\u0120Yellow": 9203, "jest": 9204, "\u0120waters": 9205, "\u0120groom": 9206, "\u0120Squeak": 9207, "\u0120Slinky": 9208, "yle": 9209, "\u0120invent": 9210, "Luke": 9211, "\u0120nets": 9212, "\u0120exams": 9213, "otion": 9214, "ets": 9215, "\u0120drying": 9216, "\u0120Rebecca": 9217, "udy": 9218, "lest": 9219, "artin": 9220, "agine": 9221, "\u0120shrugs": 9222, "\u0120lump": 9223, "\u0120Auntie": 9224, "sie": 9225, "\u0120sobbing": 9226, "\u0120shyly": 9227, "\u0120shoots": 9228, "\u0120honks": 9229, "\u0120heels": 9230, "\u0120cheerfully": 9231, "\u0120Since": 9232, "ili": 9233, "hny": 9234, "esses": 9235, "\u0120shh": 9236, "\u0120chin": 9237, "anish": 9238, "\u0120whimpered": 9239, "\u0120healthier": 9240, "\u0120hangs": 9241, "icious": 9242, "Milo": 9243, "\u0120Mus": 9244, "\u0120caterpillars": 9245, "izzes": 9246, "Slowly": 9247, "\u0120squinted": 9248, "\u0120magnifying": 9249, "\u0120fries": 9250, "\u0120Ratty": 9251, "\u0120fascinating": 9252, "\u0120blamed": 9253, "\u0120Find": 9254, "ulpture": 9255, "ching": 9256, "\u0120sculpture": 9257, "\u0120frustration": 9258, "\u0120Tip": 9259, "ouched": 9260, "\u0120shimmering": 9261, "\u0120Penelope": 9262, "\u0120poss": 9263, "\u0120Peace": 9264, "edic": 9265, "Sharing": 9266, "\u0120suck": 9267, "\u0120pleas": 9268, "\u0120numbered": 9269, "\u0120nibble": 9270, "\u0120Waffle": 9271, "that": 9272, "othy": 9273, "ibbles": 9274, "ellie": 9275, "amil": 9276, "\u0120flowing": 9277, "\u0120baa": 9278, "hings": 9279, "Pepper": 9280, "\u0120raked": 9281, "\u0120grumbled": 9282, "\u0120Off": 9283, "Bubbles": 9284, "\u0120builder": 9285, "racted": 9286, "eat": 9287, "\u0120swaying": 9288, "\u0120petting": 9289, "\u0120guards": 9290, "\u0120facing": 9291, "\u0120Woolly": 9292, "\u0120sprinkle": 9293, "\u0120mysteries": 9294, "\u0120details": 9295, "\u0120Har": 9296, "sey": 9297, "\u0120snort": 9298, "\u0120flock": 9299, "\u0120enemy": 9300, "\u0120Boat": 9301, "\u0120textures": 9302, "\u0120tablet": 9303, "\u0120goodies": 9304, "\u0120Curious": 9305, "\u0120Barry": 9306, "Yesterday": 9307, "\u0120wig": 9308, "\u0120popping": 9309, "\u0120wildflowers": 9310, "\u0120stacks": 9311, "\u0120marve": 9312, "\u0120fans": 9313, "\u0120crops": 9314, "\u0120countries": 9315, "\u0120Jenn": 9316, "\u0120Gracie": 9317, "how": 9318, "\u0120knobs": 9319, "\u0120Tessa": 9320, "\u0120Seeing": 9321, "\u0120local": 9322, "\u0120bushy": 9323, "\u0120stew": 9324, "\u0120peeped": 9325, "\u0120hunting": 9326, "\u0120drowned": 9327, "\u0120bowing": 9328, "\u0120binoculars": 9329, "\u0120angrier": 9330, "\u0120Bubu": 9331, "\u0120maps": 9332, "\u0120Match": 9333, "\u0120quizzes": 9334, "\u0120niece": 9335, "\u0120moonlight": 9336, "\u0120Glow": 9337, "\u0120outfits": 9338, "\u0120Johnson": 9339, "\u0120Deal": 9340, "OO": 9341, "\u0120whoosh": 9342, "\u0120weaker": 9343, "\u0120wrench": 9344, "\u0120mindful": 9345, "\u0120crowded": 9346, "cycles": 9347, "Squ": 9348, "\u0120endings": 9349, "\u0120Beef": 9350, "oll": 9351, "Im": 9352, "\u0120property": 9353, "\u0120hesitation": 9354, "\u0120flashes": 9355, "amiliar": 9356, "\u0120unless": 9357, "\u0120imaginations": 9358, "\u0120fond": 9359, "\u0120carts": 9360, "\u0120boil": 9361, "\u0120ability": 9362, "\u0120Oxy": 9363, "\u0120Andrew": 9364, "getic": 9365, "\u0120glared": 9366, "\u0120Right": 9367, "\u0120Accidents": 9368, "stand": 9369, "saw": 9370, "\u0120unfamiliar": 9371, "\u0120spaces": 9372, "\u0120microw": 9373, "\u0120knit": 9374, "\u0120haven": 9375, "\u0120folds": 9376, "ths": 9377, "Tuna": 9378, "\u0120responsibility": 9379, "\u0120dirtier": 9380, "\u0120Pet": 9381, "bank": 9382, "\u0120pouch": 9383, "\u0120microwave": 9384, "\u0120desks": 9385, "ibly": 9386, "Bless": 9387, "\u0120cracker": 9388, "rnie": 9389, "lt": 9390, "\u0120swapped": 9391, "\u0120member": 9392, "\u0120date": 9393, "\u0120aston": 9394, "\u0120Oxygen": 9395, "free": 9396, "\u0120Ring": 9397, "\u0120Ravi": 9398, "Want": 9399, "Cra": 9400, "\u0120whine": 9401, "\u0120softened": 9402, "\u0120rebu": 9403, "\u0120doorstep": 9404, "\u0120disappearing": 9405, "\u0120Peggy": 9406, "\u0120Helen": 9407, "\u0120Bun": 9408, "scar": 9409, "\u0120quacks": 9410, "\u0120natur": 9411, "\u0120Chip": 9412, "\u0120writer": 9413, "\u0120listener": 9414, "\u0120Too": 9415, "\u0120Fix": 9416, "\u0120priv": 9417, "\u0120blushed": 9418, "\u0120Spicy": 9419, "venir": 9420, "\u0120palms": 9421, "\u0120noticing": 9422, "upt": 9423, "repe": 9424, "poison": 9425, "\u0120souvenir": 9426, "\u0120Past": 9427, "repeat": 9428, "entr": 9429, "\u0120laws": 9430, "\u0120disaster": 9431, "\u0120Tra": 9432, "\u0120Res": 9433, "\u0120Gabby": 9434, "str": 9435, "reg": 9436, "endant": 9437, "Robby": 9438, "\u0120phones": 9439, "ala": 9440, "Ava": 9441, "\u0120confidence": 9442, "\u0120Li": 9443, "\u0120Coal": 9444, "\u0120Cut": 9445, "\u0120Bert": 9446, "\u0120timid": 9447, "\u0120stirs": 9448, "\u0120overwhelmed": 9449, "ingly": 9450, "Being": 9451, "\u0120mayor": 9452, "\u0120flick": 9453, "guess": 9454, "asmine": 9455, "Che": 9456, "\u0120tugging": 9457, "\u0120Pretty": 9458, "\u0120Mole": 9459, "lor": 9460, "\u0120untangle": 9461, "\u0120satisfa": 9462, "\u0120owls": 9463, "\u0120mailing": 9464, "\u0120injured": 9465, "Whose": 9466, "\u0120satisfaction": 9467, "\u0120concentr": 9468, "\u0120White": 9469, "\u0120Immediately": 9470, "\u0120Books": 9471, "Fly": 9472, "\u0120Pot": 9473, "\u0120March": 9474, "\u0120Animals": 9475, "mers": 9476, "Sc": 9477, "Mittens": 9478, "\u0120lim": 9479, "\u0120Eat": 9480, "this": 9481, "Mabel": 9482, "\u0120prank": 9483, "\u0120Wonder": 9484, "\u0120Nora": 9485, "\u0120Bonnie": 9486, "well": 9487, "Wiggly": 9488, "\u0120hooves": 9489, "\u0120Triangle": 9490, "\u0120Run": 9491, "\u0120Melissa": 9492, "\u0120Kn": 9493, "Jeff": 9494, "\u0120fixer": 9495, "\u0120Startled": 9496, "\u0120Sir": 9497, "\u0120Clean": 9498, "\u0120Close": 9499, "icate": 9500, "\u0120snar": 9501, "\u0120clut": 9502, "lish": 9503, "bling": 9504, "Excited": 9505, "\u0120skies": 9506, "\u0120instrument": 9507, "\u0120Trucky": 9508, "\u0120capt": 9509, "\u0120Matilda": 9510, "\u0120Horsie": 9511, "\u0120Faye": 9512, "adually": 9513, "\u0120disagre": 9514, "iky": 9515, "\u0120wriggled": 9516, "\u0120stains": 9517, "\u0120rinse": 9518, "\u0120pecks": 9519, "\u0120creak": 9520, "\u0120Sleepy": 9521, "Susan": 9522, "\u0120shave": 9523, "\u0120bumping": 9524, "\u0120Sing": 9525, "\u0120Icy": 9526, "\u0120Heli": 9527, "\u0120Crabby": 9528, "ulf": 9529, "\u0120swirl": 9530, "\u0120ruff": 9531, "\u0120bending": 9532, "cessary": 9533, "Playing": 9534, "Close": 9535, "\u0120sandpit": 9536, "\u0120exploration": 9537, "\u0120chatted": 9538, "\u0120Scissors": 9539, "Make": 9540, "\u0120rods": 9541, "\u0120lever": 9542, "\u0120facts": 9543, "Sm": 9544, "\u0120attaching": 9545, "\u0120Candy": 9546, "\u0120fooled": 9547, "\u0120burger": 9548, "\u0120Bro": 9549, "\u0120glows": 9550, "\u0120concerned": 9551, "\u0120clearly": 9552, "Maya": 9553, "\u0120salon": 9554, "\u0120reversing": 9555, "\u0120lava": 9556, "\u0120compan": 9557, "\u0120certainly": 9558, "els": 9559, "Wally": 9560, "\u0120smelt": 9561, "\u0120motorcycles": 9562, "\u0120fetched": 9563, "\u0120circ": 9564, "\u0120troll": 9565, "\u0120tunes": 9566, "\u0120sometime": 9567, "\u0120prod": 9568, "\u0120oldest": 9569, "\u0120fireflies": 9570, "Ring": 9571, "\u0120kissing": 9572, "\u0120challenges": 9573, "\u0120blonde": 9574, "Kayla": 9575, "\u0120warmed": 9576, "\u0120Bobbie": 9577, "\u0120unlocking": 9578, "\u0120natural": 9579, "\u0120differently": 9580, "\u0120bound": 9581, "\u0120Lots": 9582, "urple": 9583, "sa": 9584, "erg": 9585, "Tara": 9586, "Dino": 9587, "Abracadabra": 9588, "\u0120rubb": 9589, "\u0120riverbank": 9590, "\u0120detect": 9591, "\u0120cutter": 9592, "\u0120cupcake": 9593, "\u0120conquered": 9594, "\u0120hates": 9595, "\u0120alley": 9596, "\u0120Flap": 9597, "sorry": 9598, "\u0120swirls": 9599, "\u0120sends": 9600, "\u0120realise": 9601, "\u0120Open": 9602, "\u0120Flopsy": 9603, "Julia": 9604, "Isn": 9605, "\u0120wiggling": 9606, "\u0120sensation": 9607, "\u0120munched": 9608, "\u0120banging": 9609, "\u0120Cammy": 9610, "\u0120toppings": 9611, "\u0120hippos": 9612, "\u0120fist": 9613, "\u0120clips": 9614, "\u0120Reliable": 9615, "Doctor": 9616, "\u0120swayed": 9617, "\u0120stings": 9618, "\u0120robe": 9619, "\u0120miracle": 9620, "\u0120halves": 9621, "\u0120brakes": 9622, "\u0120Greeny": 9623, "Hope": 9624, "Fish": 9625, "\u0120survive": 9626, "\u0120ostriches": 9627, "\u0120Pink": 9628, "\u0120Climb": 9629, "ula": 9630, "keepers": 9631, "bert": 9632, "Michael": 9633, "\u0120torto": 9634, "\u0120otherwise": 9635, "\u0120embra": 9636, "\u0120crushed": 9637, "\u0120bubbling": 9638, "\u0120tents": 9639, "\u0120Looking": 9640, "ani": 9641, "\u0120repairing": 9642, "\u0120Of": 9643, "\u0120vinegar": 9644, "\u0120stretchy": 9645, "\u0120rubbish": 9646, "\u0120lizards": 9647, "\u0120Working": 9648, "\u0120Flicker": 9649, "\u0120passenger": 9650, "\u0120Ed": 9651, "aste": 9652, "Many": 9653, "\u0120vibrant": 9654, "\u0120tortoise": 9655, "\u0120pounced": 9656, "\u0120Which": 9657, "gr": 9658, "Suzie": 9659, "\u0120scene": 9660, "\u0120Rh": 9661, "\u0120Grump": 9662, "\u0120mooed": 9663, "\u0120glided": 9664, "\u0120desperately": 9665, "\u0120bas": 9666, "rap": 9667, "\u0120snip": 9668, "\u0120poop": 9669, "\u0120majest": 9670, "\u0120intently": 9671, "\u0120copied": 9672, "\u0120calmer": 9673, "\u0120Sundays": 9674, "\u0120Lightning": 9675, "net": 9676, "\u0120woken": 9677, "\u0120twel": 9678, "\u0120rags": 9679, "\u0120judges": 9680, "\u0120joyfully": 9681, "\u0120jing": 9682, "\u0120coolest": 9683, "\u0120Per": 9684, "smelling": 9685, "\u0120lectures": 9686, "\u0120glob": 9687, "\u0120Jody": 9688, "lyn": 9689, "isible": 9690, "\u0120hips": 9691, "\u0120cousins": 9692, "\u0120astonished": 9693, "\u0120capes": 9694, "\u0120Outside": 9695, "\u0120Lu": 9696, "uno": 9697, "Eww": 9698, "\u0120successfully": 9699, "\u0120speaker": 9700, "\u0120reunited": 9701, "\u0120invisible": 9702, "\u0120guesses": 9703, "\u0120gooey": 9704, "\u0120arrives": 9705, "why": 9706, "\u0120twelve": 9707, "\u0120bats": 9708, "urity": 9709, "Mikey": 9710, "\u0120goodness": 9711, "\u0120computers": 9712, "\u0120Carla": 9713, "nded": 9714, "mie": 9715, "\u0120stacking": 9716, "\u0120snowflake": 9717, "\u0120chatting": 9718, "istory": 9719, "bed": 9720, "\u0120reappeared": 9721, "\u0120racer": 9722, "\u0120pounds": 9723, "\u0120parks": 9724, "\u0120desperate": 9725, "\u0120companion": 9726, "\u0120commun": 9727, "Zigzag": 9728, "Ol": 9729, "\u0120luckiest": 9730, "\u0120level": 9731, "\u0120dou": 9732, "\u0120ank": 9733, "\u0120tale": 9734, "\u0120stomachs": 9735, "\u0120sells": 9736, "\u0120gall": 9737, "\u0120dumb": 9738, "\u0120crickets": 9739, "\u0120Sugar": 9740, "iggles": 9741, "Nick": 9742, "\u0120winds": 9743, "\u0120sus": 9744, "\u0120gates": 9745, "\u0120disobeyed": 9746, "\u0120disagreement": 9747, "\u0120Steven": 9748, "hile": 9749, "More": 9750, "\u0120pearls": 9751, "\u0120hoses": 9752, "\u0120crisp": 9753, "\u0120awhile": 9754, "\u0120Whee": 9755, "ites": 9756, "Lou": 9757, "\u0120soda": 9758, "\u0120popsic": 9759, "\u0120loyalty": 9760, "\u0120Orange": 9761, "Linda": 9762, "\u0120tongues": 9763, "\u0120Rosa": 9764, "usion": 9765, "rent": 9766, "\u0120rider": 9767, "\u0120CD": 9768, "Ooh": 9769, "\u0120abo": 9770, "\u0120Black": 9771, "pan": 9772, "\u0120surely": 9773, "\u0120Law": 9774, "\u0120Annabelle": 9775, "dog": 9776, "des": 9777, "colored": 9778, "\u0120occasion": 9779, "\u0120bund": 9780, "rum": 9781, "izza": 9782, "!\u00e2\u0122\u013b": 9783, "\u0120stun": 9784, "\u0120guitars": 9785, "\u0120chicks": 9786, "chief": 9787, "\u0120separating": 9788, "\u0120seashe": 9789, "\u0120rebuild": 9790, "\u0120intelligence": 9791, "\u0120alligators": 9792, "\u0120aboard": 9793, "\u0120Raven": 9794, "\u0120Iron": 9795, "\u0120April": 9796, "Found": 9797, "\u0120croak": 9798, "\u0120creep": 9799, "\u0120Winky": 9800, "\u0120Violet": 9801, "aids": 9802, "Something": 9803, "Catch": 9804, "\u0120learner": 9805, "\u0120caution": 9806, "\u0120cuc": 9807, "\u0120Old": 9808, "\u0120Care": 9809, "solut": 9810, "\u0120whines": 9811, "\u0120spiky": 9812, "\u0120revealing": 9813, "\u0120rins": 9814, "\u0120Uni": 9815, "working": 9816, "\u0120tickling": 9817, "\u0120escap": 9818, "\u0120Settle": 9819, "\u0120underwater": 9820, "\u0120globe": 9821, "\u0120crouched": 9822, "\u0120Roar": 9823, "\u0120Coby": 9824, "\u0120Ba": 9825, "udge": 9826, "stop": 9827, "everse": 9828, "!'.": 9829, "\u0120prog": 9830, "\u0120blooms": 9831, "\u0120appearance": 9832, "\u0120''": 9833, "urricane": 9834, "seph": 9835, "ifer": 9836, "fived": 9837, "Jan": 9838, "\u0120strokes": 9839, "\u0120leaking": 9840, "\u0120hatched": 9841, "\u0120guardian": 9842, "\u0120Socky": 9843, "ealing": 9844, "arning": 9845, "\u0120zookeepers": 9846, "\u0120tant": 9847, "\u0120routine": 9848, "\u0120persistence": 9849, "\u0120doves": 9850, "Snap": 9851, "Sleep": 9852, "Chicky": 9853, "\u0120taps": 9854, "\u0120squashes": 9855, "\u0120quilt": 9856, "\u0120painful": 9857, "\u0120lighting": 9858, "\u0120blame": 9859, "\u0120admit": 9860, "Toys": 9861, "Ahh": 9862, "\u0120tempting": 9863, "\u0120shattered": 9864, "\u0120ripp": 9865, "\u0120mold": 9866, "\u0120deeply": 9867, "\u0120Puff": 9868, "ggles": 9869, "Three": 9870, "Ralph": 9871, "Matt": 9872, "\u0120throne": 9873, "\u0120squirted": 9874, "\u0120security": 9875, "\u0120peeks": 9876, "\u0120electricity": 9877, "\u0120centre": 9878, "\u0120burgers": 9879, "\u0120Spin": 9880, "emon": 9881, "con": 9882, "\u0120realizing": 9883, "\u0120cooks": 9884, "\u0120allowing": 9885, "\u0120Liam": 9886, "ushes": 9887, "orth": 9888, "oss": 9889, "cker": 9890, "Jessica": 9891, "\u0120lar": 9892, "\u0120exchange": 9893, "\u0120chopping": 9894, "Share": 9895, "Sophia": 9896, "\u0120sweetly": 9897, "\u0120Race": 9898, "\u0120Quickly": 9899, "\u0120Alf": 9900, "vering": 9901, "\u0120sweeter": 9902, "\u0120rinsed": 9903, "\u0120glittered": 9904, "isapp": 9905, "Zero": 9906, "Sw": 9907, "\u0120melts": 9908, "\u0120melody": 9909, "\u0120goggles": 9910, "\u0120furious": 9911, "\u0120energetic": 9912, "\u0120defeated": 9913, "\u0120builders": 9914, "\u0120Inch": 9915, "asy": 9916, "\u0120waded": 9917, "\u0120tantrum": 9918, "\u0120sniffled": 9919, "\u0120chooses": 9920, "\u0120Otherwise": 9921, "\u0120Cats": 9922, "\u0120Comet": 9923, "\u0120container": 9924, "\u0120competing": 9925, "\u0120Giant": 9926, "eremy": 9927, "bang": 9928, "arted": 9929, "\u0120Sharp": 9930, "\u0120Mila": 9931, "\u0120undone": 9932, "\u0120seriously": 9933, "\u0120protection": 9934, "\u0120larger": 9935, "\u0120lull": 9936, "\u0120hudd": 9937, "\u0120attempts": 9938, "\u0120Rara": 9939, "\u0120Park": 9940, "\u0120Duke": 9941, "Shoo": 9942, "Lizzie": 9943, "\u0120tossing": 9944, "\u0120helicopters": 9945, "\u0120cooed": 9946, "\u0120cluck": 9947, "\u0120buckles": 9948, "\u0120Whale": 9949, "\u0120Pinchy": 9950, "\u0120Ma": 9951, "\u0120Cher": 9952, "Sweet": 9953, "\u0120Tears": 9954, "\u0120Smo": 9955, "\u0120Over": 9956, "solutely": 9957, "Still": 9958, "Squeaky": 9959, "\u0120hummed": 9960, "\u0120dedic": 9961, "\u0120courageous": 9962, "\u0120Hor": 9963, "\u0120Din": 9964, "Maddy": 9965, "Everything": 9966, "Curious": 9967, "\u0120racers": 9968, "\u0120patients": 9969, "\u0120muster": 9970, "\u0120god": 9971, "\u0120deserves": 9972, "\u0120aloud": 9973, "\u0120Things": 9974, "aps": 9975, "Use": 9976, "\u0120Squee": 9977, "\u0120Dragon": 9978, "\u0120tours": 9979, "\u0120meets": 9980, "\u0120marvel": 9981, "\u0120Rusty": 9982, "\u0120Liza": 9983, "\u0120Jet": 9984, "Froggy": 9985, "\u0120wrapper": 9986, "\u0120Reddy": 9987, "\u0120Hops": 9988, "\u0120Crusty": 9989, "she": 9990, "\u0120whiskers": 9991, "\u0120nicest": 9992, "\u0120improving": 9993, "\u0120booth": 9994, "\u0120Land": 9995, "Surrender": 9996, "Rocky": 9997, "\u0120meadows": 9998, "\u0120imaginary": 9999, "\u0120bold": 10000, "\u0120Starry": 10001, "Twinkle": 10002, "!'\"": 10003, "\u0120obst": 10004, "\u0120blades": 10005, "\u0120Summer": 10006, "\u0120Pebby": 10007, "ware": 10008, "\u0120strolled": 10009, "\u0120risky": 10010, "\u0120pairs": 10011, "\u0120opt": 10012, "\u0120cruel": 10013, "\u0120\u010a\u010a": 10014, "ssssssss": 10015, "\"!": 10016, "\u0120peels": 10017, "Mina": 10018, "June": 10019, "\u0120winks": 10020, "\u0120incredibly": 10021, "\u0120Kind": 10022, "\u0120Joanna": 10023, "\u0120Brain": 10024, "meal": 10025, "los": 10026, "ically": 10027, "Say": 10028, "OP": 10029, "\u0120tanks": 10030, "\u0120squawk": 10031, "\u0120nearer": 10032, "\u0120Excitedly": 10033, "raw": 10034, "Care": 10035, "\u0120transformed": 10036, "\u0120tot": 10037, "\u0120pedaling": 10038, "\u0120messier": 10039, "\u0120lamps": 10040, "\u0120army": 10041, "eading": 10042, "Ice": 10043, "Davey": 10044, "\u0120stur": 10045, "\u0120inju": 10046, "\u0120fail": 10047, "\u0120Riley": 10048, "shrink": 10049, "kind": 10050, "illas": 10051, "can": 10052, "Jackie": 10053, "\u0120rect": 10054, "\u0120peak": 10055, "\u0120munching": 10056, "\u0120horrible": 10057, "\u0120fuss": 10058, "guard": 10059, "Aw": 10060, "\u0120unwrap": 10061, "\u0120treas": 10062, "\u0120overhead": 10063, "\u0120narrow": 10064, "\u0120holidays": 10065, "\u0120Swimmy": 10066, "\u0120Kyle": 10067, "Pippa": 10068, "\u0120puffed": 10069, "\u0120panicking": 10070, "\u0120dryer": 10071, "\u0120boiling": 10072, "\u0120Patient": 10073, "oned": 10074, "\u0120possib": 10075, "\u0120host": 10076, "\u0120dives": 10077, "\u0120Pass": 10078, "ighty": 10079, "cloth": 10080, "\u0120softest": 10081, "\u0120offers": 10082, "\u0120confusion": 10083, "\u0120Breezy": 10084, "ka": 10085, "artha": 10086, "Martha": 10087, "Jenna": 10088, "\u0120uncovered": 10089, "\u0120mustn": 10090, "\u0120marveled": 10091, "\u0120allerg": 10092, "\u0120Jennie": 10093, "uction": 10094, "aly": 10095, "\u0120scre": 10096, "\u0120elders": 10097, "\u0120cooled": 10098, "\u0120Bell": 10099, "mo": 10100, "iciest": 10101, "Janie": 10102, "\u0120roo": 10103, "\u0120mustered": 10104, "\u0120dips": 10105, "\u0120current": 10106, "\u0120Very": 10107, "\u0120Gu": 10108, "\u0120Dogs": 10109, "\u0120treasured": 10110, "\u0120rotted": 10111, "\u0120heights": 10112, "\u0120gratefully": 10113, "\u0120glanced": 10114, "\u0120coughing": 10115, "\u0120cherish": 10116, "\u0120chains": 10117, "\u0120ankle": 10118, "\u0120Winter": 10119, "\u0120Sunshine": 10120, "parable": 10121, "idi": 10122, "Maddie": 10123, "\u0120--": 10124, "losure": 10125, "'?\"": 10126, "\u0120shaky": 10127, "\u0120sinking": 10128, "\u0120heavily": 10129, "\u0120enclosure": 10130, "\u0120cupboards": 10131, "\u0120Oscar": 10132, "\u0120Bruce": 10133, "rice": 10134, "Sky": 10135, "\u0120spare": 10136, "\u0120sleigh": 10137, "\u0120mac": 10138, "\u0120inseparable": 10139, "\u0120gallop": 10140, "\u0120Martin": 10141, "\u0120Crocodile": 10142, "\u0120oatmeal": 10143, "\u0120Spinny": 10144, "\u0120Clay": 10145, "\u0120Brad": 10146, "oured": 10147, "iring": 10148, "ippers": 10149, "Move": 10150, "Enjoy": 10151, "\u0120section": 10152, "\u0120riddle": 10153, "\u0120necessary": 10154, "\u0120lush": 10155, "\u0120hob": 10156, "\u0120dashed": 10157, "\u0120clubs": 10158, "\u0120canv": 10159, "\u0120Fa": 10160, "stantly": 10161, "people": 10162, "afe": 10163, "Prin": 10164, "\u0120conv": 10165, "\u0120Square": 10166, "\u0120Purple": 10167, "\u0120Mona": 10168, "iraffe": 10169, "Mel": 10170, "\u0120unst": 10171, "Ant": 10172, "\u0120sax": 10173, "\u0120praise": 10174, "\u0120ordering": 10175, "\u0120glittery": 10176, "\u0120devast": 10177, "\u0120Didi": 10178, "Dare": 10179, "\u0120zippers": 10180, "\u0120scenery": 10181, "\u0120raincoats": 10182, "\u0120hundreds": 10183, "\u0120allergic": 10184, "\u0120Robin": 10185, "\u0120Friendship": 10186, "ggie": 10187, "antern": 10188, "\u0120suggests": 10189, "\u0120rowing": 10190, "\u0120completing": 10191, "\u0120Val": 10192, "\u0120Janet": 10193, "\u0120Dilly": 10194, "\u0120Bar": 10195, "Turn": 10196, "\u0120convince": 10197, "\u0120arom": 10198, "\u0120Carly": 10199, "Ne": 10200, "\u0120nations": 10201, "\u0120mushy": 10202, "\u0120floppy": 10203, "\u0120condition": 10204, "\u0120character": 10205, "\u0120Belle": 10206, "atest": 10207, "\u0120recommendation": 10208, "\u0120practised": 10209, "\u0120musicians": 10210, "\u0120Whe": 10211, "otch": 10212, "isbee": 10213, "Promise": 10214, "Boom": 10215, "\u0120seated": 10216, "\u0120chatter": 10217, "\u0120Tidy": 10218, "\u0120skips": 10219, "\u0120Potato": 10220, "shop": 10221, "ildren": 10222, "hand": 10223, "alled": 10224, "\u0120slot": 10225, "\u0120huddled": 10226, "\u0120experiment": 10227, "\u0120drill": 10228, "\u0120canvas": 10229, "\u0120borrowing": 10230, "\u0120Leah": 10231, "enn": 10232, "apple": 10233, "aisie": 10234, "Startled": 10235, "\u0120soothing": 10236, "\u0120lullaby": 10237, "\u0120hovering": 10238, "\u0120devastated": 10239, "\u0120Pee": 10240, "\u0120Ha": 10241, "\u0120Could": 10242, "irty": 10243, "clock": 10244, "\u0120remo": 10245, "\u0120glisten": 10246, "\u0120enjoys": 10247, "\u0120Patrick": 10248, "\u0120Oak": 10249, "\u0120Crane": 10250, "epeat": 10251, "El": 10252, "\u0120reck": 10253, "\u0120pleasant": 10254, "\u0120chili": 10255, "mate": 10256, "ift": 10257, "aming": 10258, "Samantha": 10259, "Right": 10260, "\u0120sparrow": 10261, "\u0120rocky": 10262, "\u0120hoot": 10263, "\u0120fulf": 10264, "\u0120Respect": 10265, "\u0120Number": 10266, "\u0120Fluff": 10267, "\u0120Cell": 10268, "\u0120Brush": 10269, "Frankie": 10270, "\u0120values": 10271,
[...]
