{
  "\u0000": 0,
  "\u0001": 1,
  "\u0002": 2,
  "\u0003": 3,
  "\u0004": 4,
  "\u0005": 5,
  "\u0006": 6,
  "\u0007": 7,
  "\b": 8,
  "\t": 9,
  "\n": 10,
  "\u000b": 11,
  "\f": 12,
  "\r": 13,
  "\u000e": 14,
  "\u000f": 15,
  "\u0010": 16,
  "\u0011": 17,
  "\u0012": 18,
  "\u0013": 19,
  "\u0014": 20,
  "\u0015": 21,
  "\u0016": 22,
  "\u0017": 23,
  "\u0018": 24,
  "\u0019": 25,
  "\u001a": 26,
  "\u001b": 27,
  "\u001c": 28,
  "\u001d": 29,
  "\u001e": 30,
  "\u001f": 31,
  " ": 32,
  "!": 33,
  "\"": 34,
  "#": 35,
  "$": 36,
  "%": 37,
  "&": 38,
  "'": 39,
  "(": 40,
  ")": 41,
  "*": 42,
  "+": 43,
  ",": 44,
  "-": 45,
  ".": 46,
  "/": 47,
  "0": 48,
  "1": 49,
  "2": 50,
  "3": 51,
  "4": 52,
  "5": 53,
  "6": 54,
  "7": 55,
  "8": 56,
  "9": 57,
  ":": 58,
  ";": 59,
  "<": 60,
  "=": 61,
  ">": 62,
  "?": 63,
  "@": 64,
  "A": 65,
  "B": 66,
  "C": 67,
  "D": 68,
  "E": 69,
  "F": 70,
  "G": 71,
  "H": 72,
  "I": 73,
  "J": 74,
  "K": 75,
  "L": 76,
  "M": 77,
  "N": 78,
  "O": 79,
  "P": 80,
  "Q": 81,
  "R": 82,
  "S": 83,
  "T": 84,
  "U": 85,
  "V": 86,
  "W": 87,
  "X": 88,
  "Y": 89,
  "Z": 90,
  "[": 91,
  "\\": 92,
  "]": 93,
  "^": 94,
  "_": 95,
  "`": 96,
  "a": 97,
  "b": 98,
  "c": 99,
  "d": 100,
  "e": 101,
  "f": 102,
  "g": 103,
  "h": 104,
  "i": 105,
  "j": 106,
  "k": 107,
  "l": 108,
  "m": 109,
  "n": 110,
  "o": 111,
  "p": 112,
  "q": 113,
  "r": 114,
  "s": 115,
  "t": 116,
  "u": 117,
  "v": 118,
  "w": 119,
  "x": 120,
  "y": 121,
  "z": 122,
  "{": 123,
  "|": 124,
  "}": 125,
  "~": 126,
  "": 127,
  "": 128,
  "": 129,
  "": 130,
  "": 131,
  "": 132,
  "": 133,
  "": 134,
  "": 135,
  "": 136,
  "": 137,
  "": 138,
  "": 139,
  "": 140,
  "": 141,
  "": 142,
  "": 143,
  "": 144,
  "": 145,
  "": 146,
  "": 147,
  "": 148,
  "": 149,
  "": 150,
  "": 151,
  "": 152,
  "": 153,
  "": 154,
  "": 155,
  "": 156,
  "": 157,
  "": 158,
  "": 159,
  " ": 160,
  "¡": 161,
  "¢": 162,
  "£": 163,
  "¤": 164,
  "¥": 165,
  "¦": 166,
  "§": 167,
  "¨": 168,
  "©": 169,
  "ª": 170,
  "«": 171,
  "¬": 172,
  "­": 173,
  "®": 174,
  "¯": 175,
  "°": 176,
  "±": 177,
  "²": 178,
  "³": 179,
  "´": 180,
  "µ": 181,
  "¶": 182,
  "·": 183,
  "¸": 184,
  "¹": 185,
  "º": 186,
  "»": 187,
  "¼": 188,
  "½": 189,
  "¾": 190,
  "¿": 191,
  "À": 192,
  "Á": 193,
  "Â": 194,
  "Ã": 195,
  "Ä": 196,
  "Å": 197,
  "Æ": 198,
  "Ç": 199,
  "È": 200,
  "É": 201,
  "Ê": 202,
  "Ë": 203,
  "Ì": 204,
  "Í": 205,
  "Î": 206,
  "Ï": 207,
  "Ð": 208,
  "Ñ": 209,
  "Ò": 210,
  "Ó": 211,
  "Ô": 212,
  "Õ": 213,
  "Ö": 214,
  "×": 215,
  "Ø": 216,
  "Ù": 217,
  "Ú": 218,
  "Û": 219,
  "Ü": 220,
  "Ý": 221,
  "Þ": 222,
  "ß": 223,
  "à": 224,
  "á": 225,
  "â": 226,
  "ã": 227,
  "ä": 228,
  "å": 229,
  "æ": 230,
  "ç": 231,
  "è": 232,
  "é": 233,
  "ê": 234,
  "ë": 235,
  "ì": 236,
  "í": 237,
  "î": 238,
  "ï": 239,
  "ð": 240,
  "ñ": 241,
  "ò": 242,
  "ó": 243,
  "ô": 244,
  "õ": 245,
  "ö": 246,
  "÷": 247,
  "ø": 248,
  "ù": 249,
  "ú": 250,
  "û": 251,
  "ü": 252,
  "ý": 253,
  "þ": 254,
  "ÿ": 255,
  "<|endoftext|>": 256,
  " t": 257,
  "he": 258,
  " a": 259,
  " s": 260,
  " w": 261,
  "nd": 262,
  " the": 263,
  "ed": 264,
  " b": 265,
  " to": 266,
  " and": 267,
  " h": 268,
  " f": 269,
  "in": 270,
  " T": 271,
  " wa": 272,
  "re": 273,
  "it": 274,
  "ou": 275,
  " d": 276,
  " l": 277,
  " c": 278,
  " p": 279,
  "ay": 280,
  " m": 281,
  "er": 282,
  " was": 283,
  "om": 284,
  " The": 285,
  " he": 286,
  "is": 287,
  " n": 288,
  "ar": 289,
  "on": 290,
  "ll": 291,
  " sa": 292,
  "im": 293,
  "id": 294,
  " ha": 295,
  " g": 296,
  " S": 297,
  "ot": 298,
  "ing": 299,
  "at": 300,
  "en": 301,
  "an": 302,
  "le": 303,
  "or": 304,
  "ir": 305,
  "am": 306,
  "et": 307,
  " H": 308,
  " it": 309,
  " They": 310,
  " th": 311,
  "ig": 312,
  " He": 313,
  " in": 314,
  " pl": 315,
  "il": 316,
  " \"": 317,
  "ow": 318,
  "ri": 319,
  "ver": 320,
  "ut": 321,
  " play": 322,
  " u": 323,
  "es": 324,
  "pp": 325,
  "ith": 326,
  " r": 327,
  " with": 328,
  " said": 329,
  " o": 330,
  "oo": 331,
  " day": 332,
  " y": 333,
  "On": 334,
  "ked": 335,
  " her": 336,
  " I": 337,
  " st": 338,
  " She": 339,
  "ld": 340,
  " be": 341,
  " his": 342,
  "ce": 343,
  "ke": 344,
  " Tim": 345,
  " e": 346,
  "ck": 347,
  "nt": 348,
  " big": 349,
  " you": 350,
  "very": 351,
  "un": 352,
  " on": 353,
  " happ": 354,
  "end": 355,
  "all": 356,
  "ve": 357,
  " L": 358,
  " not": 359,
  " li": 360,
  "ily": 361,
  " do": 362,
  " they": 363,
  "riend": 364,
  " friend": 365,
  "her": 366,
  "ad": 367,
  " had": 368,
  " we": 369,
  " want": 370,
  " up": 371,
  " of": 372,
  " M": 373,
  " B": 374,
  "st": 375,
  "itt": 376,
  " happy": 377,
  "se": 378,
  "ent": 379,
  "'s": 380,
  " saw": 381,
  "One": 382,
  "ould": 383,
  " very": 384,
  " that": 385,
  " for": 386,
  " so": 387,
  " mom": 388,
  " sh": 389,
  "ittle": 390,
  " little": 391,
  "ch": 392,
  "ound": 393,
  " k": 394,
  " she": 395,
  " tim": 396,
  ".\"": 397,
  " nam": 398,
  " time": 399,
  " ne": 400,
  " there": 401,
  " sm": 402,
  " named": 403,
  " Lily": 404,
  " were": 405,
  "The": 406,
  " but": 407,
  " bo": 408,
  " Tom": 409,
  "!\"": 410,
  " is": 411,
  " wanted": 412,
  "el": 413,
  "ved": 414,
  " an": 415,
  " It": 416,
  "out": 417,
  " friends": 418,
  "ht": 419,
  "ird": 420,
  "ome": 421,
  " went": 422,
  "al": 423,
  "ug": 424,
  " too": 425,
  " bird": 426,
  " wh": 427,
  "ide": 428,
  "ry": 429,
  "Once": 430,
  "ake": 431,
  " lo": 432,
  " all": 433,
  " loo": 434,
  "ter": 435,
  " hel": 436,
  " help": 437,
  " upon": 438,
  " toy": 439,
  "ue": 440,
  " did": 441,
  "ill": 442,
  "ore": 443,
  " fun": 444,
  "ra": 445,
  " j": 446,
  " as": 447,
  "get": 448,
  " A": 449,
  "ame": 450,
  "ind": 451,
  "ur": 452,
  " re": 453,
  " se": 454,
  "ly": 455,
  " at": 456,
  " dog": 457,
  "gether": 458,
  " ba": 459,
  " together": 460,
  " tre": 461,
  " cat": 462,
  "ood": 463,
  "ted": 464,
  "ic": 465,
  " are": 466,
  " could": 467,
  "ec": 468,
  " their": 469,
  " ball": 470,
  " ro": 471,
  "ax": 472,
  "ark": 473,
  " fr": 474,
  "way": 475,
  " can": 476,
  " go": 477,
  " played": 478,
  " kn": 479,
  " them": 480,
  "ain": 481,
  " him": 482,
  "?\"": 483,
  "ard": 484,
  "'t": 485,
  " sad": 486,
  " man": 487,
  " le": 488,
  " gir": 489,
  "um": 490,
  "hed": 491,
  "hen": 492,
  "my": 493,
  " Max": 494,
  "other": 495,
  " girl": 496,
  " boy": 497,
  " cl": 498,
  "ul": 499,
  "\n\n": 500,
  " out": 501,
  " have": 502,
  " star": 503,
  " tree": 504,
  "hing": 505,
  " back": 506,
  " loved": 507,
  " found": 508,
  " looked": 509,
  "oug": 510,
  " sc": 511,
  " sp": 512,
  "one": 513,
  " Sue": 514,
  " park": 515,
  " car": 516,
  "omet": 517,
  "are": 518,
  " like": 519,
  " me": 520,
  "ful": 521,
  "ell": 522,
  "side": 523,
  "own": 524,
  "round": 525,
  "ong": 526,
  " say": 527,
  " liked": 528,
  "op": 529,
  " la": 530,
  " see": 531,
  " bec": 532,
  "elt": 533,
  " would": 534,
  " somet": 535,
  " But": 536,
  " Sam": 537,
  " fa": 538,
  " started": 539,
  " felt": 540,
  " no": 541,
  "ight": 542,
  " came": 543,
  " W": 544,
  " One": 545,
  " asked": 546,
  " new": 547,
  " ag": 548,
  " al": 549,
  "ared": 550,
  "You": 551,
  "ouse": 552,
  "ob": 553,
  "ings": 554,
  "ought": 555,
  "pot": 556,
  " small": 557,
  "ice": 558,
  " good": 559,
  "iled": 560,
  " other": 561,
  " br": 562,
  "ook": 563,
  " mad": 564,
  "est": 565,
  "ried": 566,
  " away": 567,
  " make": 568,
  " Ben": 569,
  " something": 570,
  " smiled": 571,
  "ia": 572,
  "ag": 573,
  "ss": 574,
  " made": 575,
  " put": 576,
  " Spot": 577,
  "dd": 578,
  " what": 579,
  " from": 580,
  "ened": 581,
  " wor": 582,
  " find": 583,
  " wal": 584,
  " ex": 585,
  " J": 586,
  " home": 587,
  " thought": 588,
  "uc": 589,
  " co": 590,
  " ran": 591,
  "arn": 592,
  " playing": 593,
  " mu": 594,
  " again": 595,
  " laug": 596,
  "ak": 597,
  " fl": 598,
  " down": 599,
  " says": 600,
  " some": 601,
  " every": 602,
  " sun": 603,
  " sw": 604,
  " house": 605,
  " around": 606,
  "uck": 607,
  "ty": 608,
  " box": 609,
  " fe": 610,
  "if": 611,
  "ile": 612,
  " scared": 613,
  " my": 614,
  "ach": 615,
  " toys": 616,
  " took": 617,
  " look": 618,
  " F": 619,
  "ish": 620,
  " learn": 621,
  " will": 622,
  ",\"": 623,
  "ny": 624,
  " things": 625,
  " when": 626,
  "ret": 627,
  "oud": 628,
  " lot": 629,
  "ick": 630,
  " Mia": 631,
  " then": 632,
  "ure": 633,
  " your": 634,
  "ucy": 635,
  "ep": 636,
  "pped": 637,
  " You": 638,
  " pr": 639,
  " lived": 640,
  " pu": 641,
  "ap": 642,
  " know": 643,
  "qu": 644,
  "oth": 645,
  "ble": 646,
  " D": 647,
  " ch": 648,
  "ust": 649,
  "ie": 650,
  "ump": 651,
  " tried": 652,
  "ave": 653,
  "as": 654,
  " po": 655,
  " who": 656,
  "Th": 657,
  " got": 658,
  "ited": 659,
  " kne": 660,
  "Tim": 661,
  " dec": 662,
  "nder": 663,
  " get": 664,
  "ank": 665,
  "ally": 666,
  " any": 667,
  " more": 668,
  " Lucy": 669,
  " bl": 670,
  " v": 671,
  "au": 672,
  " Mom": 673,
  " hug": 674,
  "Lily": 675,
  " dad": 676,
  "ist": 677,
  "ant": 678,
  " many": 679,
  " ab": 680,
  " pret": 681,
  " red": 682,
  "ers": 683,
  " knew": 684,
  " int": 685,
  "â": 686,
  "ous": 687,
  " about": 688,
  " Bob": 689,
  "fter": 690,
  " water": 691,
  "og": 692,
  " care": 693,
  " op": 694,
  " exc": 695,
  " decid": 696,
  " this": 697,
  "ise": 698,
  "ive": 699,
  " eat": 700,
  "ause": 701,
  " gra": 702,
  " decided": 703,
  " laughed": 704,
  " learned": 705,
  " room": 706,
  " gre": 707,
  " run": 708,
  " best": 709,
  "ite": 710,
  " pe": 711,
  " un": 712,
  "They": 713,
  " pic": 714,
  " So": 715,
  " because": 716,
  "ink": 717,
  "urp": 718,
  " both": 719,
  " E": 720,
  "ace": 721,
  " And": 722,
  " sl": 723,
  " ho": 724,
  " feel": 725,
  " ke": 726,
  "fe": 727,
  " one": 728,
  " became": 729,
  " jump": 730,
  "ways": 731,
  " bu": 732,
  " always": 733,
  " outside": 734,
  " show": 735,
  " inside": 736,
  " mo": 737,
  " excited": 738,
  "Yes": 739,
  " sk": 740,
  "ess": 741,
  "udd": 742,
  " long": 743,
  " sor": 744,
  "ara": 745,
  " into": 746,
  " told": 747,
  " tow": 748,
  "Tom": 749,
  " rock": 750,
  " str": 751,
  " fast": 752,
  " nice": 753,
  "iny": 754,
  " ta": 755,
  "Wh": 756,
  " each": 757,
  " am": 758,
  " much": 759,
  "urpr": 760,
  " under": 761,
  " gave": 762,
  " surpr": 763,
  " tr": 764,
  " sorry": 765,
  "our": 766,
  " anim": 767,
  " animal": 768,
  "ged": 769,
  " fish": 770,
  "sed": 771,
  " need": 772,
  " than": 773,
  "ised": 774,
  "ven": 775,
  " old": 776,
  " We": 777,
  "lew": 778,
  " walk": 779,
  " pretty": 780,
  " or": 781,
  " didn": 782,
  "But": 783,
  " tur": 784,
  " happened": 785,
  " just": 786,
  " walked": 787,
  "ro": 788,
  " hand": 789,
  "na": 790,
  "ang": 791,
  " clo": 792,
  "ff": 793,
  "ase": 794,
  "here": 795,
  "ft": 796,
  "etter": 797,
  " near": 798,
  " en": 799,
  " animals": 800,
  "by": 801,
  " fly": 802,
  " take": 803,
  " book": 804,
  " how": 805,
  "lor": 806,
  "ate": 807,
  " stor": 808,
  " try": 809,
  " kind": 810,
  "ched": 811,
  "gry": 812,
  " sky": 813,
  " wat": 814,
  " food": 815,
  " its": 816,
  " flow": 817,
  " list": 818,
  " fi": 819,
  "ine": 820,
  " better": 821,
  "ving": 822,
  " cle": 823,
  "igh": 824,
  " cake": 825,
  " if": 826,
  " let": 827,
  "urt": 828,
  " C": 829,
  "ion": 830,
  " bear": 831,
  " ca": 832,
  "oll": 833,
  " lots": 834,
  " Th": 835,
  " ide": 836,
  " never": 837,
  "bb": 838,
  " share": 839,
  "rom": 840,
  " bug": 841,
  " tw": 842,
  "pec": 843,
  " idea": 844,
  " mag": 845,
  " by": 846,
  " anym": 847,
  " anymore": 848,
  " love": 849,
  "ople": 850,
  " His": 851,
  "\n\n\n": 852,
  " color": 853,
  "udden": 854,
  " te": 855,
  " heard": 856,
  " pa": 857,
  " careful": 858,
  " people": 859,
  " spec": 860,
  "ial": 861,
  " special": 862,
  " don": 863,
  "ort": 864,
  " doll": 865,
  " frog": 866,
  " com": 867,
  "ream": 868,
  "Mom": 869,
  "uddenly": 870,
  " flew": 871,
  "ex": 872,
  " door": 873,
  "pl": 874,
  " Every": 875,
  "ves": 876,
  "rm": 877,
  " qu": 878,
  "nna": 879,
  "uff": 880,
  " turn": 881,
  " surprised": 882,
  " sn": 883,
  " even": 884,
  " Sara": 885,
  " hurt": 886,
  " fore": 887,
  " gl": 888,
  " ground": 889,
  " Her": 890,
  " end": 891,
  " come": 892,
  " over": 893,
  " fam": 894,
  "Thank": 895,
  "row": 896,
  " far": 897,
  " dan": 898,
  " clean": 899,
  " magic": 900,
  " picked": 901,
  " still": 902,
  " loud": 903,
  " read": 904,
  " shiny": 905,
  "kay": 906,
  "No": 907,
  " high": 908,
  "ull": 909,
  " hugged": 910,
  "pected": 911,
  "Let": 912,
  " thanked": 913,
  " opened": 914,
  " unex": 915,
  " unexpected": 916,
  " wind": 917,
  " hard": 918,
  " Amy": 919,
  " kid": 920,
  " ra": 921,
  "ack": 922,
  " P": 923,
  " clim": 924,
  "ool": 925,
  "sh": 926,
  " after": 927,
  " climb": 928,
  " K": 929,
  " mak": 930,
  " bad": 931,
  "em": 932,
  " Then": 933,
  " bro": 934,
  " dra": 935,
  "ummy": 936,
  " gard": 937,
  " garden": 938,
  " R": 939,
  " che": 940,
  "lf": 941,
  " kids": 942,
  "'m": 943,
  " family": 944,
  " town": 945,
  " From": 946,
  " app": 947,
  " In": 948,
  "xt": 949,
  " cry": 950,
  "lease": 951,
  " safe": 952,
  "ild": 953,
  "As": 954,
  "uffy": 955,
  "iz": 956,
  " proud": 957,
  " squ": 958,
  " jumped": 959,
  " story": 960,
  " ever": 961,
  "ber": 962,
  " call": 963,
  " im": 964,
  " off": 965,
  " unt": 966,
  " tal": 967,
  " next": 968,
  " give": 969,
  " hat": 970,
  "It": 971,
  "ane": 972,
  " tra": 973,
  "illy": 974,
  " strong": 975,
  " forest": 976,
  " blue": 977,
  " stay": 978,
  " while": 979,
  " stick": 980,
  " until": 981,
  " listen": 982,
  " flowers": 983,
  " bea": 984,
  " cu": 985,
  " way": 986,
  " should": 987,
  "be": 988,
  " When": 989,
  " rain": 990,
  " beaut": 991,
  "dy": 992,
  "oy": 993,
  "and": 994,
  "ct": 995,
  "hes": 996,
  "ough": 997,
  " angry": 998,
  "age": 999,
  " great": 1000,
  " smile": 1001,
  " par": 1002,
  "itty": 1003,
  "ning": 1004,
  " work": 1005,
  " has": 1006,
  " beauti": 1007,
  " beautiful": 1008,
  " slide": 1009,
  " think": 1010,
  "luffy": 1011,
  " soft": 1012,
  "ip": 1013,
  " now": 1014,
  " two": 1015,
  " Let": 1016,
  " Sally": 1017,
  "He": 1018,
  "When": 1019,
  " where": 1020,
  " everyone": 1021,
  " ask": 1022,
  " met": 1023,
  " watch": 1024,
  " hear": 1025,
  " mor": 1026,
  " place": 1027,
  " sto": 1028,
  "pt": 1029,
  "dded": 1030,
  " showed": 1031,
  " thre": 1032,
  "Now": 1033,
  " open": 1034,
  " catch": 1035,
  " lost": 1036,
  " yell": 1037,
  " lion": 1038,
  " bre": 1039,
  "az": 1040,
  " warm": 1041,
  "ture": 1042,
  " called": 1043,
  " happily": 1044,
  " helped": 1045,
  " green": 1046,
  "oon": 1047,
  " imp": 1048,
  "so": 1049,
  " yummy": 1050,
  "Then": 1051,
  " pain": 1052,
  " de": 1053,
  " also": 1054,
  "rel": 1055,
  " Fluffy": 1056,
  " lea": 1057,
  "ies": 1058,
  "aybe": 1059,
  "irst": 1060,
  " fell": 1061,
  "uit": 1062,
  "lled": 1063,
  " hands": 1064,
  " noise": 1065,
  " picture": 1066,
  "That": 1067,
  " stopped": 1068,
  " Jo": 1069,
  " couldn": 1070,
  " store": 1071,
  "ange": 1072,
  " ate": 1073,
  " Kitty": 1074,
  "ma": 1075,
  "Look": 1076,
  " bed": 1077,
  "unny": 1078,
  " nodded": 1079,
  " ad": 1080,
  " Anna": 1081,
  " truck": 1082,
  "ired": 1083,
  " pond": 1084,
  " mean": 1085,
  " having": 1086,
  "olly": 1087,
  " rem": 1088,
  " sound": 1089,
  "leep": 1090,
  " agre": 1091,
  " game": 1092,
  " Wh": 1093,
  "les": 1094,
  "fore": 1095,
  " sunny": 1096,
  "ress": 1097,
  "ished": 1098,
  " mouse": 1099,
  "â": 1100,
  "ath": 1101,
  "Can": 1102,
  " keep": 1103,
  "th": 1104,
  "isy": 1105,
  "â": 1106,
  "What": 1107,
  " bra": 1108,
  " wo": 1109,
  " duck": 1110,
  "Hi": 1111,
  " kept": 1112,
  " before": 1113,
  "vent": 1114,
  " sand": 1115,
  "oc": 1116,
  "We": 1117,
  " squir": 1118,
  " squirrel": 1119,
  " z": 1120,
  " head": 1121,
  " tired": 1122,
  " wr": 1123,
  " used": 1124,
  " cars": 1125,
  " cla": 1126,
  " use": 1127,
  "air": 1128,
  " hill": 1129,
  "gan": 1130,
  " mon": 1131,
  "ock": 1132,
  " soon": 1133,
  " talk": 1134,
  " sat": 1135,
  " being": 1136,
  " wait": 1137,
  "icy": 1138,
  "bbit": 1139,
  "joy": 1140,
  " dif": 1141,
  "imes": 1142,
  " okay": 1143,
  " birds": 1144,
  " ey": 1145,
  " first": 1146,
  " Do": 1147,
  "man": 1148,
  "ary": 1149,
  " hole": 1150,
  "day": 1151,
  " us": 1152,
  " does": 1153,
  " race": 1154,
  " yard": 1155,
  "ray": 1156,
  " mess": 1157,
  "ge": 1158,
  "able": 1159,
  " Now": 1160,
  "ear": 1161,
  " sleep": 1162,
  " enjoy": 1163,
  "ught": 1164,
  "orn": 1165,
  " draw": 1166,
  "hn": 1167,
  "ied": 1168,
  " dr": 1169,
  " beh": 1170,
  " hop": 1171,
  "self": 1172,
  " mommy": 1173,
  " our": 1174,
  "led": 1175,
  "She": 1176,
  " sing": 1177,
  " flo": 1178,
  "ol": 1179,
  " right": 1180,
  " face": 1181,
  " fire": 1182,
  " farm": 1183,
  "rious": 1184,
  "After": 1185,
  " eyes": 1186,
  "aisy": 1187,
  " pick": 1188,
  " fix": 1189,
  " kit": 1190,
  "ser": 1191,
  "eet": 1192,
  "Hell": 1193,
  "Hello": 1194,
  "ries": 1195,
  " agreed": 1196,
  "key": 1197,
  " â": 1198,
  " curious": 1199,
  " top": 1200,
  " here": 1201,
  " cook": 1202,
  " walking": 1203,
  " friendly": 1204,
  " fin": 1205,
  " bag": 1206,
  " G": 1207,
  "ox": 1208,
  " boat": 1209,
  " kitc": 1210,
  " kitchen": 1211,
  "ting": 1212,
  "Ben": 1213,
  " bright": 1214,
  " going": 1215,
  "Sam": 1216,
  " worked": 1217,
  " import": 1218,
  "â": 1219,
  " rabbit": 1220,
  " ru": 1221,
  "uch": 1222,
  " moral": 1223,
  "thing": 1224,
  "kes": 1225,
  " swing": 1226,
  " stop": 1227,
  " bunny": 1228,
  " party": 1229,
  " brave": 1230,
  " diffe": 1231,
  " differe": 1232,
  " smell": 1233,
  " thing": 1234,
  "ember": 1235,
  " Dad": 1236,
  "ike": 1237,
  " ri": 1238,
  " This": 1239,
  " feeling": 1240,
  " fav": 1241,
  "ng": 1242,
  " fruit": 1243,
  " important": 1244,
  " grand": 1245,
  " laugh": 1246,
  " shared": 1247,
  " real": 1248,
  " yellow": 1249,
  "ollow": 1250,
  " trees": 1251,
  " forg": 1252,
  " jo": 1253,
  " please": 1254,
  " colors": 1255,
  " different": 1256,
  " own": 1257,
  "cle": 1258,
  " making": 1259,
  " began": 1260,
  " turned": 1261,
  " danc": 1262,
  " song": 1263,
  "Don": 1264,
  " looking": 1265,
  " Jane": 1266,
  " funny": 1267,
  " Can": 1268,
  " others": 1269,
  " brother": 1270,
  " grass": 1271,
  "owl": 1272,
  " cold": 1273,
  " dance": 1274,
  " con": 1275,
  "At": 1276,
  "ken": 1277,
  " follow": 1278,
  " worry": 1279,
  " hot": 1280,
  "ather": 1281,
  " tast": 1282,
  " pretend": 1283,
  " snow": 1284,
  " rest": 1285,
  "oice": 1286,
  "Wow": 1287,
  " cried": 1288,
  " shout": 1289,
  " gi": 1290,
  " tall": 1291,
  "ely": 1292,
  "Why": 1293,
  " remember": 1294,
  " hun": 1295,
  " closer": 1296,
  " full": 1297,
  "ail": 1298,
  " broken": 1299,
  " favor": 1300,
  " favorite": 1301,
  "us": 1302,
  "iss": 1303,
  " behind": 1304,
  " needed": 1305,
  " sho": 1306,
  " floor": 1307,
  " sweet": 1308,
  "Max": 1309,
  " sees": 1310,
  "Sara": 1311,
  " tail": 1312,
  " tell": 1313,
  "tle": 1314,
  " voice": 1315,
  "ign": 1316,
  " looks": 1317,
  "ppy": 1318,
  " advent": 1319,
  " books": 1320,
  " hid": 1321,
  " swim": 1322,
  " cre": 1323,
  " move": 1324,
  "aring": 1325,
  "Suddenly": 1326,
  " expl": 1327,
  " pus": 1328,
  " pap": 1329,
  " lad": 1330,
  "zy": 1331,
  " dis": 1332,
  " watched": 1333,
  "oom": 1334,
  "bye": 1335,
  " sometimes": 1336,
  "ached": 1337,
  " gr": 1338,
  " night": 1339,
  " dark": 1340,
  " ac": 1341,
  " table": 1342,
  " butter": 1343,
  " bigg": 1344,
  "ila": 1345,
  "ins": 1346,
  " wood": 1347,
  " As": 1348,
  " That": 1349,
  " another": 1350,
  " fair": 1351,
  "uddy": 1352,
  " ready": 1353,
  "ect": 1354,
  " Mr": 1355,
  " Daisy": 1356,
  " All": 1357,
  "ation": 1358,
  " wet": 1359,
  " hungry": 1360,
  "Jo": 1361,
  "ute": 1362,
  "Sue": 1363,
  " plan": 1364,
  " cra": 1365,
  " trying": 1366,
  " makes": 1367,
  " Suddenly": 1368,
  " repl": 1369,
  " gone": 1370,
  "ass": 1371,
  " ju": 1372,
  "atter": 1373,
  " del": 1374,
  " slow": 1375,
  "av": 1376,
  " dir": 1377,
  " leaves": 1378,
  " might": 1379,
  "ster": 1380,
  "ious": 1381,
  " doing": 1382,
  " Timmy": 1383,
  " amaz": 1384,
  " cou": 1385,
  " moment": 1386,
  " adventure": 1387,
  " prom": 1388,
  " tak": 1389,
  "So": 1390,
  " left": 1391,
  " pulled": 1392,
  " threw": 1393,
  "asure": 1394,
  " quick": 1395,
  " stuck": 1396,
  " cloud": 1397,
  " reached": 1398,
  " clapped": 1399,
  " hold": 1400,
  " ice": 1401,
  "pe": 1402,
  " ste": 1403,
  " key": 1404,
  " Buddy": 1405,
  " swam": 1406,
  " less": 1407,
  " running": 1408,
  " only": 1409,
  " per": 1410,
  "ac": 1411,
  " tiny": 1412,
  " build": 1413,
  "ucky": 1414,
  " helping": 1415,
  " waved": 1416,
  " break": 1417,
  " mar": 1418,
  "Mia": 1419,
  "stle": 1420,
  " bel": 1421,
  "where": 1422,
  "ater": 1423,
  " goodbye": 1424,
  " close": 1425,
  " paint": 1426,
  " block": 1427,
  " cool": 1428,
  " alone": 1429,
  "ient": 1430,
  " thank": 1431,
  "eb": 1432,
  " din": 1433,
  "iced": 1434,
  " fall": 1435,
  "Okay": 1436,
  "der": 1437,
  " surprise": 1438,
  " glad": 1439,
  " replied": 1440,
  " tri": 1441,
  " bigger": 1442,
  " paper": 1443,
  " colorful": 1444,
  "ix": 1445,
  " train": 1446,
  "atch": 1447,
  "bbed": 1448,
  " pi": 1449,
  " bit": 1450,
  "anger": 1451,
  " Joe": 1452,
  " apple": 1453,
  " bus": 1454,
  " likes": 1455,
  "Anna": 1456,
  "avy": 1457,
  " tower": 1458,
  "room": 1459,
  " bike": 1460,
  " flower": 1461,
  " grow": 1462,
  " hair": 1463,
  " quickly": 1464,
  " Jack": 1465,
  " why": 1466,
  " Everyone": 1467,
  " listened": 1468,
  " been": 1469,
  " enjoyed": 1470,
  " coming": 1471,
  " lon": 1472,
  " lonely": 1473,
  " air": 1474,
  " fight": 1475,
  " pushed": 1476,
  " pen": 1477,
  " set": 1478,
  " Fin": 1479,
  "ered": 1480,
  "less": 1481,
  " climbed": 1482,
  " bot": 1483,
  " wall": 1484,
  " seen": 1485,
  " join": 1486,
  " mout": 1487,
  " mouth": 1488,
  " done": 1489,
  " wag": 1490,
  "'re": 1491,
  " fre": 1492,
  "ower": 1493,
  " silly": 1494,
  " touch": 1495,
  " wonder": 1496,
  " lesson": 1497,
  " underst": 1498,
  " land": 1499,
  " dream": 1500,
  "zz": 1501,
  " ride": 1502,
  " nest": 1503,
  "This": 1504,
  " dress": 1505,
  " gent": 1506,
  " creat": 1507,
  " shouted": 1508,
  " butterf": 1509,
  " danced": 1510,
  "red": 1511,
  " rocks": 1512,
  " monkey": 1513,
  " thr": 1514,
  "ner": 1515,
  " After": 1516,
  " light": 1517,
  " reach": 1518,
  " dro": 1519,
  " white": 1520,
  " spl": 1521,
  " name": 1522,
  "ph": 1523,
  " chair": 1524,
  " through": 1525,
  " buy": 1526,
  " ar": 1527,
  "Her": 1528,
  " held": 1529,
  " pictures": 1530,
  " noticed": 1531,
  " broke": 1532,
  "ash": 1533,
  " wants": 1534,
  " balloon": 1535,
  " someone": 1536,
  "oney": 1537,
  " mus": 1538,
  " music": 1539,
  " blocks": 1540,
  " cream": 1541,
  " rel": 1542,
  " forgot": 1543,
  " anything": 1544,
  " perf": 1545,
  " hopped": 1546,
  " grabbed": 1547,
  " bath": 1548,
  " mix": 1549,
  " lady": 1550,
  "ton": 1551,
  " pot": 1552,
  " throw": 1553,
  " spot": 1554,
  "rot": 1555,
  "ez": 1556,
  "Do": 1557,
  " gif": 1558,
  " dri": 1559,
  "art": 1560,
  " baby": 1561,
  " Jen": 1562,
  " waited": 1563,
  " heavy": 1564,
  " Maybe": 1565,
  " blew": 1566,
  " job": 1567,
  "In": 1568,
  " won": 1569,
  " must": 1570,
  " castle": 1571,
  " gu": 1572,
  "John": 1573,
  "emy": 1574,
  " explore": 1575,
  " followed": 1576,
  " There": 1577,
  " asks": 1578,
  " grandma": 1579,
  " wrong": 1580,
  "adow": 1581,
  " arm": 1582,
  " ele": 1583,
  "Oh": 1584,
  " child": 1585,
  " thinks": 1586,
  "ub": 1587,
  " word": 1588,
  " stu": 1589,
  " poin": 1590,
  " wished": 1591,
  " bor": 1592,
  " butterfly": 1593,
  " giant": 1594,
  "orm": 1595,
  " stayed": 1596,
  " shap": 1597,
  " sit": 1598,
  "lla": 1599,
  " Mommy": 1600,
  " fairy": 1601,
  "ord": 1602,
  " Bl": 1603,
  " dinner": 1604,
  " sea": 1605,
  " paw": 1606,
  " three": 1607,
  " woods": 1608,
  "come": 1609,
  " cont": 1610,
  " year": 1611,
  " pink": 1612,
  " win": 1613,
  " flying": 1614,
  " vis": 1615,
  "set": 1616,
  " wish": 1617,
  " Bobo": 1618,
  " start": 1619,
  " pol": 1620,
  " plant": 1621,
  "eddy": 1622,
  " mother": 1623,
  "pping": 1624,
  " treasure": 1625,
  " everywhere": 1626,
  " fill": 1627,
  " cow": 1628,
  " window": 1629,
  "Spot": 1630,
  " world": 1631,
  " O": 1632,
  "ance": 1633,
  " sec": 1634,
  " Remy": 1635,
  " hit": 1636,
  " comp": 1637,
  " runs": 1638,
  " tight": 1639,
  "Lucy": 1640,
  " Soon": 1641,
  "ield": 1642,
  "ast": 1643,
  " brought": 1644,
  " faster": 1645,
  " button": 1646,
  " bite": 1647,
  "mb": 1648,
  "pper": 1649,
  " gift": 1650,
  " Momo": 1651,
  " What": 1652,
  "ames": 1653,
  " fur": 1654,
  " happen": 1655,
  "Maybe": 1656,
  " farmer": 1657,
  " pass": 1658,
  " Lila": 1659,
  " Inside": 1660,
  " owl": 1661,
  " ant": 1662,
  " orange": 1663,
  " dirty": 1664,
  " sure": 1665,
  "\".": 1666,
  "de": 1667,
  " crying": 1668,
  " Tommy": 1669,
  " scream": 1670,
  " drag": 1671,
  "os": 1672,
  " games": 1673,
  " bar": 1674,
  " treat": 1675,
  " visit": 1676,
  " pig": 1677,
  " juice": 1678,
  " mail": 1679,
  " stand": 1680,
  "oop": 1681,
  " rolled": 1682,
  "que": 1683,
  "edal": 1684,
  " really": 1685,
  " eating": 1686,
  " swings": 1687,
  " strange": 1688,
  " pet": 1689,
  " deep": 1690,
  " wise": 1691,
  " remembered": 1692,
  " dry": 1693,
  " pull": 1694,
  " cray": 1695,
  " crayon": 1696,
  "ized": 1697,
  " sna": 1698,
  " rope": 1699,
  " dragon": 1700,
  " rob": 1701,
  " Blue": 1702,
  " fit": 1703,
  " talked": 1704,
  " wel": 1705,
  " bran": 1706,
  " understand": 1707,
  " turns": 1708,
  " fo": 1709,
  " John": 1710,
  " whe": 1711,
  " round": 1712,
  "ross": 1713,
  " closed": 1714,
  " smart": 1715,
  "ued": 1716,
  " clot": 1717,
  " clothes": 1718,
  "ctor": 1719,
  " bottle": 1720,
  "oup": 1721,
  " tasty": 1722,
  " fox": 1723,
  " Billy": 1724,
  " laughing": 1725,
  " fis": 1726,
  "Bob": 1727,
  " piec": 1728,
  " pieces": 1729,
  " promised": 1730,
  " qui": 1731,
  " quiet": 1732,
  "itten": 1733,
  " scary": 1734,
  "ead": 1735,
  " Z": 1736,
  " ph": 1737,
  " noteb": 1738,
  " notebook": 1739,
  " robot": 1740,
  "While": 1741,
  " To": 1742,
  " well": 1743,
  " rec": 1744,
  " pudd": 1745,
  "ella": 1746,
  " el": 1747,
  "arent": 1748,
  "unch": 1749,
  " prin": 1750,
  "!â": 1751,
  "itting": 1752,
  " leaf": 1753,
  "iver": 1754,
  " secret": 1755,
  "ming": 1756,
  " lake": 1757,
  " sis": 1758,
  " caught": 1759,
  " snack": 1760,
  " hor": 1761,
  " drink": 1762,
  " cup": 1763,
  " cand": 1764,
  " spin": 1765,
  " else": 1766,
  " hide": 1767,
  " welcome": 1768,
  " carrot": 1769,
  " sharing": 1770,
  " monster": 1771,
  " yes": 1772,
  " delic": 1773,
  " wings": 1774,
  "cy": 1775,
  " yog": 1776,
  " At": 1777,
  "His": 1778,
  "From": 1779,
  " contin": 1780,
  "atient": 1781,
  " pie": 1782,
  " sear": 1783,
  " eleph": 1784,
  " elephant": 1785,
  "isa": 1786,
  "full": 1787,
  "fully": 1788,
  " count": 1789,
  " brown": 1790,
  " smiles": 1791,
  "Just": 1792,
  " Le": 1793,
  " puppy": 1794,
  " push": 1795,
  " shin": 1796,
  " sister": 1797,
  " side": 1798,
  " perfect": 1799,
  " sign": 1800,
  "rand": 1801,
  " vill": 1802,
  "fu": 1803,
  " dolls": 1804,
  " smo": 1805,
  " twins": 1806,
  " spicy": 1807,
  " mum": 1808,
  "urn": 1809,
  "amp": 1810,
  " wra": 1811,
  " att": 1812,
  "bo": 1813,
  " Em": 1814,
  " bee": 1815,
  " bell": 1816,
  " finished": 1817,
  " continued": 1818,
  " sitting": 1819,
  " black": 1820,
  "ards": 1821,
  "issed": 1822,
  " ducks": 1823,
  " danger": 1824,
  " mine": 1825,
  " ans": 1826,
  " answ": 1827,
  " leave": 1828,
  " res": 1829,
  " apples": 1830,
  " heart": 1831,
  " few": 1832,
  " fisher": 1833,
  " shr": 1834,
  " shapes": 1835,
  "ocked": 1836,
  " dangerous": 1837,
  " puddle": 1838,
  " sang": 1839,
  " smelly": 1840,
  " Bella": 1841,
  " amazing": 1842,
  " without": 1843,
  " himself": 1844,
  "eze": 1845,
  " piece": 1846,
  "co": 1847,
  " owner": 1848,
  " lunch": 1849,
  "une": 1850,
  " sack": 1851,
  " blank": 1852,
  " blanket": 1853,
  " bowl": 1854,
  " exp": 1855,
  " fisherman": 1856,
  " free": 1857,
  " snowman": 1858,
  " singing": 1859,
  " morning": 1860,
  " di": 1861,
  "aught": 1862,
  " filled": 1863,
  "ible": 1864,
  " puzz": 1865,
  "ence": 1866,
  " jam": 1867,
  " purp": 1868,
  " kitten": 1869,
  " ve": 1870,
  " stone": 1871,
  " pers": 1872,
  " worried": 1873,
  " teddy": 1874,
  " cute": 1875,
  " buck": 1876,
  " today": 1877,
  " king": 1878,
  " je": 1879,
  "chool": 1880,
  " moved": 1881,
  " parent": 1882,
  "una": 1883,
  " dogs": 1884,
  " ear": 1885,
  " nose": 1886,
  " shining": 1887,
  " power": 1888,
  " cave": 1889,
  " corn": 1890,
  "rew": 1891,
  "stead": 1892,
  " horse": 1893,
  " glass": 1894,
  " able": 1895,
  " cut": 1896,
  " village": 1897,
  " nap": 1898,
  " stre": 1899,
  "ract": 1900,
  " cour": 1901,
  " prob": 1902,
  " bugs": 1903,
  "igg": 1904,
  "ost": 1905,
  " beach": 1906,
  "lder": 1907,
  " stories": 1908,
  " field": 1909,
  " cann": 1910,
  " cannot": 1911,
  " Molly": 1912,
  " huge": 1913,
  " barn": 1914,
  "ina": 1915,
  "itch": 1916,
  " doctor": 1917,
  "fused": 1918,
  "ator": 1919,
  "ove": 1920,
  "eter": 1921,
  " eng": 1922,
  " river": 1923,
  " gentle": 1924,
  " proble": 1925,
  " problem": 1926,
  " min": 1927,
  "ich": 1928,
  " wagged": 1929,
  "ises": 1930,
  " Bird": 1931,
  " tap": 1932,
  " eg": 1933,
  " egg": 1934,
  " sal": 1935,
  " purple": 1936,
  " flute": 1937,
  " school": 1938,
  " course": 1939,
  " carefully": 1940,
  " dropped": 1941,
  " getting": 1942,
  "box": 1943,
  " map": 1944,
  "ches": 1945,
  " pre": 1946,
  " puzzle": 1947,
  "irt": 1948,
  "Fin": 1949,
  " medal": 1950,
  " cir": 1951,
  "ined": 1952,
  "me": 1953,
  " bucket": 1954,
  " bas": 1955,
  " bask": 1956,
  " basket": 1957,
  "Please": 1958,
  " living": 1959,
  " fan": 1960,
  " oven": 1961,
  " snake": 1962,
  " rainb": 1963,
  " rainbow": 1964,
  " leg": 1965,
  "cked": 1966,
  " same": 1967,
  " sounds": 1968,
  " taking": 1969,
  " grew": 1970,
  " jog": 1971,
  "ond": 1972,
  " finally": 1973,
  "pa": 1974,
  " enough": 1975,
  " upset": 1976,
  " street": 1977,
  " Ch": 1978,
  " roll": 1979,
  " Sarah": 1980,
  " engine": 1981,
  " suddenly": 1982,
  "umb": 1983,
  " roar": 1984,
  "ren": 1985,
  " peace": 1986,
  " feels": 1987,
  " rag": 1988,
  " joy": 1989,
  "ere": 1990,
  " past": 1991,
  " woke": 1992,
  " rad": 1993,
  "rob": 1994,
  " miss": 1995,
  "board": 1996,
  "gly": 1997,
  " days": 1998,
  " branch": 1999,
  " Thank": 2000,
  " inc": 2001,
  "to": 2002,
  " Leo": 2003,
  " creative": 2004,
  " drew": 2005,
  " realized": 2006,
  "thy": 2007,
  "Hey": 2008,
  "ano": 2009,
  " kite": 2010,
  " everything": 2011,
  " Bobby": 2012,
  " bathrob": 2013,
  " parents": 2014,
  "bble": 2015,
  " amazed": 2016,
  " last": 2017,
  " path": 2018,
  "Soon": 2019,
  "ugg": 2020,
  " magical": 2021,
  "ces": 2022,
  " wear": 2023,
  " chas": 2024,
  " patient": 2025,
  "umpy": 2026,
  "ipped": 2027,
  "\n\n ": 2028,
  " match": 2029,
  " -": 2030,
  " des": 2031,
  " bush": 2032,
  " candy": 2033,
  " har": 2034,
  "ench": 2035,
  " road": 2036,
  "Sally": 2037,
  " plane": 2038,
  "eared": 2039,
  "fish": 2040,
  " track": 2041,
  "irp": 2042,
  "Of": 2043,
  " belie": 2044,
  " ugly": 2045,
  "epend": 2046,
  "'ll": 2047,
  " shook": 2048,
  " live": 2049,
  " scar": 2050,
  "sy": 2051,
  " most": 2052,
  ".â": 2053,
  " clap": 2054,
  "iling": 2055,
  " bathrobe": 2056,
  "lex": 2057,
  "cess": 2058,
  " tea": 2059,
  "itter": 2060,
  " Grand": 2061,
  "azz": 2062,
  " Emma": 2063,
  " grab": 2064,
  " shar": 2065,
  " sharp": 2066,
  " bark": 2067,
  "Good": 2068,
  "ose": 2069,
  "akes": 2070,
  "ated": 2071,
  " meet": 2072,
  " scarf": 2073,
  "dge": 2074,
  " comes": 2075,
  " words": 2076,
  " belong": 2077,
  " wom": 2078,
  " woman": 2079,
  " shoes": 2080,
  " Ella": 2081,
  " part": 2082,
  " mud": 2083,
  " bench": 2084,
  " storm": 2085,
  " pool": 2086,
  " hope": 2087,
  "Mommy": 2088,
  "Finally": 2089,
  "port": 2090,
  "ilk": 2091,
  " prune": 2092,
  "cket": 2093,
  " Lisa": 2094,
  "alm": 2095,
  " seem": 2096,
  " children": 2097,
  "ade": 2098,
  " carry": 2099,
  " onto": 2100,
  " forever": 2101,
  " trip": 2102,
  " sne": 2103,
  "ese": 2104,
  " holding": 2105,
  " sleepy": 2106,
  " su": 2107,
  " bri": 2108,
  "ount": 2109,
  " cloth": 2110,
  " jet": 2111,
  " confused": 2112,
  " hig": 2113,
  " cover": 2114,
  " herself": 2115,
  " Ducky": 2116,
  " stars": 2117,
  "ize": 2118,
  "oun": 2119,
  " milk": 2120,
  " press": 2121,
  "uce": 2122,
  " shadow": 2123,
  " salad": 2124,
  " chew": 2125,
  "llie": 2126,
  " hoped": 2127,
  "Amy": 2128,
  "ama": 2129,
  " years": 2130,
  " late": 2131,
  "vel": 2132,
  " dead": 2133,
  " zoom": 2134,
  "ling": 2135,
  "Lila": 2136,
  "bor": 2137,
  " shirt": 2138,
  " hugs": 2139,
  " cookies": 2140,
  "ks": 2141,
  " feather": 2142,
  " turkey": 2143,
  " bow": 2144,
  "izz": 2145,
  "mp": 2146,
  " shy": 2147,
  "ssy": 2148,
  " jar": 2149,
  "ale": 2150,
  " hoop": 2151,
  "squ": 2152,
  " lucky": 2153,
  " arri": 2154,
  "OK": 2155,
  " faces": 2156,
  " bring": 2157,
  " nod": 2158,
  " mist": 2159,
  " quest": 2160,
  " question": 2161,
  " forget": 2162,
  "ung": 2163,
  "St": 2164,
  " tries": 2165,
  "ne": 2166,
  " noises": 2167,
  " grumpy": 2168,
  "fort": 2169,
  " money": 2170,
  " neigh": 2171,
  " hats": 2172,
  "irth": 2173,
  " trou": 2174,
  " bread": 2175,
  " pile": 2176,
  " plate": 2177,
  " clouds": 2178,
  " wand": 2179,
  " instead": 2180,
  "ert": 2181,
  " phone": 2182,
  "pes": 2183,
  "imi": 2184,
  "aur": 2185,
  " mosqu": 2186,
  " mosquit": 2187,
  " mosquito": 2188,
  "erry": 2189,
  " believe": 2190,
  " eas": 2191,
  " calm": 2192,
  "af": 2193,
  " smelled": 2194,
  "unt": 2195,
  " teach": 2196,
  "cc": 2197,
  "cap": 2198,
  " turtle": 2199,
  " promise": 2200,
  "aughty": 2201,
  " landed": 2202,
  " tom": 2203,
  "enny": 2204,
  " cheese": 2205,
  " hiding": 2206,
  " slid": 2207,
  " ban": 2208,
  " inv": 2209,
  "ats": 2210,
  " gas": 2211,
  "izza": 2212,
  " toast": 2213,
  " leop": 2214,
  " acorn": 2215,
  " waiting": 2216,
  " fixed": 2217,
  " cheered": 2218,
  "isk": 2219,
  " shell": 2220,
  "read": 2221,
  " naughty": 2222,
  " Please": 2223,
  " carp": 2224,
  " carpet": 2225,
  " spark": 2226,
  "Be": 2227,
  " mot": 2228,
  "erest": 2229,
  " puts": 2230,
  " bone": 2231,
  "era": 2232,
  " tear": 2233,
  " write": 2234,
  " answer": 2235,
  " birth": 2236,
  " higher": 2237,
  "ier": 2238,
  " delicious": 2239,
  " es": 2240,
  " tooth": 2241,
  " veget": 2242,
  " vegetable": 2243,
  " leopard": 2244,
  " ign": 2245,
  " smooth": 2246,
  " dancing": 2247,
  " talking": 2248,
  " yelled": 2249,
  "iskers": 2250,
  " swimming": 2251,
  " rude": 2252,
  " takes": 2253,
  "ire": 2254,
  " paws": 2255,
  " fighting": 2256,
  " daddy": 2257,
  "umber": 2258,
  " banan": 2259,
  " interest": 2260,
  " jour": 2261,
  "althy": 2262,
  " helpful": 2263,
  "ountain": 2264,
  " driver": 2265,
  " dest": 2266,
  " wondered": 2267,
  " searched": 2268,
  " seed": 2269,
  " er": 2270,
  " bake": 2271,
  " deer": 2272,
  " sel": 2273,
  " pointed": 2274,
  " Birdy": 2275,
  " cher": 2276,
  "lower": 2277,
  " across": 2278,
  " shop": 2279,
  " messy": 2280,
  "ity": 2281,
  " Somet": 2282,
  " honey": 2283,
  " whole": 2284,
  "cape": 2285,
  "any": 2286,
  " wheel": 2287,
  " ob": 2288,
  " bought": 2289,
  " trump": 2290,
  "let": 2291,
  " Finally": 2292,
  " gently": 2293,
  " drove": 2294,
  " knocked": 2295,
  " disa": 2296,
  " disapp": 2297,
  " poem": 2298,
  "erv": 2299,
  " av": 2300,
  " icy": 2301,
  " dirt": 2302,
  " square": 2303,
  " rot": 2304,
  " diam": 2305,
  " diamond": 2306,
  " selfish": 2307,
  " stranger": 2308,
  " soup": 2309,
  " Mark": 2310,
  " carried": 2311,
  " wonderful": 2312,
  "elp": 2313,
  " relie": 2314,
  " Whiskers": 2315,
  " nearby": 2316,
  "iff": 2317,
  " With": 2318,
  " trumpet": 2319,
  "iting": 2320,
  " missed": 2321,
  " sol": 2322,
  "ular": 2323,
  " hang": 2324,
  " cheer": 2325,
  "pect": 2326,
  " anyone": 2327,
  " nerv": 2328,
  " nervous": 2329,
  " drop": 2330,
  " true": 2331,
  " dist": 2332,
  " record": 2333,
  " penc": 2334,
  " pencil": 2335,
  " ber": 2336,
  " berries": 2337,
  " Chirp": 2338,
  "?â": 2339,
  "ced": 2340,
  "br": 2341,
  " barked": 2342,
  "cks": 2343,
  " towards": 2344,
  " Don": 2345,
  " ent": 2346,
  " '": 2347,
  "Later": 2348,
  " spray": 2349,
  " guit": 2350,
  " guitar": 2351,
  " suc": 2352,
  " such": 2353,
  " arms": 2354,
  " skull": 2355,
  "llo": 2356,
  " goes": 2357,
  " birthday": 2358,
  " cookie": 2359,
  "izzy": 2360,
  " interesting": 2361,
  " val": 2362,
  " screamed": 2363,
  " busy": 2364,
  "irr": 2365,
  " cr": 2366,
  " hum": 2367,
  "unk": 2368,
  " thin": 2369,
  " An": 2370,
  " pract": 2371,
  "alk": 2372,
  " pocket": 2373,
  " decor": 2374,
  " matter": 2375,
  " Sometimes": 2376,
  " pin": 2377,
  " songs": 2378,
  " ter": 2379,
  " taste": 2380,
  "Help": 2381,
  " gives": 2382,
  " neck": 2383,
  " father": 2384,
  " coll": 2385,
  " elder": 2386,
  " elderly": 2387,
  "oof": 2388,
  " nothing": 2389,
  " feet": 2390,
  " spe": 2391,
  " Why": 2392,
  " On": 2393,
  " corner": 2394,
  " mark": 2395,
  " ser": 2396,
  " building": 2397,
  " life": 2398,
  " gold": 2399,
  " motor": 2400,
  " change": 2401,
  " working": 2402,
  " longer": 2403,
  " Together": 2404,
  " sheep": 2405,
  " feed": 2406,
  " wis": 2407,
  " lay": 2408,
  " destro": 2409,
  " destroy": 2410,
  " wip": 2411,
  " fil": 2412,
  " eras": 2413,
  " fake": 2414,
  " cri": 2415,
  " string": 2416,
  " gem": 2417,
  " beak": 2418,
  " tie": 2419,
  " Mimi": 2420,
  " bossy": 2421,
  "uts": 2422,
  " pizza": 2423,
  " passport": 2424,
  " mov": 2425,
  " arrived": 2426,
  "irit": 2427,
  " imag": 2428,
  " sail": 2429,
  " tag": 2430,
  " person": 2431,
  " touc": 2432,
  " terri": 2433,
  " chased": 2434,
  " forgive": 2435,
  " stepped": 2436,
  "Stop": 2437,
  " tomor": 2438,
  " tomorrow": 2439,
  " ash": 2440,
  " march": 2441,
  " supp": 2442,
  " explain": 2443,
  "Jack": 2444,
  "ors": 2445,
  " rich": 2446,
  " splas": 2447,
  " wrap": 2448,
  "ten": 2449,
  " ladder": 2450,
  " choc": 2451,
  " chocol": 2452,
  " chocolate": 2453,
  " stri": 2454,
  " wore": 2455,
  " appeared": 2456,
  " Sh": 2457,
  " Fred": 2458,
  " clock": 2459,
  " circle": 2460,
  "urned": 2461,
  " bicy": 2462,
  " sauce": 2463,
  " coin": 2464,
  " yoga": 2465,
  " Jerry": 2466,
  " swamp": 2467,
  " hur": 2468,
  " easy": 2469,
  " Be": 2470,
  " touched": 2471,
  "Dad": 2472,
  "eth": 2473,
  " sticks": 2474,
  " loves": 2475,
  " card": 2476,
  " explor": 2477,
  " foot": 2478,
  " Just": 2479,
  "Who": 2480,
  " wasn": 2481,
  " fear": 2482,
  "ually": 2483,
  " splash": 2484,
  "amed": 2485,
  " war": 2486,
  "Molly": 2487,
  " dull": 2488,
  " fence": 2489,
  " act": 2490,
  " piano": 2491,
  " ret": 2492,
  " If": 2493,
  " drive": 2494,
  " cleaned": 2495,
  " slowly": 2496,
  " Go": 2497,
  "ery": 2498,
  " line": 2499,
  " balls": 2500,
  " No": 2501,
  " boun": 2502,
  " zip": 2503,
  " bitter": 2504,
  " shoe": 2505,
  " police": 2506,
  " band": 2507,
  " net": 2508,
  "Kitty": 2509,
  " bicycle": 2510,
  " Tiny": 2511,
  " club": 2512,
  " comet": 2513,
  " Kim": 2514,
  " vase": 2515,
  " ot": 2516,
  " otter": 2517,
  " spirit": 2518,
  " pow": 2519,
  " reg": 2520,
  " pack": 2521,
  " relieved": 2522,
  " treats": 2523,
  " peaceful": 2524,
  "gy": 2525,
  " prot": 2526,
  " wheat": 2527,
  " powerful": 2528,
  "wor": 2529,
  " chick": 2530,
  " chicken": 2531,
  " note": 2532,
  " flag": 2533,
  " incred": 2534,
  "My": 2535,
  " mod": 2536,
  " law": 2537,
  " hidd": 2538,
  " hidden": 2539,
  " watching": 2540,
  " trust": 2541,
  "urse": 2542,
  " wing": 2543,
  " hello": 2544,
  " pun": 2545,
  "essie": 2546,
  " add": 2547,
  " sandw": 2548,
  " hears": 2549,
  " along": 2550,
  " creature": 2551,
  " teac": 2552,
  " uncle": 2553,
  "Come": 2554,
  " vegetables": 2555,
  " backy": 2556,
  " backyard": 2557,
  " painted": 2558,
  " vi": 2559,
  " af": 2560,
  " terrible": 2561,
  " wearing": 2562,
  " wave": 2563,
  " alm": 2564,
  " almost": 2565,
  " wild": 2566,
  " ce": 2567,
  " guil": 2568,
  " guilty": 2569,
  " adventures": 2570,
  " dig": 2571,
  " spo": 2572,
  "ee": 2573,
  " point": 2574,
  " bored": 2575,
  " hairy": 2576,
  " knee": 2577,
  " incredible": 2578,
  "ney": 2579,
  " jeal": 2580,
  " jealous": 2581,
  " neighbor": 2582,
  " scr": 2583,
  "ffle": 2584,
  " plac": 2585,
  " trouble": 2586,
  " scatter": 2587,
  " respect": 2588,
  " Jenny": 2589,
  " pepper": 2590,
  "up": 2591,
  " pretended": 2592,
  " mush": 2593,
  " prince": 2594,
  "oby": 2595,
  " cage": 2596,
  " sque": 2597,
  " rh": 2598,
  " stret": 2599,
  " Polly": 2600,
  " wide": 2601,
  " pill": 2602,
  " Bunny": 2603,
  " Bu": 2604,
  " shake": 2605,
  "Sure": 2606,
  " hon": 2607,
  "ying": 2608,
  " asking": 2609,
  " myster": 2610,
  " wash": 2611,
  " crayons": 2612,
  " half": 2613,
  "Tommy": 2614,
  " lovely": 2615,
  " banana": 2616,
  "ment": 2617,
  "sp": 2618,
  " St": 2619,
  " pop": 2620,
  " Come": 2621,
  "To": 2622,
  " cries": 2623,
  " spr": 2624,
  " TV": 2625,
  " rub": 2626,
  "Joe": 2627,
  "ness": 2628,
  " ignor": 2629,
  " stuff": 2630,
  " sour": 2631,
  " rare": 2632,
  " saved": 2633,
  "idge": 2634,
  " teacher": 2635,
  " brocc": 2636,
  " broccol": 2637,
  " broccoli": 2638,
  "Mum": 2639,
  " viol": 2640,
  " violin": 2641,
  "eros": 2642,
  " boot": 2643,
  " clever": 2644,
  " boring": 2645,
  " sword": 2646,
  " chalk": 2647,
  " marble": 2648,
  " sunf": 2649,
  "ado": 2650,
  " afra": 2651,
  " afraid": 2652,
  " powder": 2653,
  " teeth": 2654,
  " eag": 2655,
  " breath": 2656,
  " bal": 2657,
  " Some": 2658,
  " Tr": 2659,
  " Their": 2660,
  " Many": 2661,
  " measure": 2662,
  "mer": 2663,
  " adm": 2664,
  "urch": 2665,
  "ever": 2666,
  " class": 2667,
  " finish": 2668,
  " radi": 2669,
  " radio": 2670,
  " ind": 2671,
  " weak": 2672,
  " seeds": 2673,
  " Ru": 2674,
  " dug": 2675,
  " spoon": 2676,
  " careless": 2677,
  " yogurt": 2678,
  " mushroom": 2679,
  " escape": 2680,
  " thankful": 2681,
  " lamp": 2682,
  " Grandma": 2683,
  "airs": 2684,
  " stream": 2685,
  " umb": 2686,
  " umbre": 2687,
  " crab": 2688,
  " nuts": 2689,
  " Chirpy": 2690,
  "arl": 2691,
  " movie": 2692,
  " kiss": 2693,
  " finding": 2694,
  " lar": 2695,
  " large": 2696,
  " tele": 2697,
  " shoot": 2698,
  " young": 2699,
  " eager": 2700,
  " jumping": 2701,
  " deliver": 2702,
  " grate": 2703,
  " stood": 2704,
  "oose": 2705,
  " legs": 2706,
  " slipped": 2707,
  " protect": 2708,
  " decide": 2709,
  "pid": 2710,
  " ashamed": 2711,
  "ult": 2712,
  "How": 2713,
  " scare": 2714,
  " church": 2715,
  " bott": 2716,
  " mailbox": 2717,
  " wouldn": 2718,
  "iant": 2719,
  " picks": 2720,
  " seek": 2721,
  " magn": 2722,
  " sick": 2723,
  " fing": 2724,
  " rise": 2725,
  " rose": 2726,
  " kick": 2727,
  " gear": 2728,
  " mirr": 2729,
  " mirror": 2730,
  " stir": 2731,
  " cel": 2732,
  " celery": 2733,
  " group": 2734,
  " cats": 2735,
  " pan": 2736,
  " moon": 2737,
  " spread": 2738,
  "andy": 2739,
  " crazy": 2740,
  " maybe": 2741,
  " tied": 2742,
  " crib": 2743,
  " bubble": 2744,
  " gen": 2745,
  " umbrella": 2746,
  " rhin": 2747,
  " rhinoc": 2748,
  " rhinoceros": 2749,
  "ulu": 2750,
  " sold": 2751,
  " pillow": 2752,
  " Ann": 2753,
  " motorcy": 2754,
  " motorcycle": 2755,
  " cryst": 2756,
  " crystal": 2757,
  " Buzz": 2758,
  "ipp": 2759,
  " firewor": 2760,
  " allig": 2761,
  " alligator": 2762,
  "iger": 2763,
  " later": 2764,
  " batter": 2765,
  "ek": 2766,
  " fig": 2767,
  " polite": 2768,
  " mint": 2769,
  " post": 2770,
  " exploring": 2771,
  " fool": 2772,
  " grateful": 2773,
  "orry": 2774,
  " moving": 2775,
  " pir": 2776,
  " clum": 2777,
  " clumsy": 2778,
  " stupid": 2779,
  "ventually": 2780,
  " mill": 2781,
  " flame": 2782,
  "ian": 2783,
  " lab": 2784,
  " gather": 2785,
  " restless": 2786,
  " lose": 2787,
  " How": 2788,
  " step": 2789,
  " intell": 2790,
  " intellig": 2791,
  " intelligent": 2792,
  " Jim": 2793,
  "ssed": 2794,
  " lip": 2795,
  " zeb": 2796,
  " zebra": 2797,
  " gray": 2798,
  " phot": 2799,
  " organ": 2800,
  " seemed": 2801,
  " pres": 2802,
  " nation": 2803,
  " witch": 2804,
  " couch": 2805,
  " places": 2806,
  " splashed": 2807,
  " dizzy": 2808,
  " steak": 2809,
  " eraser": 2810,
  " moms": 2811,
  " taught": 2812,
  " rocket": 2813,
  " success": 2814,
  "imp": 2815,
  " save": 2816,
  " glow": 2817,
  " mixer": 2818,
  " Sn": 2819,
  "par": 2820,
  " mama": 2821,
  " grapes": 2822,
  " shrink": 2823,
  " emb": 2824,
  " embar": 2825,
  " embarra": 2826,
  " Jake": 2827,
  "osaur": 2828,
  "iv": 2829,
  " rid": 2830,
  " guard": 2831,
  " N": 2832,
  " mistake": 2833,
  " balance": 2834,
  " ang": 2835,
  "els": 2836,
  " coat": 2837,
  " cliff": 2838,
  " gun": 2839,
  " unl": 2840,
  "ual": 2841,
  " famous": 2842,
  " search": 2843,
  " yarn": 2844,
  " bottom": 2845,
  " brill": 2846,
  " brilliant": 2847,
  "ses": 2848,
  " jolly": 2849,
  " waffle": 2850,
  " grandpa": 2851,
  " delicate": 2852,
  " pour": 2853,
  " spotted": 2854,
  " cross": 2855,
  "fortable": 2856,
  " film": 2857,
  "lves": 2858,
  " compass": 2859,
  " compassion": 2860,
  " plants": 2861,
  " independ": 2862,
  " independent": 2863,
  " fancy": 2864,
  " cheerful": 2865,
  " healthy": 2866,
  " separ": 2867,
  " gloom": 2868,
  " gloomy": 2869,
  " grape": 2870,
  " Pe": 2871,
  " mop": 2872,
  " Dan": 2873,
  "usie": 2874,
  " Daddy": 2875,
  " loop": 2876,
  " 3": 2877,
  " Luna": 2878,
  " coins": 2879,
  " bookc": 2880,
  " bookcase": 2881,
  " Dolly": 2882,
  "raw": 2883,
  "iable": 2884,
  " Ollie": 2885,
  " battery": 2886,
  "aze": 2887,
  " fier": 2888,
  " fierce": 2889,
  " gigg": 2890,
  "anged": 2891,
  " kissed": 2892,
  " letter": 2893,
  " foolish": 2894,
  " honest": 2895,
  "old": 2896,
  " smaller": 2897,
  " hopping": 2898,
  " sandbox": 2899,
  " split": 2900,
  " Penny": 2901,
  " brothers": 2902,
  " shelf": 2903,
  " disco": 2904,
  " char": 2905,
  " drank": 2906,
  " Zoom": 2907,
  " exciting": 2908,
  " kic": 2909,
  " kicked": 2910,
  " cheap": 2911,
  " cam": 2912,
  " camera": 2913,
  " solve": 2914,
  "Here": 2915,
  " present": 2916,
  " comb": 2917,
  " horn": 2918,
  " feathers": 2919,
  " compassionate": 2920,
  " bedroom": 2921,
  " lift": 2922,
  " meant": 2923,
  " useful": 2924,
  " guess": 2925,
  " zoo": 2926,
  " sort": 2927,
  "rag": 2928,
  " sil": 2929,
  "umbled": 2930,
  " orig": 2931,
  " origin": 2932,
  " original": 2933,
  "ato": 2934,
  " jell": 2935,
  " jelly": 2936,
  " gets": 2937,
  " vine": 2938,
  " alert": 2939,
  " glove": 2940,
  " understood": 2941,
  "Billy": 2942,
  " pressed": 2943,
  " mighty": 2944,
  " tid": 2945,
  " drum": 2946,
  " wolf": 2947,
  " regular": 2948,
  " lumber": 2949,
  " spring": 2950,
  " embarrassed": 2951,
  " juicy": 2952,
  "ask": 2953,
  " whale": 2954,
  " meal": 2955,
  " Jill": 2956,
  " dough": 2957,
  "rawber": 2958,
  " avoc": 2959,
  " sunflower": 2960,
  " reliable": 2961,
  " decorate": 2962,
  " figure": 2963,
  " changed": 2964,
  "ages": 2965,
  " lives": 2966,
  " oce": 2967,
  " ocean": 2968,
  " My": 2969,
  " boats": 2970,
  " norm": 2971,
  " normal": 2972,
  "ates": 2973,
  " mysterious": 2974,
  " mat": 2975,
  " smoke": 2976,
  " wrapped": 2977,
  " rat": 2978,
  " itch": 2979,
  " mis": 2980,
  " miser": 2981,
  " miserable": 2982,
  " wake": 2983,
  " magnet": 2984,
  " behave": 2985,
  " enorm": 2986,
  " enormous": 2987,
  " unus": 2988,
  " unusual": 2989,
  " oil": 2990,
  " Alex": 2991,
  "selves": 2992,
  " clear": 2993,
  " thu": 2994,
  " aunt": 2995,
  " giraf": 2996,
  " giraffe": 2997,
  " mel": 2998,
  " itself": 2999,
  " rough": 3000,
  " separate": 3001,
  "hip": 3002,
  "ena": 3003,
  " Jazz": 3004,
  " load": 3005,
  " Lulu": 3006,
  " cozy": 3007,
  " noisy": 3008,
  " harder": 3009,
  " pup": 3010,
  " dreamed": 3011,
  " whist": 3012,
  " dinosaur": 3013,
  " barber": 3014,
  " worm": 3015,
  " blackboard": 3016,
  " weap": 3017,
  " weapon": 3018,
  " ruined": 3019,
  " ring": 3020,
  " maze": 3021,
  " poked": 3022,
  " nods": 3023,
  " log": 3024,
  "Sorry": 3025,
  " fine": 3026,
  " persist": 3027,
  " persistent": 3028,
  "ned": 3029,
  " coo": 3030,
  " cows": 3031,
  " pri": 3032,
  " isl": 3033,
  " island": 3034,
  " bull": 3035,
  " excite": 3036,
  " journey": 3037,
  " poor": 3038,
  " relax": 3039,
  " lock": 3040,
  " drawing": 3041,
  " tells": 3042,
  " Benny": 3043,
  " branches": 3044,
  " exam": 3045,
  " value": 3046,
  " tasted": 3047,
  " covered": 3048,
  " Bessie": 3049,
  "ipper": 3050,
  " cell": 3051,
  " sock": 3052,
  " switch": 3053,
  "Me": 3054,
  " uni": 3055,
  " unique": 3056,
  " nurse": 3057,
  " helm": 3058,
  " helmet": 3059,
  " minut": 3060,
  " minutes": 3061,
  "iness": 3062,
  " roof": 3063,
  " sandwich": 3064,
  " impress": 3065,
  "iron": 3066,
  " though": 3067,
  " flex": 3068,
  " flexible": 3069,
  " lively": 3070,
  " thoughtful": 3071,
  " sandc": 3072,
  " cater": 3073,
  " caterp": 3074,
  " caterpill": 3075,
  " caterpillar": 3076,
  " stronger": 3077,
  "ete": 3078,
  " skin": 3079,
  " meat": 3080,
  " fest": 3081,
  " cherries": 3082,
  " stack": 3083,
  " cab": 3084,
  " cabin": 3085,
  "arm": 3086,
  " temp": 3087,
  " Peter": 3088,
  " photo": 3089,
  " avocado": 3090,
  " depend": 3091,
  " dependable": 3092,
  " furry": 3093,
  " pale": 3094,
  "Their": 3095,
  " send": 3096,
  "ball": 3097,
  " lying": 3098,
  " forth": 3099,
  " speak": 3100,
  "ict": 3101,
  "uring": 3102,
  " pay": 3103,
  " joined": 3104,
  " hous": 3105,
  " houses": 3106,
  " libr": 3107,
  " unk": 3108,
  " unkn": 3109,
  " unknown": 3110,
  " ham": 3111,
  " appl": 3112,
  "ume": 3113,
  " U": 3114,
  " rode": 3115,
  " pole": 3116,
  "angle": 3117,
  " invited": 3118,
  " notice": 3119,
  " taken": 3120,
  " lazy": 3121,
  " cane": 3122,
  " thirst": 3123,
  " spinning": 3124,
  " charming": 3125,
  "com": 3126,
  "inky": 3127,
  "If": 3128,
  "ours": 3129,
  "king": 3130,
  " dust": 3131,
  " thunder": 3132,
  " happiness": 3133,
  "ote": 3134,
  "ustr": 3135,
  "ustrated": 3136,
  " manag": 3137,
  " Cat": 3138,
  "esday": 3139,
  " stumbled": 3140,
  " distant": 3141,
  " bridge": 3142,
  " bump": 3143,
  " ignorant": 3144,
  " mule": 3145,
  " borrow": 3146,
  " Mum": 3147,
  " friendship": 3148,
  " tidy": 3149,
  " Susie": 3150,
  " emp": 3151,
  " empty": 3152,
  " sandca": 3153,
  " sandcastle": 3154,
  " parrot": 3155,
  " stretch": 3156,
  "omes": 3157,
  " weep": 3158,
  " towel": 3159,
  " cact": 3160,
  " soap": 3161,
  " festiv": 3162,
  " festival": 3163,
  " team": 3164,
  " bees": 3165,
  " alarm": 3166,
  " raced": 3167,
  " craw": 3168,
  " boys": 3169,
  " opens": 3170,
  " patch": 3171,
  " spill": 3172,
  "shine": 3173,
  " disg": 3174,
  " disgust": 3175,
  " quar": 3176,
  " quarrel": 3177,
  " jung": 3178,
  " jungle": 3179,
  "weet": 3180,
  " enjoying": 3181,
  " cooked": 3182,
  " design": 3183,
  " leather": 3184,
  " library": 3185,
  " lead": 3186,
  " needs": 3187,
  "ident": 3188,
  " applau": 3189,
  " applaud": 3190,
  " folder": 3191,
  " gar": 3192,
  " gate": 3193,
  " fountain": 3194,
  " fron": 3195,
  " front": 3196,
  " ink": 3197,
  "Fluffy": 3198,
  " shape": 3199,
  " oats": 3200,
  " thirsty": 3201,
  " lit": 3202,
  " shark": 3203,
  " helpless": 3204,
  " mind": 3205,
  " mixed": 3206,
  " Mary": 3207,
  " pedal": 3208,
  " frustrated": 3209,
  " ending": 3210,
  " playful": 3211,
  " iron": 3212,
  " attract": 3213,
  " attractive": 3214,
  " whis": 3215,
  " whisp": 3216,
  " gener": 3217,
  " generous": 3218,
  " yourself": 3219,
  " brace": 3220,
  " bracelet": 3221,
  " sell": 3222,
  " coco": 3223,
  " cocoa": 3224,
  "Sarah": 3225,
  " lem": 3226,
  " lemon": 3227,
  " homes": 3228,
  " Pete": 3229,
  " names": 3230,
  " lotion": 3231,
  " explained": 3232,
  "Mummy": 3233,
  " cactus": 3234,
  " chest": 3235,
  " ants": 3236,
  " creatures": 3237,
  " seat": 3238,
  " radish": 3239,
  " melon": 3240,
  " raven": 3241,
  "Daisy": 3242,
  " temple": 3243,
  " Snow": 3244,
  " Snowman": 3245,
  "And": 3246,
  " lean": 3247,
  " remind": 3248,
  " sailed": 3249,
  " rep": 3250,
  " bald": 3251,
  " Today": 3252,
  " sport": 3253,
  "Every": 3254,
  " hero": 3255,
  " True": 3256,
  " agree": 3257,
  " times": 3258,
  " sunshine": 3259,
  " disgusting": 3260,
  " meadow": 3261,
  " drain": 3262,
  " diff": 3263,
  " diffic": 3264,
  " difficult": 3265,
  " market": 3266,
  " squash": 3267,
  " discover": 3268,
  "light": 3269,
  " cost": 3270,
  " become": 3271,
  " order": 3272,
  " fearful": 3273,
  "ippy": 3274,
  " shine": 3275,
  " carrots": 3276,
  " soar": 3277,
  " hosp": 3278,
  " hospit": 3279,
  " hospital": 3280,
  "Where": 3281,
  " angel": 3282,
  " ok": 3283,
  " mountain": 3284,
  " stud": 3285,
  " mummy": 3286,
  " smiling": 3287,
  " rice": 3288,
  " tears": 3289,
  " joke": 3290,
  " sta": 3291,
  " staff": 3292,
  " added": 3293,
  "fted": 3294,
  " bat": 3295,
  " earth": 3296,
  "Jane": 3297,
  " wrote": 3298,
  " happening": 3299,
  " lights": 3300,
  " cap": 3301,
  " saf": 3302,
  " bounce": 3303,
  " princess": 3304,
  " circ": 3305,
  " enth": 3306,
  " enthus": 3307,
  " enthusia": 3308,
  " enthusiast": 3309,
  " enthusiastic": 3310,
  " four": 3311,
  "pack": 3312,
  " study": 3313,
  "gu": 3314,
  " van": 3315,
  " asleep": 3316,
  " soldier": 3317,
  " painting": 3318,
  " balloons": 3319,
  " ax": 3320,
  " axe": 3321,
  "ime": 3322,
  "live": 3323,
  " gh": 3324,
  " ghost": 3325,
  " standing": 3326,
  " wagon": 3327,
  " cop": 3328,
  " wander": 3329,
  " hook": 3330,
  " cabinet": 3331,
  "play": 3332,
  " deaf": 3333,
  "ighed": 3334,
  " telev": 3335,
  " televis": 3336,
  " television": 3337,
  "unn": 3338,
  " fresh": 3339,
  " fright": 3340,
  " knock": 3341,
  " perform": 3342,
  "cing": 3343,
  "ward": 3344,
  " collar": 3345,
  " lands": 3346,
  " hedge": 3347,
  " melt": 3348,
  " body": 3349,
  " falls": 3350,
  " spoke": 3351,
  " unlock": 3352,
  " create": 3353,
  "appy": 3354,
  " yours": 3355,
  " cleaning": 3356,
  " pirate": 3357,
  " acc": 3358,
  " accident": 3359,
  " licked": 3360,
  " modest": 3361,
  " sciss": 3362,
  " scissors": 3363,
  " planet": 3364,
  " ceiling": 3365,
  " showing": 3366,
  " finger": 3367,
  " quit": 3368,
  " ones": 3369,
  " elev": 3370,
  " elevator": 3371,
  " spun": 3372,
  " que": 3373,
  " queen": 3374,
  " Tweet": 3375,
  " buil": 3376,
  " built": 3377,
  " Rob": 3378,
  "ze": 3379,
  " kindness": 3380,
  " drawings": 3381,
  " snacks": 3382,
  " \n": 3383,
  " med": 3384,
  " env": 3385,
  " sug": 3386,
  " sugar": 3387,
  " wiped": 3388,
  " reading": 3389,
  " frag": 3390,
  " fragile": 3391,
  " managed": 3392,
  " belonged": 3393,
  " successful": 3394,
  "Well": 3395,
  " hurts": 3396,
  " float": 3397,
  " five": 3398,
  " cart": 3399,
  " nail": 3400,
  "aw": 3401,
  " pray": 3402,
  " squeeze": 3403,
  " desk": 3404,
  "ib": 3405,
  " cast": 3406,
  " test": 3407,
  " size": 3408,
  " aut": 3409,
  " autom": 3410,
  " automob": 3411,
  " automobile": 3412,
  "ither": 3413,
  " anc": 3414,
  " ancient": 3415,
  " frame": 3416,
  " Grandpa": 3417,
  " anch": 3418,
  " anchor": 3419,
  "fa": 3420,
  " practice": 3421,
  " returned": 3422,
  "Lisa": 3423,
  " scale": 3424,
  " fog": 3425,
  " Carl": 3426,
  " makeup": 3427,
  " patter": 3428,
  " pattern": 3429,
  " univer": 3430,
  " triangle": 3431,
  " vend": 3432,
  " veil": 3433,
  " vol": 3434,
  " bathroom": 3435,
  " fauc": 3436,
  " faucet": 3437,
  " fold": 3438,
  " strawber": 3439,
  " Shadow": 3440,
  " display": 3441,
  " tiger": 3442,
  " knowing": 3443,
  " bushes": 3444,
  " toug": 3445,
  " tough": 3446,
  " frightened": 3447,
  " sur": 3448,
  " telling": 3449,
  " chub": 3450,
  " chubby": 3451,
  "ped": 3452,
  "ones": 3453,
  " starts": 3454,
  " ed": 3455,
  " perm": 3456,
  " eventually": 3457,
  " stubb": 3458,
  " stubborn": 3459,
  " tick": 3460,
  " hose": 3461,
  " pigs": 3462,
  " label": 3463,
  " holes": 3464,
  " sighed": 3465,
  "head": 3466,
  " excitement": 3467,
  " daught": 3468,
  " daughter": 3469,
  " sneeze": 3470,
  "ezed": 3471,
  " fruits": 3472,
  " scre": 3473,
  " impatient": 3474,
  " blow": 3475,
  " saying": 3476,
  "leas": 3477,
  "Grand": 3478,
  " harsh": 3479,
  " punish": 3480,
  " trash": 3481,
  "inted": 3482,
  " shocked": 3483,
  " nicely": 3484,
  " sink": 3485,
  " Even": 3486,
  " laughs": 3487,
  " stops": 3488,
  " themselves": 3489,
  " envious": 3490,
  " lifted": 3491,
  " jew": 3492,
  " amb": 3493,
  " low": 3494,
  " wishes": 3495,
  " circles": 3496,
  "ground": 3497,
  " fluffy": 3498,
  " coal": 3499,
  " human": 3500,
  " sweetie": 3501,
  "ife": 3502,
  "owed": 3503,
  " tent": 3504,
  " pengu": 3505,
  " penguin": 3506,
  " Pepper": 3507,
  " trap": 3508,
  " wool": 3509,
  " player": 3510,
  "See": 3511,
  " washed": 3512,
  " sle": 3513,
  " slept": 3514,
  "oppy": 3515,
  " men": 3516,
  " menu": 3517,
  " tor": 3518,
  " torn": 3519,
  " shut": 3520,
  "Together": 3521,
  " city": 3522,
  " print": 3523,
  " journ": 3524,
  " journal": 3525,
  " Rina": 3526,
  " ranch": 3527,
  " cherry": 3528,
  " trade": 3529,
  " dove": 3530,
  " potato": 3531,
  " cro": 3532,
  "ikes": 3533,
  " Bill": 3534,
  " clay": 3535,
  " crack": 3536,
  "nam": 3537,
  " shrimp": 3538,
  " brick": 3539,
  " helic": 3540,
  " helicop": 3541,
  " helicopter": 3542,
  " helps": 3543,
  "ext": 3544,
  " spent": 3545,
  " which": 3546,
  " riding": 3547,
  " Teddy": 3548,
  " stom": 3549,
  " sung": 3550,
  " sungl": 3551,
  " sunglass": 3552,
  " sunglasses": 3553,
  " knows": 3554,
  "ory": 3555,
  " camp": 3556,
  "dle": 3557,
  " kinds": 3558,
  " col": 3559,
  " belongs": 3560,
  " hammer": 3561,
  " garage": 3562,
  " Give": 3563,
  "inary": 3564,
  "By": 3565,
  " these": 3566,
  " screen": 3567,
  " scratch": 3568,
  " eggs": 3569,
  " hotel": 3570,
  " organized": 3571,
  " metal": 3572,
  " obed": 3573,
  " obedient": 3574,
  " marry": 3575,
  " moves": 3576,
  " answered": 3577,
  "Timmy": 3578,
  " swe": 3579,
  " pear": 3580,
  " Your": 3581,
  " towers": 3582,
  " walls": 3583,
  " bet": 3584,
  " chase": 3585,
  " judge": 3586,
  " junk": 3587,
  " frown": 3588,
  " barks": 3589,
  " drops": 3590,
  "ging": 3591,
  "ilot": 3592,
  " ap": 3593,
  " harm": 3594,
  " harmless": 3595,
  " Liz": 3596,
  " beep": 3597,
  " station": 3598,
  "There": 3599,
  " tuna": 3600,
  " castles": 3601,
  " burned": 3602,
  " Ellie": 3603,
  " tu": 3604,
  " tube": 3605,
  "und": 3606,
  " arrow": 3607,
  " fat": 3608,
  " Miss": 3609,
  " stripes": 3610,
  "asks": 3611,
  "ope": 3612,
  " jumps": 3613,
  " pasta": 3614,
  " missile": 3615,
  " asht": 3616,
  " ashtray": 3617,
  " Andy": 3618,
  " package": 3619,
  " navy": 3620,
  " mass": 3621,
  "oco": 3622,
  "oggy": 3623,
  " flash": 3624,
  " volc": 3625,
  " volcano": 3626,
  " keys": 3627,
  " chain": 3628,
  " lawy": 3629,
  " lawyer": 3630,
  "ik": 3631,
  " opera": 3632,
  " Emily": 3633,
  " marbles": 3634,
  " Mop": 3635,
  " hurry": 3636,
  " weird": 3637,
  " spear": 3638,
  " licks": 3639,
  " using": 3640,
  " mistakes": 3641,
  "bled": 3642,
  " forward": 3643,
  " edge": 3644,
  " recog": 3645,
  " recogn": 3646,
  " growing": 3647,
  " closet": 3648,
  " shows": 3649,
  " holds": 3650,
  " grabs": 3651,
  " ord": 3652,
  " ordinary": 3653,
  "Bye": 3654,
  " pro": 3655,
  " week": 3656,
  " punished": 3657,
  " trucks": 3658,
  "oph": 3659,
  "rage": 3660,
  "ience": 3661,
  " cups": 3662,
  " stat": 3663,
  " statue": 3664,
  " disappo": 3665,
  " disappointed": 3666,
  " doors": 3667,
  " While": 3668,
  " biggest": 3669,
  " pat": 3670,
  " prize": 3671,
  " hours": 3672,
  " enc": 3673,
  " questions": 3674,
  " sight": 3675,
  " humble": 3676,
  "arry": 3677,
  " ribb": 3678,
  " ribbon": 3679,
  " ambul": 3680,
  " ambulance": 3681,
  " sleeping": 3682,
  " slip": 3683,
  " Zara": 3684,
  " once": 3685,
  " firepl": 3686,
  " fireplace": 3687,
  " stairs": 3688,
  " bubbles": 3689,
  " jazz": 3690,
  " pushes": 3691,
  " steal": 3692,
  "ens": 3693,
  " raise": 3694,
  " weeping": 3695,
  "Jim": 3696,
  " shoulder": 3697,
  " muse": 3698,
  " museum": 3699,
  " dear": 3700,
  " pages": 3701,
  " imagine": 3702,
  " yield": 3703,
  " sofa": 3704,
  " grace": 3705,
  " restaur": 3706,
  " restaurant": 3707,
  " clapping": 3708,
  " pretending": 3709,
  " teas": 3710,
  " tire": 3711,
  "ait": 3712,
  " croco": 3713,
  " crocod": 3714,
  " crocodile": 3715,
  " vendor": 3716,
  " mall": 3717,
  " mild": 3718,
  " stage": 3719,
  " caul": 3720,
  " caulif": 3721,
  " cauliflower": 3722,
  " ornam": 3723,
  " ornament": 3724,
  " ig": 3725,
  " igl": 3726,
  " igloo": 3727,
  " firework": 3728,
  " cale": 3729,
  " calend": 3730,
  " calendar": 3731,
  " goose": 3732,
  " ways": 3733,
  " sugg": 3734,
  " wags": 3735,
  " roared": 3736,
  " pump": 3737,
  "kin": 3738,
  " learning": 3739,
  "ugged": 3740,
  " carrying": 3741,
  " hung": 3742,
  " led": 3743,
  " shovel": 3744,
  " picn": 3745,
  " picnic": 3746,
  "shed": 3747,
  " anyway": 3748,
  " meas": 3749,
  " chickens": 3750,
  " gathered": 3751,
  " mid": 3752,
  " middle": 3753,
  " aw": 3754,
  " ins": 3755,
  " boxes": 3756,
  " number": 3757,
  " ahead": 3758,
  " passed": 3759,
  " wealthy": 3760,
  " jail": 3761,
  "Inside": 3762,
  " trick": 3763,
  " means": 3764,
  " ext": 3765,
  " extra": 3766,
  " return": 3767,
  " hanger": 3768,
  " Tina": 3769,
  " leash": 3770,
  "aches": 3771,
  " compet": 3772,
  " competit": 3773,
  " settle": 3774,
  " sweater": 3775,
  " uncom": 3776,
  " uncomfortable": 3777,
  " jokes": 3778,
  " offered": 3779,
  "ailable": 3780,
  " numb": 3781,
  " vie": 3782,
  " view": 3783,
  " sunset": 3784,
  " medic": 3785,
  " medicine": 3786,
  ",â": 3787,
  " ref": 3788,
  "ured": 3789,
  " Harry": 3790,
  "eterm": 3791,
  "etermined": 3792,
  " papers": 3793,
  " doesn": 3794,
  " serve": 3795,
  "ions": 3796,
  " Wed": 3797,
  " Wedn": 3798,
  " Wednesday": 3799,
  "Did": 3800,
  "ipping": 3801,
  " rabbits": 3802,
  " chose": 3803,
  " popped": 3804,
  "stairs": 3805,
  " tease": 3806,
  " bury": 3807,
  " cooking": 3808,
  "aking": 3809,
  "ately": 3810,
  " expens": 3811,
  " expensive": 3812,
  " impressive": 3813,
  " model": 3814,
  "Little": 3815,
  " disappeared": 3816,
  " cards": 3817,
  " Poppy": 3818,
  " crown": 3819,
  " arg": 3820,
  "low": 3821,
  " task": 3822,
  " practiced": 3823,
  " nosy": 3824,
  "ky": 3825,
  " ador": 3826,
  " bookshe": 3827,
  " bookshelf": 3828,
  " rug": 3829,
  " wink": 3830,
  " whistle": 3831,
  " hol": 3832,
  " holid": 3833,
  " holiday": 3834,
  " pebble": 3835,
  " silver": 3836,
  "arian": 3837,
  " sheet": 3838,
  " dict": 3839,
  " diction": 3840,
  " dictionary": 3841,
  " respectful": 3842,
  " bul": 3843,
  " bulb": 3844,
  "ctory": 3845,
  " Coco": 3846,
  " flashlight": 3847,
  "igz": 3848,
  "igzag": 3849,
  " Rich": 3850,
  " glitter": 3851,
  " Toby": 3852,
  " armch": 3853,
  " armchair": 3854,
  " fro": 3855,
  "ippo": 3856,
  " hurri": 3857,
  " hurric": 3858,
  " hurricane": 3859,
  "Vel": 3860,
  "Velv": 3861,
  "Velvet": 3862,
  " Bow": 3863,
  "ination": 3864,
  " shade": 3865,
  " office": 3866,
  " letters": 3867,
  " â": 3868,
  " those": 3869,
  " breat": 3870,
  " cele": 3871,
  " celebr": 3872,
  " swung": 3873,
  " son": 3874,
  " breaks": 3875,
  " alread": 3876,
  " already": 3877,
  "hew": 3878,
  "lies": 3879,
  " trut": 3880,
  " truth": 3881,
  " musician": 3882,
  " moder": 3883,
  " modern": 3884,
  "isted": 3885,
  " picking": 3886,
  " Instead": 3887,
  " inse": 3888,
  " insect": 3889,
  " admired": 3890,
  " complet": 3891,
  " fallen": 3892,
  " costume": 3893,
  " gum": 3894,
  " shakes": 3895,
  " vroom": 3896,
  " giving": 3897,
  " lu": 3898,
  " short": 3899,
  " classroom": 3900,
  " thanks": 3901,
  " skipped": 3902,
  " poured": 3903,
  " wipe": 3904,
  "body": 3905,
  " sent": 3906,
  " numbers": 3907,
  " pupp": 3908,
  " waving": 3909,
  " support": 3910,
  " encou": 3911,
  "aused": 3912,
  " speed": 3913,
  " above": 3914,
  " mudd": 3915,
  " muddy": 3916,
  "ipe": 3917,
  " harbor": 3918,
  "lly": 3919,
  " rotten": 3920,
  " seal": 3921,
  " determined": 3922,
  " Sharing": 3923,
  " thinking": 3924,
  "ject": 3925,
  " case": 3926,
  " shiver": 3927,
  " stair": 3928,
  " pencils": 3929,
  " suff": 3930,
  "ppers": 3931,
  " cone": 3932,
  " slides": 3933,
  " painter": 3934,
  "ium": 3935,
  " jewel": 3936,
  "ines": 3937,
  " acce": 3938,
  " dreams": 3939,
  " dish": 3940,
  " plates": 3941,
  "edy": 3942,
  " either": 3943,
  " distance": 3944,
  " cudd": 3945,
  " delight": 3946,
  " adventur": 3947,
  " adventurous": 3948,
  " Olive": 3949,
  " handle": 3950,
  " knife": 3951,
  " adorable": 3952,
  " graceful": 3953,
  "apped": 3954,
  " drawer": 3955,
  " valu": 3956,
  " shock": 3957,
  "Wait": 3958,
  " knot": 3959,
  " factory": 3960,
  " louder": 3961,
  " steam": 3962,
  " cardboard": 3963,
  "aul": 3964,
  " strugg": 3965,
  "ler": 3966,
  "ls": 3967,
  " wine": 3968,
  " tricks": 3969,
  " Red": 3970,
  "!\".": 3971,
  " strawberry": 3972,
  "Jimmy": 3973,
  " veter": 3974,
  " veterin": 3975,
  " veterinarian": 3976,
  " hippo": 3977,
  " Velvet": 3978,
  " fireworks": 3979,
  " tax": 3980,
  " taxi": 3981,
  " Box": 3982,
  " Boxy": 3983,
  " leaned": 3984,
  " Will": 3985,
  "ations": 3986,
  " crawled": 3987,
  "ising": 3988,
  "ested": 3989,
  " closely": 3990,
  " smells": 3991,
  " giggle": 3992,
  " tunn": 3993,
  " tunnel": 3994,
  "Go": 3995,
  "gen": 3996,
  " tightly": 3997,
  "yal": 3998,
  " shells": 3999,
  " waves": 4000,
  " meeting": 4001,
  " stones": 4002,
  " shone": 4003,
  " Mrs": 4004,
  " Bea": 4005,
  " Beaver": 4006,
  "Mr": 4007,
  " nowhere": 4008,
  " butterflies": 4009,
  " packed": 4010,
  " burn": 4011,
  "ason": 4012,
  " insisted": 4013,
  " prevent": 4014,
  " ener": 4015,
  " comfort": 4016,
  " poke": 4017,
  " realised": 4018,
  " calls": 4019,
  "eady": 4020,
  " sadly": 4021,
  " popular": 4022,
  " lux": 4023,
  " luxu": 4024,
  " luxury": 4025,
  " walks": 4026,
  " unite": 4027,
  " throws": 4028,
  " shouts": 4029,
  " fastest": 4030,
  " steel": 4031,
  " ears": 4032,
  "ache": 4033,
  "ulie": 4034,
  " writing": 4035,
  " sniff": 4036,
  "Ouch": 4037,
  " coup": 4038,
  " couple": 4039,
  " resist": 4040,
  " puppet": 4041,
  "Jenny": 4042,
  " stirred": 4043,
  " favour": 4044,
  " favourite": 4045,
  " scold": 4046,
  " travel": 4047,
  " King": 4048,
  "per": 4049,
  " pilot": 4050,
  " playground": 4051,
  " remove": 4052,
  " shouldn": 4053,
  " liz": 4054,
  " lizard": 4055,
  " suffer": 4056,
  " upstairs": 4057,
  " shouting": 4058,
  " message": 4059,
  " oper": 4060,
  " operation": 4061,
  " rod": 4062,
  " comput": 4063,
  " computer": 4064,
  " Everywhere": 4065,
  " comfortable": 4066,
  " ur": 4067,
  " freeze": 4068,
  " anx": 4069,
  " anxious": 4070,
  "'d": 4071,
  " Big": 4072,
  " heat": 4073,
  "Ow": 4074,
  " beet": 4075,
  " beetle": 4076,
  "inked": 4077,
  " reind": 4078,
  " reinde": 4079,
  " troubled": 4080,
  " racing": 4081,
  " onion": 4082,
  " zipper": 4083,
  " argue": 4084,
  "Give": 4085,
  " Ste": 4086,
  " trunk": 4087,
  " End": 4088,
  " lid": 4089,
  " supply": 4090,
  " peppers": 4091,
  " pean": 4092,
  " valuable": 4093,
  " points": 4094,
  " popc": 4095,
  " popcorn": 4096,
  " Ro": 4097,
  " mach": 4098,
  " massage": 4099,
  "icer": 4100,
  " dol": 4101,
  " dolph": 4102,
  " bikes": 4103,
  "eon": 4104,
  "iest": 4105,
  " pipe": 4106,
  " Doggy": 4107,
  " envel": 4108,
  "zen": 4109,
  " quiz": 4110,
  "tress": 4111,
  " yach": 4112,
  " yacht": 4113,
  "asis": 4114,
  " hedgeh": 4115,
  " hedgehog": 4116,
  " Tuna": 4117,
  " anywhere": 4118,
  " rang": 4119,
  " claw": 4120,
  " chance": 4121,
  " loudly": 4122,
  " repair": 4123,
  " Is": 4124,
  "Yuck": 4125,
  " barking": 4126,
  "Are": 4127,
  " Where": 4128,
  " loyal": 4129,
  "ded": 4130,
  " choose": 4131,
  " happens": 4132,
  " sneak": 4133,
  " admire": 4134,
  " art": 4135,
  " sprayed": 4136,
  " obser": 4137,
  "ceed": 4138,
  " ship": 4139,
  " serious": 4140,
  " accidentally": 4141,
  " complete": 4142,
  " steps": 4143,
  " counted": 4144,
  "ention": 4145,
  " lips": 4146,
  " during": 4147,
  " trusted": 4148,
  " hers": 4149,
  " glo": 4150,
  " gloves": 4151,
  " dreaming": 4152,
  "Bobby": 4153,
  "elcome": 4154,
  "dom": 4155,
  " paid": 4156,
  " examine": 4157,
  " rubbed": 4158,
  "imed": 4159,
  " spend": 4160,
  " Pinky": 4161,
  " sudden": 4162,
  " available": 4163,
  " slipper": 4164,
  " slippery": 4165,
  " tripped": 4166,
  "ooped": 4167,
  " snap": 4168,
  " feelings": 4169,
  " spell": 4170,
  " airport": 4171,
  " Hel": 4172,
  " Help": 4173,
  " spid": 4174,
  " batht": 4175,
  " bathtub": 4176,
  "ives": 4177,
  " theater": 4178,
  " refused": 4179,
  " super": 4180,
  " jogged": 4181,
  " smar": 4182,
  " smarter": 4183,
  " apol": 4184,
  " apolog": 4185,
  " grandp": 4186,
  " grandparent": 4187,
  " marched": 4188,
  " putting": 4189,
  "ola": 4190,
  " rul": 4191,
  " ruler": 4192,
  " monkeys": 4193,
  " yaw": 4194,
  " spilled": 4195,
  " bandage": 4196,
  " whispered": 4197,
  "Is": 4198,
  "bour": 4199,
  "ush": 4200,
  " shore": 4201,
  " west": 4202,
  " Puffy": 4203,
  " attic": 4204,
  "acked": 4205,
  " Or": 4206,
  " cord": 4207,
  " Lena": 4208,
  " intro": 4209,
  " introd": 4210,
  " kay": 4211,
  " against": 4212,
  " magaz": 4213,
  " magazine": 4214,
  " alive": 4215,
  " reindeer": 4216,
  " hive": 4217,
  "emember": 4218,
  " ended": 4219,
  " dishw": 4220,
  " dishwas": 4221,
  " dishwasher": 4222,
  " greedy": 4223,
  " flies": 4224,
  " bounced": 4225,
  " bloom": 4226,
  " cur": 4227,
  " rolling": 4228,
  " Lilly": 4229,
  " older": 4230,
  " Here": 4231,
  " weigh": 4232,
  " Tilly": 4233,
  " scrat": 4234,
  " secrets": 4235,
  " gifted": 4236,
  " often": 4237,
  " thick": 4238,
  "hell": 4239,
  " neckl": 4240,
  " leak": 4241,
  " rotting": 4242,
  " Y": 4243,
  " Cl": 4244,
  " blinked": 4245,
  " rail": 4246,
  "rill": 4247,
  " bab": 4248,
  " babies": 4249,
  " hurting": 4250,
  " Rover": 4251,
  " backpack": 4252,
  " universe": 4253,
  " machine": 4254,
  " Mama": 4255,
  "yd": 4256,
  "ydia": 4257,
  " Fox": 4258,
  " breakf": 4259,
  " breakfast": 4260,
  "!'": 4261,
  " dolphin": 4262,
  "sity": 4263,
  " oct": 4264,
  " octop": 4265,
  " octopus": 4266,
  " student": 4267,
  "ibi": 4268,
  " skip": 4269,
  " stove": 4270,
  " pins": 4271,
  " mask": 4272,
  " mailman": 4273,
  " Jimmy": 4274,
  " frozen": 4275,
  " Loop": 4276,
  "fus": 4277,
  " loll": 4278,
  " lollip": 4279,
  " lollipop": 4280,
  " mattress": 4281,
  " hut": 4282,
  "vy": 4283,
  " oasis": 4284,
  " Tena": 4285,
  " kang": 4286,
  " kangar": 4287,
  " kangaroo": 4288,
  "keep": 4289,
  "keeper": 4290,
  " claws": 4291,
  " eye": 4292,
  "Daddy": 4293,
  " Rex": 4294,
  " Next": 4295,
  " lions": 4296,
  " tong": 4297,
  " tummy": 4298,
  "Goodbye": 4299,
  " breathe": 4300,
  " wob": 4301,
  " shrugged": 4302,
  " landscape": 4303,
  " Chew": 4304,
  " permit": 4305,
  " excitedly": 4306,
  " east": 4307,
  " bang": 4308,
  " frogs": 4309,
  " cube": 4310,
  " bur": 4311,
  " observe": 4312,
  " succeed": 4313,
  " fed": 4314,
  " discovered": 4315,
  " colour": 4316,
  " sparkly": 4317,
  " flap": 4318,
  " swinging": 4319,
  " energy": 4320,
  "cu": 4321,
  " purse": 4322,
  " skirt": 4323,
  " Sm": 4324,
  " early": 4325,
  " fixing": 4326,
  " invite": 4327,
  " giggled": 4328,
  " rings": 4329,
  " fingers": 4330,
  "Sh": 4331,
  " competitive": 4332,
  " Soph": 4333,
  " adv": 4334,
  " courage": 4335,
  " exper": 4336,
  "uct": 4337,
  " destroyed": 4338,
  " check": 4339,
  "lo": 4340,
  " saving": 4341,
  " poems": 4342,
  "bbing": 4343,
  " tremb": 4344,
  "ature": 4345,
  " strike": 4346,
  " tape": 4347,
  " incre": 4348,
  " filthy": 4349,
  "ince": 4350,
  "..": 4351,
  " neat": 4352,
  " silence": 4353,
  " cob": 4354,
  " cobw": 4355,
  " cobweb": 4356,
  " crossed": 4357,
  " superher": 4358,
  " superhero": 4359,
  " jellyfish": 4360,
  "med": 4361,
  " spoiled": 4362,
  " candle": 4363,
  " replace": 4364,
  " wallet": 4365,
  " suit": 4366,
  " panic": 4367,
  " bumped": 4368,
  " bend": 4369,
  " twist": 4370,
  " bent": 4371,
  "night": 4372,
  " measured": 4373,
  "ges": 4374,
  " rules": 4375,
  "etty": 4376,
  "Will": 4377,
  " gasped": 4378,
  " lightning": 4379,
  " stared": 4380,
  " hanging": 4381,
  " kayak": 4382,
  " stretched": 4383,
  " collect": 4384,
  " Would": 4385,
  " baa": 4386,
  "ating": 4387,
  "Buddy": 4388,
  " sy": 4389,
  " snugg": 4390,
  " forgave": 4391,
  " page": 4392,
  " dem": 4393,
  " demand": 4394,
  " compl": 4395,
  " complain": 4396,
  " may": 4397,
  " crow": 4398,
  " sandwic": 4399,
  " sandwiches": 4400,
  " teleph": 4401,
  " telephone": 4402,
  " following": 4403,
  " bananas": 4404,
  "peci": 4405,
  "pecially": 4406,
  " leaving": 4407,
  " lime": 4408,
  " second": 4409,
  "Bobo": 4410,
  " missing": 4411,
  " raised": 4412,
  "sc": 4413,
  " stickers": 4414,
  " bags": 4415,
  " Sp": 4416,
  " Mic": 4417,
  " Michell": 4418,
  " Michelle": 4419,
  " necklace": 4420,
  "als": 4421,
  " heads": 4422,
  " chess": 4423,
  " blink": 4424,
  "Grandma": 4425,
  " belt": 4426,
  " release": 4427,
  " ticket": 4428,
  " girls": 4429,
  " nur": 4430,
  " jeep": 4431,
  " Lydia": 4432,
  "we": 4433,
  "All": 4434,
  " beauty": 4435,
  "eor": 4436,
  "eorge": 4437,
  " Paul": 4438,
  "wards": 4439,
  " pigeon": 4440,
  " Bibi": 4441,
  " knob": 4442,
  " sub": 4443,
  " subway": 4444,
  " rece": 4445,
  " pist": 4446,
  " pistol": 4447,
  " pastry": 4448,
  " raz": 4449,
  " razor": 4450,
  " sco": 4451,
  " scoot": 4452,
  " scooter": 4453,
  " earthqu": 4454,
  " earthquake": 4455,
  " base": 4456,
  " stomach": 4457,
  "anny": 4458,
  " refr": 4459,
  " refriger": 4460,
  " refrigerator": 4461,
  " disappear": 4462,
  " oy": 4463,
  " cere": 4464,
  " cereal": 4465,
  " Steve": 4466,
  " acorns": 4467,
  " sunr": 4468,
  " sunrise": 4469,
  " Pandy": 4470,
  " Rufus": 4471,
  " sled": 4472,
  " curt": 4473,
  " curtain": 4474,
  " Mike": 4475,
  " Coby": 4476,
  "iki": 4477,
  " appre": 4478,
  " apprec": 4479,
  " appreci": 4480,
  " ignore": 4481,
  " caring": 4482,
  " exer": 4483,
  " exerc": 4484,
  " hunt": 4485,
  " dare": 4486,
  " pumpkin": 4487,
  " Good": 4488,
  " softly": 4489,
  " pirates": 4490,
  " See": 4491,
  "rect": 4492,
  " glue": 4493,
  "aster": 4494,
  " aftern": 4495,
  " afternoon": 4496,
  " hay": 4497,
  "men": 4498,
  " text": 4499,
  " texture": 4500,
  " birdc": 4501,
  " birdcage": 4502,
  "happy": 4503,
  " needle": 4504,
  " pointing": 4505,
  " Look": 4506,
  " drinking": 4507,
  " sliding": 4508,
  " lear": 4509,
  " learnt": 4510,
  " pair": 4511,
  "astic": 4512,
  " bites": 4513,
  " Zippy": 4514,
  " sneezed": 4515,
  " Under": 4516,
  " prov": 4517,
  " hoping": 4518,
  "ops": 4519,
  "Ready": 4520,
  " prep": 4521,
  " reaches": 4522,
  " space": 4523,
  " candles": 4524,
  "izes": 4525,
  " crash": 4526,
  " advice": 4527,
  " experience": 4528,
  " falling": 4529,
  " chim": 4530,
  " chimney": 4531,
  " Julie": 4532,
  " sniffed": 4533,
  " comf": 4534,
  "orted": 4535,
  " nature": 4536,
  " studied": 4537,
  " dressed": 4538,
  " caused": 4539,
  "verse": 4540,
  "itched": 4541,
  " hills": 4542,
  " Truck": 4543,
  " Truckie": 4544,
  " refu": 4545,
  " refuse": 4546,
  " fishing": 4547,
  " seats": 4548,
  " Ally": 4549,
  " sorting": 4550,
  " recognize": 4551,
  " bother": 4552,
  "udge": 4553,
  " Match": 4554,
  " moments": 4555,
  " ble": 4556,
  " Aunt": 4557,
  " pra": 4558,
  " chases": 4559,
  " hopes": 4560,
  " brighter": 4561,
  " appear": 4562,
  " tub": 4563,
  " safely": 4564,
  " zipping": 4565,
  " object": 4566,
  " ten": 4567,
  " furn": 4568,
  " furnit": 4569,
  " furniture": 4570,
  " glowing": 4571,
  " unpack": 4572,
  " waist": 4573,
  " Elly": 4574,
  " wigg": 4575,
  " yet": 4576,
  " setting": 4577,
  " neighbour": 4578,
  "Not": 4579,
  " brush": 4580,
  " tug": 4581,
  " hall": 4582,
  "ected": 4583,
  "Jazz": 4584,
  " fridge": 4585,
  " stirr": 4586,
  " stirring": 4587,
  " recorded": 4588,
  " warned": 4589,
  "thank": 4590,
  " Sund": 4591,
  " Sunday": 4592,
  "Em": 4593,
  "Polly": 4594,
  " dess": 4595,
  " dessert": 4596,
  "ishing": 4597,
  " planes": 4598,
  " paintings": 4599,
  " Johnny": 4600,
  " shrinking": 4601,
  " tip": 4602,
  " checked": 4603,
  " tray": 4604,
  " impro": 4605,
  " twir": 4606,
  " pushing": 4607,
  "elsie": 4608,
  " squeezed": 4609,
  " especially": 4610,
  " delighted": 4611,
  " vall": 4612,
  " valle": 4613,
  " valley": 4614,
  " cooler": 4615,
  " symb": 4616,
  " symbol": 4617,
  " flapped": 4618,
  " newsp": 4619,
  " newspap": 4620,
  " remain": 4621,
  " People": 4622,
  " organize": 4623,
  " Bloom": 4624,
  " petals": 4625,
  " watches": 4626,
  "Mark": 4627,
  " ow": 4628,
  " grill": 4629,
  " planted": 4630,
  " surprises": 4631,
  " safar": 4632,
  " safari": 4633,
  " Mitten": 4634,
  " Mittens": 4635,
  " nurses": 4636,
  " Robo": 4637,
  " stad": 4638,
  " stadium": 4639,
  " betwe": 4640,
  " between": 4641,
  " board": 4642,
  " pois": 4643,
  " poison": 4644,
  " Gia": 4645,
  "hy": 4646,
  " trail": 4647,
  " peach": 4648,
  " repe": 4649,
  " reply": 4650,
  " Inky": 4651,
  " vanished": 4652,
  " blood": 4653,
  " swan": 4654,
  " baseball": 4655,
  " Manny": 4656,
  "ief": 4657,
  "agg": 4658,
  "aggie": 4659,
  " Binky": 4660,
  " earthw": 4661,
  " earthworm": 4662,
  " Mar": 4663,
  " aer": 4664,
  " aerop": 4665,
  " aeropl": 4666,
  " students": 4667,
  " Wally": 4668,
  "aura": 4669,
  " May": 4670,
  " Sk": 4671,
  " Skip": 4672,
  " masks": 4673,
  "lossy": 4674,
  " Bigg": 4675,
  " Biggie": 4676,
  " Lizzy": 4677,
  " Lucky": 4678,
  " Mix": 4679,
  " crane": 4680,
  " Jan": 4681,
  " thumb": 4682,
  " noon": 4683,
  " pinched": 4684,
  " suggested": 4685,
  " letting": 4686,
  " tongue": 4687,
  " Have": 4688,
  " surf": 4689,
  "â.": 4690,
  " proudly": 4691,
  " imagined": 4692,
  " incl": 4693,
  " inclu": 4694,
  " throwing": 4695,
  " kneel": 4696,
  " pride": 4697,
  " warn": 4698,
  "Fr": 4699,
  " known": 4700,
  " disag": 4701,
  " disagre": 4702,
  " raining": 4703,
  " strings": 4704,
  "osed": 4705,
  " attach": 4706,
  " attached": 4707,
  "Mor": 4708,
  "Moral": 4709,
  " grandm": 4710,
  " grandmother": 4711,
  " acting": 4712,
  "Ella": 4713,
  " heal": 4714,
  " wraps": 4715,
  " forgotten": 4716,
  " pleas": 4717,
  " lap": 4718,
  "Grandpa": 4719,
  " prepare": 4720,
  " dive": 4721,
  " sir": 4722,
  " brings": 4723,
  " climbs": 4724,
  " celebrate": 4725,
  "Le": 4726,
  " buttons": 4727,
  "Welcome": 4728,
  " wisdom": 4729,
  "Bella": 4730,
  "antly": 4731,
  " Fr": 4732,
  " nobody": 4733,
  " rooms": 4734,
  " marri": 4735,
  " marriage": 4736,
  " counter": 4737,
  " choice": 4738,
  " golden": 4739,
  " trem": 4740,
  " tremble": 4741,
  " alr": 4742,
  " alright": 4743,
  " scooped": 4744,
  "ecause": 4745,
  " grown": 4746,
  " puddles": 4747,
  " soak": 4748,
  " baked": 4749,
  " scolded": 4750,
  " trave": 4751,
  " traveled": 4752,
  " wheels": 4753,
  "apping": 4754,
  " vet": 4755,
  " spider": 4756,
  "aked": 4757,
  " laught": 4758,
  " laughter": 4759,
  " solved": 4760,
  " Sandy": 4761,
  " adding": 4762,
  " tomato": 4763,
  " bleed": 4764,
  "ounce": 4765,
  " Rude": 4766,
  " fash": 4767,
  " impressed": 4768,
  " gifts": 4769,
  "With": 4770,
  " jogging": 4771,
  " Lou": 4772,
  "str": 4773,
  " served": 4774,
  "iggy": 4775,
  " Bear": 4776,
  " cared": 4777,
  " climbing": 4778,
  " thread": 4779,
  " biting": 4780,
  " Tu": 4781,
  " Tuesday": 4782,
  " evening": 4783,
  " delay": 4784,
  " problems": 4785,
  " agrees": 4786,
  " perfectly": 4787,
  " slap": 4788,
  " shined": 4789,
  " gust": 4790,
  "ement": 4791,
  " resp": 4792,
  " reminded": 4793,
  " decides": 4794,
  " introduce": 4795,
  " pad": 4796,
  " buckets": 4797,
  " winner": 4798,
  " stretching": 4799,
  "te": 4800,
  "Ha": 4801,
  " ideas": 4802,
  " boots": 4803,
  " baking": 4804,
  " cricket": 4805,
  " snuggled": 4806,
  " Its": 4807,
  " Rudy": 4808,
  " Sammy": 4809,
  " dishes": 4810,
  "Yay": 4811,
  " demanded": 4812,
  " knees": 4813,
  "Mimi": 4814,
  " whenever": 4815,
  " por": 4816,
  " porch": 4817,
  " handed": 4818,
  " increase": 4819,
  "\n ": 4820,
  " theirs": 4821,
  " Zip": 4822,
  " improve": 4823,
  " Like": 4824,
  " tasks": 4825,
  " searching": 4826,
  " knight": 4827,
  "icing": 4828,
  " laid": 4829,
  " washing": 4830,
  " soil": 4831,
  " calling": 4832,
  " whisper": 4833,
  " chang": 4834,
  " Dani": 4835,
  " Daniel": 4836,
  " manage": 4837,
  " helper": 4838,
  " newspaper": 4839,
  " fet": 4840,
  " writ": 4841,
  " Water": 4842,
  " company": 4843,
  " rainy": 4844,
  " gy": 4845,
  " gym": 4846,
  " tour": 4847,
  " bears": 4848,
  " jewelry": 4849,
  "stri": 4850,
  " cof": 4851,
  " coffe": 4852,
  " coffee": 4853,
  "mand": 4854,
  " mice": 4855,
  " ree": 4856,
  " reef": 4857,
  "aid": 4858,
  " cartoon": 4859,
  " lipst": 4860,
  " lipstick": 4861,
  " Hop": 4862,
  " pens": 4863,
  " pinch": 4864,
  " listens": 4865,
  " Charl": 4866,
  " Charlie": 4867,
  " sailing": 4868,
  " keeping": 4869,
  " university": 4870,
  "ea": 4871,
  " Ab": 4872,
  " zigzag": 4873,
  " cuts": 4874,
  " Mill": 4875,
  " todd": 4876,
  " toddler": 4877,
  " fle": 4878,
  " pastel": 4879,
  " created": 4880,
  " repeat": 4881,
  " chewed": 4882,
  " spike": 4883,
  " tornado": 4884,
  " blouse": 4885,
  " accept": 4886,
  " folded": 4887,
  " fu": 4888,
  "aby": 4889,
  " Rose": 4890,
  " grands": 4891,
  " grandson": 4892,
  " Un": 4893,
  "mine": 4894,
  " prett": 4895,
  " lung": 4896,
  "achel": 4897,
  " Ant": 4898,
  " Hippy": 4899,
  " oyster": 4900,
  " whistling": 4901,
  " hairc": 4902,
  " haircut": 4903,
  " horses": 4904,
  " thief": 4905,
  "angers": 4906,
  " aeroplane": 4907,
  " villag": 4908,
  " villagers": 4909,
  "ifi": 4910,
  " pand": 4911,
  " panda": 4912,
  " spag": 4913,
  " spaghe": 4914,
  " spaghet": 4915,
  " spaghett": 4916,
  " spaghetti": 4917,
  " Laura": 4918,
  " mole": 4919,
  " Pipp": 4920,
  " Pippin": 4921,
  " Ray": 4922,
  " Spike": 4923,
  " herb": 4924,
  " Flossy": 4925,
  " Nod": 4926,
  "alad": 4927,
  " catching": 4928,
  "look": 4929,
  " imagination": 4930,
  " sailor": 4931,
  " brus": 4932,
  " brushes": 4933,
  " exercise": 4934,
  " toile": 4935,
  " toilet": 4936,
  " counting": 4937,
  " dared": 4938,
  " Kate": 4939,
  " starting": 4940,
  " regret": 4941,
  " surface": 4942,
  " understanding": 4943,
  " socc": 4944,
  " soccer": 4945,
  "Mama": 4946,
  "Woof": 4947,
  " doggy": 4948,
  " snowball": 4949,
  "Remy": 4950,
  " shel": 4951,
  " shelter": 4952,
  "fre": 4953,
  " Little": 4954,
  " rushed": 4955,
  " direct": 4956,
  "ictory": 4957,
  " floated": 4958,
  " matches": 4959,
  " struck": 4960,
  " shopping": 4961,
  " none": 4962,
  " disagreed": 4963,
  " unhappy": 4964,
  " ringing": 4965,
  " area": 4966,
  " flaps": 4967,
  " supposed": 4968,
  "During": 4969,
  " Milly": 4970,
  " plastic": 4971,
  " Are": 4972,
  " splashing": 4973,
  "These": 4974,
  " lets": 4975,
  " Cir": 4976,
  " Circle": 4977,
  " married": 4978,
  " Everything": 4979,
  " sweeties": 4980,
  " excl": 4981,
  " excla": 4982,
  " exclaimed": 4983,
  " pee": 4984,
  " peeked": 4985,
  "fied": 4986,
  " Jason": 4987,
  " patted": 4988,
  " trembling": 4989,
  " comforted": 4990,
  "Next": 4991,
  " invit": 4992,
  " screams": 4993,
  "Ri": 4994,
  "Ribbit": 4995,
  " rained": 4996,
  " salt": 4997,
  " fara": 4998,
  " faraway": 4999,
  " novel": 5000,
  " emer": 5001,
  " emergen": 5002,
  " emergency": 5003,
  " mushrooms": 5004,
  " worth": 5005,
  " Bounce": 5006,
  " acted": 5007,
  " happier": 5008,
  " fashion": 5009,
  " chall": 5010,
  " challen": 5011,
  " pedals": 5012,
  " Ziggy": 5013,
  " pur": 5014,
  "Momo": 5015,
  " screw": 5016,
  " turning": 5017,
  " catches": 5018,
  "sit": 5019,
  " visited": 5020,
  " requ": 5021,
  " shield": 5022,
  " suggest": 5023,
  " allowed": 5024,
  " Betty": 5025,
  " chirp": 5026,
  " trains": 5027,
  " luck": 5028,
  " reverse": 5029,
  " colourful": 5030,
  " myself": 5031,
  " stays": 5032,
  " pulls": 5033,
  " since": 5034,
  " urge": 5035,
  " ruin": 5036,
  " chairs": 5037,
  "medi": 5038,
  "mediately": 5039,
  " shot": 5040,
  " ours": 5041,
  " mem": 5042,
  "Emma": 5043,
  "pted": 5044,
  " cor": 5045,
  " youth": 5046,
  " hadn": 5047,
  "zzy": 5048,
  " mouths": 5049,
  " apologize": 5050,
  " tracks": 5051,
  "Mary": 5052,
  " colours": 5053,
  " unf": 5054,
  "utter": 5055,
  "ugsy": 5056,
  " Lee": 5057,
  "omm": 5058,
  "ommend": 5059,
  " mystery": 5060,
  " toes": 5061,
  "ther": 5062,
  " pupil": 5063,
  " sidew": 5064,
  " sidewalk": 5065,
  " scratched": 5066,
  " sty": 5067,
  " grin": 5068,
  " clown": 5069,
  " frowned": 5070,
  " tut": 5071,
  "time": 5072,
  " sigh": 5073,
  " writes": 5074,
  " \n ": 5075,
  " score": 5076,
  " penny": 5077,
  " Who": 5078,
  " peanut": 5079,
  " breaking": 5080,
  " collected": 5081,
  " bunn": 5082,
  " bunnies": 5083,
  "Surpr": 5084,
  "terday": 5085,
  " Sophie": 5086,
  " therm": 5087,
  " thermomet": 5088,
  " thermometer": 5089,
  "rr": 5090,
  " loose": 5091,
  " loaded": 5092,
  " recording": 5093,
  "manda": 5094,
  " entr": 5095,
  " Mo": 5096,
  " lawn": 5097,
  " Our": 5098,
  " ribbit": 5099,
  " Carlton": 5100,
  " traff": 5101,
  " traffic": 5102,
  " trapped": 5103,
  " waste": 5104,
  " cuddle": 5105,
  "eks": 5106,
  " yawn": 5107,
  " June": 5108,
  " neighbors": 5109,
  " sparkled": 5110,
  " bye": 5111,
  "ding": 5112,
  " â": 5113,
  "Jill": 5114,
  "Fred": 5115,
  " oak": 5116,
  " worms": 5117,
  " content": 5118,
  " George": 5119,
  "race": 5120,
  " applauded": 5121,
  "Yea": 5122,
  "Yeah": 5123,
  " inf": 5124,
  " infant": 5125,
  " movies": 5126,
  " struggle": 5127,
  " laser": 5128,
  " flea": 5129,
  " breeze": 5130,
  " wre": 5131,
  " wreck": 5132,
  "opes": 5133,
  "house": 5134,
  " recor": 5135,
  " recorder": 5136,
  "alph": 5137,
  "fl": 5138,
  " officer": 5139,
  " driving": 5140,
  " Baby": 5141,
  "osie": 5142,
  " resc": 5143,
  " port": 5144,
  " news": 5145,
  "boy": 5146,
  "ika": 5147,
  " envelope": 5148,
  " hits": 5149,
  " buzz": 5150,
  " teasp": 5151,
  " teaspoon": 5152,
  " Rachel": 5153,
  " fought": 5154,
  " scri": 5155,
  " Lipp": 5156,
  "umi": 5157,
  " Whist": 5158,
  " bom": 5159,
  " bomb": 5160,
  " Jessie": 5161,
  "ices": 5162,
  " laund": 5163,
  " laundry": 5164,
  " Fifi": 5165,
  "igail": 5166,
  " shamp": 5167,
  " shampoo": 5168,
  "Un": 5169,
  " Honey": 5170,
  " rags": 5171,
  " strangers": 5172,
  " ostri": 5173,
  " ostrich": 5174,
  " Ivy": 5175,
  " Anne": 5176,
  " Joey": 5177,
  "Salad": 5178,
  "hys": 5179,
  " Judge": 5180,
  " Dina": 5181,
  " Dinah": 5182,
  " seeing": 5183,
  " exit": 5184,
  "kins": 5185,
  " weather": 5186,
  " Leave": 5187,
  " knocks": 5188,
  " â": 5189,
  " ox": 5190,
  " oxy": 5191,
  " oxygen": 5192,
  " Did": 5193,
  " listening": 5194,
  " winter": 5195,
  " angels": 5196,
  " snowballs": 5197,
  "Teddy": 5198,
  " stomped": 5199,
  " brightly": 5200,
  " victory": 5201,
  " sneaky": 5202,
  " unlocked": 5203,
  " yucky": 5204,
  " pulling": 5205,
  "Penny": 5206,
  " markers": 5207,
  " beamed": 5208,
  " poss": 5209,
  " discovery": 5210,
  " stamp": 5211,
  "Everyone": 5212,
  " twis": 5213,
  " twisty": 5214,
  " explored": 5215,
  " sunlight": 5216,
  " peel": 5217,
  " crawl": 5218,
  " discu": 5219,
  " attention": 5220,
  "Ah": 5221,
  " pies": 5222,
  "choo": 5223,
  " provide": 5224,
  " row": 5225,
  " lie": 5226,
  " pleased": 5227,
  " sounded": 5228,
  " rides": 5229,
  " Star": 5230,
  " mane": 5231,
  " For": 5232,
  "Today": 5233,
  " Squ": 5234,
  " Square": 5235,
  " sprink": 5236,
  " cakes": 5237,
  "ucked": 5238,
  "Leo": 5239,
  " sizes": 5240,
  " rust": 5241,
  " gain": 5242,
  " warning": 5243,
  " napkin": 5244,
  " chasing": 5245,
  " worse": 5246,
  " Without": 5247,
  " windows": 5248,
  " whip": 5249,
  " scattering": 5250,
  " ignored": 5251,
  "Ru": 5252,
  " quack": 5253,
  " encourage": 5254,
  "Eventually": 5255,
  " switched": 5256,
  " crunch": 5257,
  " ing": 5258,
  " ingred": 5259,
  " ingredient": 5260,
  " ingredients": 5261,
  " eff": 5262,
  " effort": 5263,
  " beg": 5264,
  " sorted": 5265,
  "izing": 5266,
  " Gary": 5267,
  " scattered": 5268,
  " ann": 5269,
  " relief": 5270,
  " lined": 5271,
  " plays": 5272,
  " carries": 5273,
  " praised": 5274,
  " wagging": 5275,
  " simp": 5276,
  " instr": 5277,
  " instruct": 5278,
  " instructions": 5279,
  " Ol": 5280,
  " Oliver": 5281,
  " parties": 5282,
  " nine": 5283,
  " hesit": 5284,
  " Hen": 5285,
  " Henry": 5286,
  " encourag": 5287,
  " fork": 5288,
  " nails": 5289,
  " resting": 5290,
  " bes": 5291,
  " beside": 5292,
  " Lola": 5293,
  "Lola": 5294,
  " Someone": 5295,
  "ues": 5296,
  " wid": 5297,
  " sparkling": 5298,
  " prayed": 5299,
  "'.": 5300,
  "For": 5301,
  "eally": 5302,
  " respon": 5303,
  " buried": 5304,
  " locked": 5305,
  " shaking": 5306,
  " wobb": 5307,
  " spade": 5308,
  " perfume": 5309,
  "hood": 5310,
  " Whenever": 5311,
  " Everyday": 5312,
  " immediately": 5313,
  " expect": 5314,
  " gears": 5315,
  " admir": 5316,
  " bill": 5317,
  " billboard": 5318,
  " accepted": 5319,
  " unif": 5320,
  " uniform": 5321,
  " Not": 5322,
  "Remember": 5323,
  " reve": 5324,
  " reveal": 5325,
  " sticky": 5326,
  " Those": 5327,
  " gor": 5328,
  " gorill": 5329,
  " gorilla": 5330,
  " believed": 5331,
  " zer": 5332,
  " zero": 5333,
  " Up": 5334,
  "Bugsy": 5335,
  " belly": 5336,
  " sneez": 5337,
  " sneezes": 5338,
  " moat": 5339,
  " recommend": 5340,
  " flood": 5341,
  " Later": 5342,
  " Kelsie": 5343,
  " curled": 5344,
  " ordered": 5345,
  " snapped": 5346,
  " crashed": 5347,
  " shivering": 5348,
  " country": 5349,
  " style": 5350,
  " streng": 5351,
  " strength": 5352,
  " easily": 5353,
  " Remember": 5354,
  " lugg": 5355,
  " luggage": 5356,
  "An": 5357,
  " tutor": 5358,
  " polish": 5359,
  " polished": 5360,
  " playtime": 5361,
  "mm": 5362,
  " shadows": 5363,
  " whatever": 5364,
  " welcom": 5365,
  " welcomed": 5366,
  " symbols": 5367,
  " hi": 5368,
  " ech": 5369,
  " echo": 5370,
  " dipped": 5371,
  "rink": 5372,
  " peanuts": 5373,
  " grant": 5374,
  "affle": 5375,
  " hoc": 5376,
  " hockey": 5377,
  " waits": 5378,
  " fort": 5379,
  " pretends": 5380,
  "inda": 5381,
  " Amanda": 5382,
  " entrance": 5383,
  "Ch": 5384,
  " buses": 5385,
  " panc": 5386,
  " pressing": 5387,
  " loops": 5388,
  "oga": 5389,
  " rolls": 5390,
  " mention": 5391,
  " wandered": 5392,
  " sweethe": 5393,
  " sweetheart": 5394,
  "reat": 5395,
  "onic": 5396,
  "onica": 5397,
  "Surprise": 5398,
  " gross": 5399,
  " permiss": 5400,
  " permission": 5401,
  " touching": 5402,
  " sticker": 5403,
  " tide": 5404,
  " sunflow": 5405,
  " sunflowers": 5406,
  " kicking": 5407,
  "Bird": 5408,
  " signs": 5409,
  "Ab": 5410,
  " cupboard": 5411,
  " root": 5412,
  " heel": 5413,
  " appreciate": 5414,
  "'?\"": 5415,
  " arrive": 5416,
  " offic": 5417,
  " officers": 5418,
  "used": 5419,
  " Freddy": 5420,
  "Peter": 5421,
  " fleas": 5422,
  " costum": 5423,
  " costumes": 5424,
  " tonight": 5425,
  " floating": 5426,
  " peaches": 5427,
  " x": 5428,
  "ific": 5429,
  " hoops": 5430,
  " recei": 5431,
  " received": 5432,
  " goal": 5433,
  " snowfl": 5434,
  " snowflakes": 5435,
  " Rosie": 5436,
  " bones": 5437,
  " rescue": 5438,
  " guessed": 5439,
  " spit": 5440,
  " wound": 5441,
  " Sunny": 5442,
  " stealing": 5443,
  " Happy": 5444,
  " growls": 5445,
  " Want": 5446,
  " restore": 5447,
  " Gerry": 5448,
  " raft": 5449,
  "eds": 5450,
  " prettier": 5451,
  " envelopes": 5452,
  " slowed": 5453,
  "Day": 5454,
  " chip": 5455,
  " chipm": 5456,
  " chipmunk": 5457,
  "Mandy": 5458,
  " Maggie": 5459,
  " capt": 5460,
  "beep": 5461,
  " Yumi": 5462,
  " Strawber": 5463,
  " Strawberry": 5464,
  " wire": 5465,
  " Whistler": 5466,
  " answers": 5467,
  " kicks": 5468,
  " delivered": 5469,
  " Cow": 5470,
  " Hor": 5471,
  " Horse": 5472,
  " strawberries": 5473,
  " Mummy": 5474,
  " cert": 5475,
  "rol": 5476,
  " erasers": 5477,
  " deeper": 5478,
  " barrel": 5479,
  " Maisy": 5480,
  " army": 5481,
  " Dot": 5482,
  " hops": 5483,
  "fortun": 5484,
  "fortunately": 5485,
  "May": 5486,
  " Snugg": 5487,
  " Snuggles": 5488,
  " Clar": 5489,
  " Clariss": 5490,
  " Clarissa": 5491,
  "Mic": 5492,
  "Mickey": 5493,
  " genie": 5494,
  " spikes": 5495,
  " Zigzag": 5496,
  " Louise": 5497,
  " Mina": 5498,
  " Birdie": 5499,
  " nut": 5500,
  " Kiki": 5501,
  "ancy": 5502,
  "  ": 5503,
  " reminder": 5504,
  " bare": 5505,
  " barely": 5506,
  " hunter": 5507,
  "Kate": 5508,
  " watered": 5509,
  " dresses": 5510,
  " pumpkins": 5511,
  "Bad": 5512,
  " postman": 5513,
  " cust": 5514,
  " custom": 5515,
  " customer": 5516,
  "year": 5517,
  " entered": 5518,
  " headed": 5519,
  " included": 5520,
  " Follow": 5521,
  "Tr": 5522,
  "Jen": 5523,
  "freeze": 5524,
  " badly": 5525,
  " planned": 5526,
  " measuring": 5527,
  " sum": 5528,
  "work": 5529,
  " burning": 5530,
  " firemen": 5531,
  "nap": 5532,
  " recognized": 5533,
  " creation": 5534,
  " tugged": 5535,
  " cause": 5536,
  " allow": 5537,
  " zoomed": 5538,
  " surround": 5539,
  " planets": 5540,
  "ided": 5541,
  " follows": 5542,
  " leads": 5543,
  " sew": 5544,
  " tru": 5545,
  "dged": 5546,
  " fields": 5547,
  " stall": 5548,
  " peek": 5549,
  " flat": 5550,
  "oke": 5551,
  "Ex": 5552,
  "Your": 5553,
  " six": 5554,
  " Momma": 5555,
  " tucked": 5556,
  " drivers": 5557,
  "ition": 5558,
  " Eventually": 5559,
  " sett": 5560,
  " settled": 5561,
  "eed": 5562,
  " sen": 5563,
  " sense": 5564,
  " reluct": 5565,
  " reluctantly": 5566,
  " zooming": 5567,
  "Frank": 5568,
  "ony": 5569,
  "hind": 5570,
  "Hold": 5571,
  "looking": 5572,
  " mustache": 5573,
  " gro": 5574,
  " groc": 5575,
  " Ruby": 5576,
  " invitation": 5577,
  " loving": 5578,
  " joking": 5579,
  "acky": 5580,
  " growled": 5581,
  " crunchy": 5582,
  "Zoom": 5583,
  " slower": 5584,
  " dried": 5585,
  " helmets": 5586,
  " jewels": 5587,
  "ipes": 5588,
  " ol": 5589,
  " olives": 5590,
  "urry": 5591,
  " Chr": 5592,
  " Christ": 5593,
  " Christm": 5594,
  " Christmas": 5595,
  " bleeding": 5596,
  " ske": 5597,
  " skele": 5598,
  " skeleton": 5599,
  " imagin": 5600,
  " Auntie": 5601,
  " som": 5602,
  " somed": 5603,
  " someday": 5604,
  " surre": 5605,
  " surrender": 5606,
  " paused": 5607,
  " encouraging": 5608,
  "mel": 5609,
  " request": 5610,
  " project": 5611,
  " wiggled": 5612,
  " yawned": 5613,
  " eaten": 5614,
  "Oops": 5615,
  "Fine": 5616,
  " stare": 5617,
  " medium": 5618,
  " amazement": 5619,
  " vanish": 5620,
  " inter": 5621,
  " obe": 5622,
  " obey": 5623,
  " respons": 5624,
  " highe": 5625,
  " highest": 5626,
  " X": 5627,
  " pinat": 5628,
  " pinata": 5629,
  " rule": 5630,
  "Susie": 5631,
  "Watch": 5632,
  " padd": 5633,
  " joked": 5634,
  " importance": 5635,
  " spots": 5636,
  " digg": 5637,
  " digging": 5638,
  "Ba": 5639,
  "Baa": 5640,
  " memory": 5641,
  " rocking": 5642,
  " sid": 5643,
  " bathe": 5644,
  " cork": 5645,
  " ranger": 5646,
  " freez": 5647,
  " freezer": 5648,
  " calmed": 5649,
  "Some": 5650,
  "ans": 5651,
  " motion": 5652,
  " file": 5653,
  " math": 5654,
  " discuss": 5655,
  " steep": 5656,
  " flutter": 5657,
  "?\",": 5658,
  "ots": 5659,
  " hist": 5660,
  " history": 5661,
  " ple": 5662,
  "Lilly": 5663,
  " First": 5664,
  "Miss": 5665,
  " directions": 5666,
  " tig": 5667,
  " tigers": 5668,
  " earl": 5669,
  " earlier": 5670,
  " wishing": 5671,
  " ruining": 5672,
  " sparkle": 5673,
  " twirled": 5674,
  " prec": 5675,
  " precious": 5676,
  " pupils": 5677,
  " practicing": 5678,
  " soaring": 5679,
  " actually": 5680,
  " naps": 5681,
  " robots": 5682,
  " squaw": 5683,
  "plash": 5684,
  " blueber": 5685,
  " offer": 5686,
  " burst": 5687,
  " Sky": 5688,
  " underground": 5689,
  " wrapping": 5690,
  " grinned": 5691,
  " Pu": 5692,
  " Puppy": 5693,
  " buildings": 5694,
  " rush": 5695,
  " Pizza": 5696,
  " satis": 5697,
  " polishing": 5698,
  " invest": 5699,
  " investig": 5700,
  " investigate": 5701,
  "len": 5702,
  "Lulu": 5703,
  " mic": 5704,
  " micro": 5705,
  " microsc": 5706,
  " microscope": 5707,
  "ores": 5708,
  "Tiny": 5709,
  " ach": 5710,
  " achie": 5711,
  " wisely": 5712,
  " fetch": 5713,
  " changing": 5714,
  " echoed": 5715,
  " garb": 5716,
  " garbage": 5717,
  "anes": 5718,
  " dinosaurs": 5719,
  " twin": 5720,
  " sadness": 5721,
  " napping": 5722,
  " ripped": 5723,
  " rip": 5724,
  "ecting": 5725,
  " Waffle": 5726,
  " Yes": 5727,
  " Al": 5728,
  "ips": 5729,
  " parade": 5730,
  " marching": 5731,
  "cl": 5732,
  "\",": 5733,
  " teasing": 5734,
  "Linda": 5735,
  "hile": 5736,
  " ago": 5737,
  "Chirp": 5738,
  " performed": 5739,
  " waded": 5740,
  " somewhere": 5741,
  "Luna": 5742,
  " eagerly": 5743,
  " teased": 5744,
  " cartoons": 5745,
  " toaster": 5746,
  "Yoga": 5747,
  " pose": 5748,
  " kisses": 5749,
  " mentioned": 5750,
  "Great": 5751,
  " Monica": 5752,
  " aimed": 5753,
  " olive": 5754,
  " cuddled": 5755,
  " patterns": 5756,
  " roars": 5757,
  " untie": 5758,
  " lec": 5759,
  " lecture": 5760,
  " coats": 5761,
  " nicer": 5762,
  " owned": 5763,
  " chewing": 5764,
  " poking": 5765,
  "Yum": 5766,
  " Grace": 5767,
  "onn": 5768,
  "onnie": 5769,
  " meowed": 5770,
  " prun": 5771,
  " prunes": 5772,
  " Abby": 5773,
  " vowed": 5774,
  " glowed": 5775,
  "sters": 5776,
  " nightm": 5777,
  " nightmare": 5778,
  " nightmares": 5779,
  " comets": 5780,
  "iona": 5781,
  " covers": 5782,
  " wherever": 5783,
  " sting": 5784,
  " finds": 5785,
  " happiest": 5786,
  " soared": 5787,
  " scratches": 5788,
  " meow": 5789,
  " afterwards": 5790,
  " Pap": 5791,
  "sing": 5792,
  " copper": 5793,
  " destination": 5794,
  " hate": 5795,
  " placed": 5796,
  " oh": 5797,
  " receive": 5798,
  "Slow": 5799,
  " hitting": 5800,
  " dusty": 5801,
  " fears": 5802,
  "Really": 5803,
  " throughout": 5804,
  " Dav": 5805,
  " David": 5806,
  " dollhouse": 5807,
  " Ralph": 5808,
  " struggling": 5809,
  " fuel": 5810,
  " God": 5811,
  " nations": 5812,
  " crackers": 5813,
  " Din": 5814,
  " ourselves": 5815,
  "Happy": 5816,
  " cable": 5817,
  " winks": 5818,
  " relaxed": 5819,
  " newsboy": 5820,
  " longest": 5821,
  " minute": 5822,
  "ethro": 5823,
  "Before": 5824,
  " event": 5825,
  "naught": 5826,
  "naughty": 5827,
  " ladyb": 5828,
  " ladybug": 5829,
  " weeds": 5830,
  " buzzing": 5831,
  " price": 5832,
  "Days": 5833,
  " freed": 5834,
  " blinking": 5835,
  " appro": 5836,
  " Mandy": 5837,
  " skill": 5838,
  "Birdy": 5839,
  " unfold": 5840,
  "!â.": 5841,
  " scaring": 5842,
  " equ": 5843,
  " equip": 5844,
  " equipment": 5845,
  " Maria": 5846,
  " weeks": 5847,
  " tools": 5848,
  " Ow": 5849,
  " Flor": 5850,
  " Flora": 5851,
  " boom": 5852,
  " jets": 5853,
  " goat": 5854,
  "oices": 5855,
  " certific": 5856,
  " certificate": 5857,
  " erase": 5858,
  " hurried": 5859,
  " barrels": 5860,
  " beef": 5861,
  "uckily": 5862,
  "Maisy": 5863,
  " Lor": 5864,
  " Lori": 5865,
  "dam": 5866,
  "Unfortunately": 5867,
  " Sorry": 5868,
  " tart": 5869,
  " wooden": 5870,
  " blankets": 5871,
  " competition": 5872,
  "Tina": 5873,
  " Marth": 5874,
  " Martha": 5875,
  " papa": 5876,
  " helpers": 5877,
  " tank": 5878,
  " racc": 5879,
  " raccoon": 5880,
  "Mike": 5881,
  "Ivy": 5882,
  " prove": 5883,
  " Hope": 5884,
  " Su": 5885,
  " Suzy": 5886,
  " Jee": 5887,
  " diary": 5888,
  " Rhys": 5889,
  "Kiki": 5890,
  " captain": 5891,
  "Jan": 5892,
  " Nancy": 5893,
  " shopkeeper": 5894,
  "Ollie": 5895,
  " Before": 5896,
  " paths": 5897,
  " everyday": 5898,
  " packages": 5899,
  " bringing": 5900,
  " Goodbye": 5901,
  " balan": 5902,
  " Thom": 5903,
  " Thomas": 5904,
  " football": 5905,
  " bravely": 5906,
  " celebrated": 5907,
  " bumpy": 5908,
  "?!\"": 5909,
  " opin": 5910,
  " opinion": 5911,
  " spills": 5912,
  " continue": 5913,
  " hus": 5914,
  " husb": 5915,
  " husband": 5916,
  "Mrs": 5917,
  " summer": 5918,
  " colored": 5919,
  " master": 5920,
  " wanting": 5921,
  "neath": 5922,
  "zed": 5923,
  " quite": 5924,
  " creations": 5925,
  " interested": 5926,
  " crawling": 5927,
  "?\".": 5928,
  " sisters": 5929,
  " Get": 5930,
  " Stay": 5931,
  " eats": 5932,
  " lick": 5933,
  " provided": 5934,
  " pant": 5935,
  " poses": 5936,
  " click": 5937,
  " sewed": 5938,
  " storekeeper": 5939,
  " blowing": 5940,
  "cuse": 5941,
  " polit": 5942,
  " politely": 5943,
  "angles": 5944,
  " frost": 5945,
  " frosting": 5946,
  " sprinkles": 5947,
  " snug": 5948,
  " feeding": 5949,
  " snat": 5950,
  " snatched": 5951,
  " fault": 5952,
  " si": 5953,
  " siren": 5954,
  " winning": 5955,
  " visiting": 5956,
  " Sophia": 5957,
  "Soph": 5958,
  "Sophia": 5959,
  " indeed": 5960,
  " Something": 5961,
  " gained": 5962,
  " examined": 5963,
  " Frank": 5964,
  " Tweetie": 5965,
  "Jason": 5966,
  " hopeful": 5967,
  " designs": 5968,
  " films": 5969,
  " grocery": 5970,
  " nervously": 5971,
  " roaring": 5972,
  " easier": 5973,
  " puppets": 5974,
  " sadder": 5975,
  "Because": 5976,
  "Qu": 5977,
  " wins": 5978,
  " mixing": 5979,
  " Welcome": 5980,
  " Since": 5981,
  " flour": 5982,
  "...": 5983,
  "int": 5984,
  " begged": 5985,
  " By": 5986,
  " sip": 5987,
  "Gary": 5988,
  " soaked": 5989,
  " refre": 5990,
  " chuck": 5991,
  " chuckled": 5992,
  " figured": 5993,
  " recipes": 5994,
  "Hurry": 5995,
  " budge": 5996,
  " cape": 5997,
  " tore": 5998,
  " slam": 5999,
  " crumb": 6000,
  " crumbs": 6001,
  " patience": 6002,
  " tricky": 6003,
  "ouch": 6004,
  " purpose": 6005,
  " simple": 6006,
  "First": 6007,
  " Both": 6008,
  " pitch": 6009,
  " scru": 6010,
  " swooped": 6011,
  " zipped": 6012,
  " purred": 6013,
  " enter": 6014,
  " Because": 6015,
  " apologized": 6016,
  " Moby": 6017,
  "Ok": 6018,
  "melia": 6019,
  " forgi": 6020,
  " image": 6021,
  "Ducky": 6022,
  " birdie": 6023,
  " badge": 6024,
  " oat": 6025,
  "Che": 6026,
  "Betty": 6027,
  " everybody": 6028,
  "ening": 6029,
  " remo": 6030,
  " removed": 6031,
  " En": 6032,
  " Enjoy": 6033,
  " awes": 6034,
  " awesome": 6035,
  " outd": 6036,
  " outdo": 6037,
  " outdoors": 6038,
  " intern": 6039,
  " internet": 6040,
  " hour": 6041,
  "ibil": 6042,
  " gotten": 6043,
  " creating": 6044,
  " pots": 6045,
  " wobbling": 6046,
  " tum": 6047,
  "mies": 6048,
  "Get": 6049,
  " spoons": 6050,
  " introduc": 6051,
  " introduced": 6052,
  " grabbing": 6053,
  " scratching": 6054,
  " leap": 6055,
  " admiration": 6056,
  "Silly": 6057,
  " releas": 6058,
  " peacefully": 6059,
  " decorations": 6060,
  " tool": 6061,
  " trembled": 6062,
  " caut": 6063,
  " twice": 6064,
  " revealed": 6065,
  "Someone": 6066,
  "Or": 6067,
  " sod": 6068,
  " soda": 6069,
  " coug": 6070,
  " arrows": 6071,
  " decorating": 6072,
  " dears": 6073,
  " squas": 6074,
  " piles": 6075,
  " height": 6076,
  " halfway": 6077,
  "ender": 6078,
  " ruby": 6079,
  " dots": 6080,
  " hearing": 6081,
  " pleasure": 6082,
  " tickle": 6083,
  "Achoo": 6084,
  " fires": 6085,
  "Uh": 6086,
  "oh": 6087,
  "Kelsie": 6088,
  " Br": 6089,
  " Brown": 6090,
  "Tilly": 6091,
  " limes": 6092,
  " isn": 6093,
  " amount": 6094,
  " hen": 6095,
  " Slow": 6096,
  " OK": 6097,
  "Splash": 6098,
  " blueberries": 6099,
  " superheroes": 6100,
  " escap": 6101,
  " escaped": 6102,
  " canes": 6103,
  " odd": 6104,
  " passen": 6105,
  " passeng": 6106,
  " passengers": 6107,
  " selling": 6108,
  "Car": 6109,
  " Soup": 6110,
  " slice": 6111,
  " satisfied": 6112,
  " teaching": 6113,
  " stolen": 6114,
  " raising": 6115,
  " lines": 6116,
  "Mmm": 6117,
  " changes": 6118,
  " solving": 6119,
  " puzzles": 6120,
  " entire": 6121,
  " explan": 6122,
  " explanation": 6123,
  " achieve": 6124,
  "ree": 6125,
  " keeps": 6126,
  "...\"": 6127,
  " unp": 6128,
  " unpacked": 6129,
  " remained": 6130,
  " prints": 6131,
  " sneaked": 6132,
  "iously": 6133,
  " contain": 6134,
  " urged": 6135,
  "Shrink": 6136,
  " ages": 6137,
  " shops": 6138,
  " knelt": 6139,
  " moo": 6140,
  " purr": 6141,
  " protecting": 6142,
  " Yesterday": 6143,
  "rrr": 6144,
  " snakes": 6145,
  "eep": 6146,
  " peas": 6147,
  " cough": 6148,
  " slapped": 6149,
  "clock": 6150,
  "Ann": 6151,
  " strikes": 6152,
  " kingdom": 6153,
  " logs": 6154,
  " Ready": 6155,
  " awhile": 6156,
  " underw": 6157,
  " underwater": 6158,
  " sorts": 6159,
  "ha": 6160,
  "Sw": 6161,
  "Chirpy": 6162,
  " distur": 6163,
  " disturb": 6164,
  " drawn": 6165,
  "retend": 6166,
  " powers": 6167,
  " fairies": 6168,
  "Jake": 6169,
  " squirrels": 6170,
  " tipped": 6171,
  " pointy": 6172,
  " twink": 6173,
  " managing": 6174,
  " spending": 6175,
  " dev": 6176,
  " upside": 6177,
  " yelling": 6178,
  " thri": 6179,
  " thrilled": 6180,
  " blocking": 6181,
  " thorn": 6182,
  " boo": 6183,
  "boo": 6184,
  " reaching": 6185,
  " robin": 6186,
  " buckle": 6187,
  " palm": 6188,
  " glasses": 6189,
  " taller": 6190,
  "Never": 6191,
  " woof": 6192,
  " Pr": 6193,
  " Prune": 6194,
  " Pruney": 6195,
  " paddled": 6196,
  " cheers": 6197,
  " claps": 6198,
  " shrug": 6199,
  " forgives": 6200,
  "aky": 6201,
  " dragons": 6202,
  " topp": 6203,
  " toppings": 6204,
  " remem": 6205,
  " rememb": 6206,
  " remembers": 6207,
  "'ve": 6208,
  " salty": 6209,
  " daisy": 6210,
  " peered": 6211,
  " unw": 6212,
  " adult": 6213,
  " adults": 6214,
  "vi": 6215,
  " Bri": 6216,
  " Brian": 6217,
  " Buzzy": 6218,
  " waff": 6219,
  " waffles": 6220,
  ".'": 6221,
  " sailors": 6222,
  "Danger": 6223,
  "George": 6224,
  " elephants": 6225,
  " Ronnie": 6226,
  " ped": 6227,
  " avo": 6228,
  " humming": 6229,
  " yesterday": 6230,
  " rocked": 6231,
  " timer": 6232,
  " Other": 6233,
  "Bill": 6234,
  "Paul": 6235,
  " spiders": 6236,
  " beast": 6237,
  " sticking": 6238,
  " worker": 6239,
  " glittery": 6240,
  " winking": 6241,
  " draws": 6242,
  "give": 6243,
  "Mill": 6244,
  " onwards": 6245,
  " fasc": 6246,
  " joining": 6247,
  " flas": 6248,
  " yogh": 6249,
  " yoghurt": 6250,
  " hates": 6251,
  " rubs": 6252,
  " beat": 6253,
  " pastels": 6254,
  " skipping": 6255,
  " treasures": 6256,
  " hides": 6257,
  " sits": 6258,
  " Pilot": 6259,
  "Dan": 6260,
  " Gina": 6261,
  "Toby": 6262,
  " famil": 6263,
  " chos": 6264,
  " chosen": 6265,
  " wiggly": 6266,
  " Tooth": 6267,
  " Fair": 6268,
  " Fairy": 6269,
  " cobwebs": 6270,
  " rats": 6271,
  " crowd": 6272,
  " sib": 6273,
  " sibl": 6274,
  " siblings": 6275,
  "Nothing": 6276,
  " truly": 6277,
  " Beck": 6278,
  " Becky": 6279,
  " cans": 6280,
  " foc": 6281,
  " focused": 6282,
  " apart": 6283,
  " praise": 6284,
  "Eat": 6285,
  " rubbing": 6286,
  " copied": 6287,
  " seconds": 6288,
  "Would": 6289,
  " photos": 6290,
  " stra": 6291,
  " straight": 6292,
  " loading": 6293,
  " rainbows": 6294,
  " below": 6295,
  " tune": 6296,
  " floaty": 6297,
  " Finny": 6298,
  "Poppy": 6299,
  " weapons": 6300,
  " Smith": 6301,
  " Mika": 6302,
  "Mika": 6303,
  " plent": 6304,
  " plenty": 6305,
  " Dinosaur": 6306,
  " Univer": 6307,
  " University": 6308,
  " icing": 6309,
  "ids": 6310,
  " differen": 6311,
  " decorated": 6312,
  " nests": 6313,
  "ongr": 6314,
  "ongrat": 6315,
  "ongratul": 6316,
  " Each": 6317,
  " freedom": 6318,
  " approached": 6319,
  " waiter": 6320,
  "Maggie": 6321,
  "raged": 6322,
  " scribb": 6323,
  " scribble": 6324,
  " Ra": 6325,
  " Rabbit": 6326,
  " screaming": 6327,
  "Mar": 6328,
  "Julie": 6329,
  " hatched": 6330,
  " cracks": 6331,
  "hello": 6332,
  "Meow": 6333,
  " squish": 6334,
  " squishy": 6335,
  " Tweety": 6336,
  " struc": 6337,
  " structure": 6338,
  " realize": 6339,
  " learns": 6340,
  " widened": 6341,
  " twirl": 6342,
  " soldi": 6343,
  " soldiers": 6344,
  " voices": 6345,
  " comple": 6346,
  " pairs": 6347,
  "Our": 6348,
  " magnif": 6349,
  " magnifying": 6350,
  " pancake": 6351,
  " control": 6352,
  " alligators": 6353,
  " erasing": 6354,
  " cheek": 6355,
  " grandad": 6356,
  " slim": 6357,
  " slimy": 6358,
  " tus": 6359,
  " tusks": 6360,
  " wonders": 6361,
  " presses": 6362,
  " Abigail": 6363,
  "Abigail": 6364,
  "Luckily": 6365,
  " Papa": 6366,
  " Adam": 6367,
  "rimp": 6368,
  "ud": 6369,
  " scares": 6370,
  " camping": 6371,
  " whiteboard": 6372,
  " vendors": 6373,
  "available": 6374,
  "but": 6375,
  " lett": 6376,
  " lettuce": 6377,
  " displayed": 6378,
  "Boo": 6379,
  " bin": 6380,
  " sledding": 6381,
  " rhy": 6382,
  " rhyth": 6383,
  " rhythm": 6384,
  " musicians": 6385,
  " Mat": 6386,
  " punishment": 6387,
  "aces": 6388,
  " froze": 6389,
  " creamy": 6390,
  " mech": 6391,
  " mechan": 6392,
  " mechanic": 6393,
  " pause": 6394,
  " herbs": 6395,
  " rising": 6396,
  " coloring": 6397,
  " Josh": 6398,
  "Beep": 6399,
  "Mina": 6400,
  " attacked": 6401,
  "Joey": 6402,
  " flav": 6403,
  " cler": 6404,
  " clerk": 6405,
  "ouncing": 6406,
  "Rise": 6407,
  " firef": 6408,
  " firefight": 6409,
  " firefighters": 6410,
  " capes": 6411,
  " Butter": 6412,
  " Yell": 6413,
  " Yellow": 6414,
  " zookeeper": 6415,
  "Johnny": 6416,
  " Uncle": 6417,
  "Thea": 6418,
  " policeman": 6419,
  " curiously": 6420,
  " appreciation": 6421,
  "Sp": 6422,
  " creativ": 6423,
  " creativity": 6424,
  "seek": 6425,
  " momma": 6426,
  " exercising": 6427,
  " lighter": 6428,
  "sm": 6429,
  " gaze": 6430,
  " Isn": 6431,
  " thro": 6432,
  " throat": 6433,
  " spat": 6434,
  " wobbled": 6435,
  " balancing": 6436,
  " breathing": 6437,
  " Sat": 6438,
  " Satur": 6439,
  " Saturday": 6440,
  " loc": 6441,
  " local": 6442,
  " include": 6443,
  " dreamt": 6444,
  "True": 6445,
  " sooner": 6446,
  ",'": 6447,
  "Fre": 6448,
  "Freeze": 6449,
  " trips": 6450,
  "Chew": 6451,
  " lang": 6452,
  " langu": 6453,
  " direction": 6454,
  "bang": 6455,
  " kneeled": 6456,
  " backs": 6457,
  "Tweet": 6458,
  " tweet": 6459,
  " becom": 6460,
  " becoming": 6461,
  " tickles": 6462,
  " scul": 6463,
  " sculpt": 6464,
  " sculpture": 6465,
  " masterp": 6466,
  " masterpie": 6467,
  " masterpiece": 6468,
  "ored": 6469,
  " flames": 6470,
  "snap": 6471,
  " possible": 6472,
  " usual": 6473,
  " waters": 6474,
  " underneath": 6475,
  "Frog": 6476,
  " possess": 6477,
  " possession": 6478,
  " awe": 6479,
  " desig": 6480,
  " designing": 6481,
  " ends": 6482,
  " sale": 6483,
  " insp": 6484,
  " inspired": 6485,
  " mate": 6486,
  " matey": 6487,
  " rubb": 6488,
  " yells": 6489,
  "vroom": 6490,
  "Zippy": 6491,
  " shirts": 6492,
  " pants": 6493,
  "rap": 6494,
  " keeper": 6495,
  "Near": 6496,
  " wears": 6497,
  "uzz": 6498,
  " snort": 6499,
  " coop": 6500,
  "Benny": 6501,
  "Excuse": 6502,
  " kites": 6503,
  "ishes": 6504,
  "riangle": 6505,
  "val": 6506,
  " united": 6507,
  " preschool": 6508,
  "Momma": 6509,
  " beha": 6510,
  " behaved": 6511,
  " glued": 6512,
  " blus": 6513,
  " blushed": 6514,
  "'.\"": 6515,
  " steer": 6516,
  " sirens": 6517,
  " parked": 6518,
  " rustling": 6519,
  " completely": 6520,
  " det": 6521,
  " detail": 6522,
  " floors": 6523,
  " Tony": 6524,
  "Bew": 6525,
  "Beware": 6526,
  "Tony": 6527,
  "Behind": 6528,
  " terrified": 6529,
  " None": 6530,
  " cous": 6531,
  " cousin": 6532,
  "Bessie": 6533,
  " Robe": 6534,
  " taps": 6535,
  " shelves": 6536,
  " rocky": 6537,
  " fer": 6538,
  " attack": 6539,
  " weight": 6540,
  " situ": 6541,
  " situation": 6542,
  " handled": 6543,
  "eater": 6544,
  " realizes": 6545,
  "Quacky": 6546,
  " Wacky": 6547,
  "reverse": 6548,
  " sobbed": 6549,
  " increas": 6550,
  " increased": 6551,
  " tastes": 6552,
  " recognizing": 6553,
  " speaking": 6554,
  "stand": 6555,
  " fut": 6556,
  " future": 6557,
  "shing": 6558,
  " matched": 6559,
  " tomatoes": 6560,
  " horri": 6561,
  " horrible": 6562,
  "Follow": 6563,
  " safet": 6564,
  " safety": 6565,
  " enem": 6566,
  " enemies": 6567,
  " stole": 6568,
  " slammed": 6569,
  " auntie": 6570,
  " frowns": 6571,
  " ironed": 6572,
  " patiently": 6573,
  " challenge": 6574,
  " wakes": 6575,
  " ouch": 6576,
  " Zo": 6577,
  " Zoe": 6578,
  " Louis": 6579,
  " appears": 6580,
  " Sleep": 6581,
  " bank": 6582,
  " ris": 6583,
  " risks": 6584,
  " guest": 6585,
  " melted": 6586,
  "Jump": 6587,
  " grandparents": 6588,
  " Six": 6589,
  " seven": 6590,
  " eight": 6591,
  " Lizard": 6592,
  " twisting": 6593,
  " rested": 6594,
  "whe": 6595,
  " streaming": 6596,
  "Amelia": 6597,
  " forgiving": 6598,
  " zebras": 6599,
  " goodnight": 6600,
  "ction": 6601,
  " delayed": 6602,
  " clues": 6603,
  " wife": 6604,
  " given": 6605,
  " tricked": 6606,
  " works": 6607,
  " swap": 6608,
  " downstairs": 6609,
  " chirped": 6610,
  " wasting": 6611,
  " widening": 6612,
  " result": 6613,
  " drinks": 6614,
  " cloudy": 6615,
  " rowed": 6616,
  "Pe": 6617,
  "Pepper": 6618,
  " gaz": 6619,
  " gazed": 6620,
  " sings": 6621,
  " drums": 6622,
  " fans": 6623,
  " responsibil": 6624,
  " responsibility": 6625,
  " stacked": 6626,
  " pans": 6627,
  "Lena": 6628,
  " urges": 6629,
  " ster": 6630,
  " stern": 6631,
  " squinted": 6632,
  " tummies": 6633,
  "pples": 6634,
  " spad": 6635,
  " spades": 6636,
  " neighbourhood": 6637,
  " gle": 6638,
  " glee": 6639,
  " Giant": 6640,
  "Big": 6641,
  "Rec": 6642,
  " sweating": 6643,
  " fooled": 6644,
  " kings": 6645,
  " chat": 6646,
  " sidel": 6647,
  " sidelines": 6648,
  " released": 6649,
  "ittered": 6650,
  " yourselves": 6651,
  " differently": 6652,
  "ences": 6653,
  "Rudy": 6654,
  "rios": 6655,
  "riosity": 6656,
  " explo": 6657,
  " coughed": 6658,
  " bottles": 6659,
  " finishing": 6660,
  " hunters": 6661,
  " shooting": 6662,
  " paints": 6663,
  "form": 6664,
  "Pete": 6665,
  " dishon": 6666,
  " dishonest": 6667,
  "isten": 6668,
  " tang": 6669,
  " tangled": 6670,
  " fluttered": 6671,
  " mushy": 6672,
  " encount": 6673,
  " curly": 6674,
  " hated": 6675,
  "bu": 6676,
  "build": 6677,
  " swims": 6678,
  " Watch": 6679,
  " rusty": 6680,
  " stung": 6681,
  " filling": 6682,
  " moats": 6683,
  " recommendation": 6684,
  " grey": 6685,
  "ities": 6686,
  " scrubbing": 6687,
  " Helping": 6688,
  " imagining": 6689,
  " farther": 6690,
  "Ste": 6691,
  " neighborhood": 6692,
  "Sammy": 6693,
  " afar": 6694,
  " Slowly": 6695,
  " dodged": 6696,
  " san": 6697,
  " sank": 6698,
  " Book": 6699,
  " Books": 6700,
  " Start": 6701,
  " Startled": 6702,
  "Olive": 6703,
  " streets": 6704,
  " Ban": 6705,
  " Banan": 6706,
  " Banana": 6707,
  " beeped": 6708,
  "Pizza": 6709,
  "ene": 6710,
  " vines": 6711,
  " flapping": 6712,
  " discoveries": 6713,
  " Mouse": 6714,
  " tone": 6715,
  " challenging": 6716,
  " cham": 6717,
  " chamber": 6718,
  " enthusiastically": 6719,
  "edic": 6720,
  "Whiskers": 6721,
  " studying": 6722,
  " lever": 6723,
  " engines": 6724,
  " groups": 6725,
  " cautiously": 6726,
  " container": 6727,
  " shrank": 6728,
  " cot": 6729,
  " requested": 6730,
  "Somet": 6731,
  "Sometimes": 6732,
  "you": 6733,
  " Off": 6734,
  " pebbles": 6735,
  " pockets": 6736,
  " windy": 6737,
  " dock": 6738,
  "Back": 6739,
  " teamwork": 6740,
  "though": 6741,
  " furt": 6742,
  " further": 6743,
  " dips": 6744,
  " shivers": 6745,
  "Brrr": 6746,
  " hissed": 6747,
  "ithered": 6748,
  " plain": 6749,
  " Keep": 6750,
  "Many": 6751,
  "Bl": 6752,
  "Blue": 6753,
  " tickled": 6754,
  " flip": 6755,
  " flips": 6756,
  "Aw": 6757,
  " sides": 6758,
  "eat": 6759,
  " puzzled": 6760,
  " fant": 6761,
  " fantastic": 6762,
  "ror": 6763,
  " exha": 6764,
  " exhaust": 6765,
  " exhausted": 6766,
  " overjoy": 6767,
  " overjoyed": 6768,
  "imming": 6769,
  " Behind": 6770,
  " Club": 6771,
  " Pretend": 6772,
  " honk": 6773,
  " quacked": 6774,
  " campf": 6775,
  " campfire": 6776,
  " twinkling": 6777,
  " warnings": 6778,
  " devast": 6779,
  " devastated": 6780,
  "awk": 6781,
  " squawk": 6782,
  " brand": 6783,
  " pancakes": 6784,
  " destroying": 6785,
  " Take": 6786,
  " These": 6787,
  " drives": 6788,
  " playd": 6789,
  " playdate": 6790,
  " copy": 6791,
  " comprom": 6792,
  " compromise": 6793,
  "eal": 6794,
  " bathrobes": 6795,
  " tops": 6796,
  " tickets": 6797,
  " sighs": 6798,
  " shrugs": 6799,
  " cheeks": 6800,
  " fireman": 6801,
  " bricks": 6802,
  " Forg": 6803,
  " Forgi": 6804,
  "veness": 6805,
  " Sque": 6806,
  " Squeaky": 6807,
  " responsible": 6808,
  " dancer": 6809,
  " pouring": 6810,
  " tar": 6811,
  " target": 6812,
  " fetches": 6813,
  " poop": 6814,
  "Ew": 6815,
  " doctors": 6816,
  " lemonade": 6817,
  " sniffs": 6818,
  " conc": 6819,
  " parts": 6820,
  " overhead": 6821,
  " locket": 6822,
  " holidays": 6823,
  " forgetting": 6824,
  "Sad": 6825,
  " ma": 6826,
  " massages": 6827,
  " Levi": 6828,
  " warmer": 6829,
  " correct": 6830,
  " deser": 6831,
  " deserve": 6832,
  "Coco": 6833,
  " Froggy": 6834,
  " stum": 6835,
  " stumble": 6836,
  " triangles": 6837,
  " reward": 6838,
  " scamp": 6839,
  " scampered": 6840,
  " admiring": 6841,
  "Cra": 6842,
  " Time": 6843,
  " snuck": 6844,
  "Grace": 6845,
  " pedall": 6846,
  " pedalling": 6847,
  " Being": 6848,
  " fact": 6849,
  " obl": 6850,
  " oblig": 6851,
  " oblige": 6852,
  " avoid": 6853,
  " tapping": 6854,
  " mug": 6855,
  "Abby": 6856,
  " burying": 6857,
  " Small": 6858,
  " chores": 6859,
  " monsters": 6860,
  " ghosts": 6861,
  " spook": 6862,
  " spooky": 6863,
  " Pl": 6864,
  " Planes": 6865,
  " sore": 6866,
  "Fiona": 6867,
  " Fiona": 6868,
  " However": 6869,
  " Pig": 6870,
  " Pigeon": 6871,
  " simply": 6872,
  " cooed": 6873,
  " hesitation": 6874,
  " fascin": 6875,
  " fascinated": 6876,
  " amused": 6877,
  "Cat": 6878,
  " backwards": 6879,
  "Freddy": 6880,
  "why": 6881,
  " flashing": 6882,
  " tastiest": 6883,
  "Friend": 6884,
  "Friends": 6885,
  " baths": 6886,
  " kill": 6887,
  " rin": 6888,
  " rinse": 6889,
  "free": 6890,
  " snuggles": 6891,
  " smoothly": 6892,
  " surrounded": 6893,
  " worn": 6894,
  " blows": 6895,
  " newf": 6896,
  " newfound": 6897,
  "Put": 6898,
  " leading": 6899,
  " blush": 6900,
  "ently": 6901,
  " opening": 6902,
  " struggled": 6903,
  " rubble": 6904,
  " prick": 6905,
  " prickly": 6906,
  " wiping": 6907,
  " tam": 6908,
  " tambour": 6909,
  "Hmm": 6910,
  "Out": 6911,
  " agreement": 6912,
  " jack": 6913,
  " jacket": 6914,
  " Wait": 6915,
  " tumbled": 6916,
  " yelp": 6917,
  " comforting": 6918,
  " stitch": 6919,
  " annoy": 6920,
  " insist": 6921,
  " builders": 6922,
  " generos": 6923,
  " generosity": 6924,
  "Drink": 6925,
  "Elly": 6926,
  "Ralph": 6927,
  " chin": 6928,
  " springing": 6929,
  "Red": 6930,
  " scolds": 6931,
  " teaches": 6932,
  " drummer": 6933,
  " neither": 6934,
  " Clock": 6935,
  " ignorance": 6936,
  "Sunny": 6937,
  " cent": 6938,
  " bulbs": 6939,
  " wed": 6940,
  " wedding": 6941,
  " Birth": 6942,
  " Birthday": 6943,
  " plug": 6944,
  "Rose": 6945,
  " expected": 6946,
  " Jethro": 6947,
  " clubhouse": 6948,
  "Jethro": 6949,
  "isingly": 6950,
  " organizing": 6951,
  " tipto": 6952,
  " tiptoed": 6953,
  " munch": 6954,
  " munching": 6955,
  " avocad": 6956,
  " avocados": 6957,
  " rap": 6958,
  " crocodiles": 6959,
  " paddle": 6960,
  " lav": 6961,
  " lavender": 6962,
  " pom": 6963,
  "pom": 6964,
  " grounds": 6965,
  " embarrass": 6966,
  " begin": 6967,
  " beginning": 6968,
  " beans": 6969,
  " quacking": 6970,
  " shall": 6971,
  " bowed": 6972,
  " grassy": 6973,
  " seems": 6974,
  " apr": 6975,
  " apron": 6976,
  " spoken": 6977,
  " sending": 6978,
  " difference": 6979,
  " crops": 6980,
  " glist": 6981,
  " glistened": 6982,
  " congratul": 6983,
  " congratulated": 6984,
  " kindly": 6985,
  " memb": 6986,
  " members": 6987,
  " single": 6988,
  " rever": 6989,
  " families": 6990,
  " strip": 6991,
  " hisses": 6992,
  " squashes": 6993,
  " quietly": 6994,
  " wobble": 6995,
  " thud": 6996,
  " dar": 6997,
  " darling": 6998,
  " scoop": 6999,
  " encouraged": 7000,
  " attem": 7001,
  " knights": 7002,
  " prettiest": 7003,
  " exa": 7004,
  " exact": 7005,
  " exactly": 7006,
  " circled": 7007,
  " oysters": 7008,
  "Run": 7009,
  " scribbled": 7010,
  " sports": 7011,
  " enjoyment": 7012,
  " flight": 7013,
  " attend": 7014,
  " attendant": 7015,
  " nearly": 7016,
  " outing": 7017,
  " succeeded": 7018,
  "Maria": 7019,
  "!'.": 7020,
  " fir": 7021,
  " firm": 7022,
  " firmly": 7023,
  " reun": 7024,
  " whistled": 7025,
  " sleeps": 7026,
  " diving": 7027,
  " outf": 7028,
  " outfit": 7029,
  " stable": 7030,
  " hearts": 7031,
  " snows": 7032,
  " buckles": 7033,
  " neighs": 7034,
  " forgets": 7035,
  " smash": 7036,
  " invitations": 7037,
  " trad": 7038,
  " comfy": 7039,
  " skunk": 7040,
  " peeking": 7041,
  " dragged": 7042,
  " bumps": 7043,
  " decoration": 7044,
  " handsome": 7045,
  "aly": 7046,
  " bumping": 7047,
  " bars": 7048,
  " lend": 7049,
  " completed": 7050,
  " mission": 7051,
  "rench": 7052,
  " stead": 7053,
  " steady": 7054,
  " explorer": 7055,
  " fishermen": 7056,
  "Doggy": 7057,
  " wipes": 7058,
  " squares": 7059,
  " born": 7060,
  " fever": 7061,
  "Swamp": 7062,
  " Sw": 7063,
  " Smoke": 7064,
  " potatoes": 7065,
  " softest": 7066,
  "ows": 7067,
  " cin": 7068,
  " cinnam": 7069,
  " cinnamon": 7070,
  " performers": 7071,
  " notices": 7072,
  " glittering": 7073,
  " Try": 7074,
  " tongues": 7075,
  " spraying": 7076,
  "Bow": 7077,
  " sweets": 7078,
  " puff": 7079,
  " aware": 7080,
  " Out": 7081,
  "mach": 7082,
  " cheering": 7083,
  " Shrimp": 7084,
  " Of": 7085,
  " sometime": 7086,
  " wandering": 7087,
  " dived": 7088,
  "Uncle": 7089,
  " ill": 7090,
  " argued": 7091,
  "ups": 7092,
  " knives": 7093,
  "Honey": 7094,
  " chilly": 7095,
  " collection": 7096,
  " died": 7097,
  " giggling": 7098,
  " marks": 7099,
  " gracefully": 7100,
  " roads": 7101,
  " striped": 7102,
  " Ice": 7103,
  " tested": 7104,
  "Bang": 7105,
  " overcome": 7106,
  "zoom": 7107,
  "apt": 7108,
  " challenges": 7109,
  " argu": 7110,
  " arguing": 7111,
  " Sock": 7112,
  " Matty": 7113,
  " cages": 7114,
  " brakes": 7115,
  " respond": 7116,
  " brightened": 7117,
  " Once": 7118,
  " massag": 7119,
  " volume": 7120,
  " Kids": 7121,
  " stain": 7122,
  " stains": 7123,
  "itu": 7124,
  "itude": 7125,
  " Bally": 7126,
  " source": 7127,
  "stantly": 7128,
  " cuc": 7129,
  " refreshed": 7130,
  " vac": 7131,
  " vacation": 7132,
  " horns": 7133,
  " furious": 7134,
  "Lou": 7135,
  "Louise": 7136,
  " wobbly": 7137,
  " raccoons": 7138,
  "Emily": 7139,
  " edges": 7140,
  " shorts": 7141,
  " contest": 7142,
  " losing": 7143,
  "Vroom": 7144,
  " spaces": 7145,
  " spaceship": 7146,
  " sails": 7147,
  " Sad": 7148,
  " Sadly": 7149,
  " hallway": 7150,
  " tidying": 7151,
  " milder": 7152,
  " cowboy": 7153,
  " seller": 7154,
  "bly": 7155,
  " Always": 7156,
  " rains": 7157,
  " court": 7158,
  " flavors": 7159,
  " skills": 7160,
  " serving": 7161,
  " wisest": 7162,
  " pouncing": 7163,
  " Rock": 7164,
  " Rocky": 7165,
  " whispers": 7166,
  " patrol": 7167,
  "Exit": 7168,
  " permitt": 7169,
  " permitted": 7170,
  "Rhys": 7171,
  "Snap": 7172,
  "Pinky": 7173,
  " express": 7174,
  " Jam": 7175,
  " Orange": 7176,
  " payo": 7177,
  " payoff": 7178,
  " complaining": 7179,
  "Mop": 7180,
  " memor": 7181,
  " memories": 7182,
  " melting": 7183,
  " cutting": 7184,
  " shor": 7185,
  " shorter": 7186,
  " aud": 7187,
  " audience": 7188,
  " cells": 7189,
  " coy": 7190,
  " coyote": 7191,
  " desert": 7192,
  " pit": 7193,
  " Thea": 7194,
  " vas": 7195,
  " vases": 7196,
  "Spirit": 7197,
  "Spirits": 7198,
  " drip": 7199,
  " vibr": 7200,
  " vibrations": 7201,
  " howled": 7202,
  " backed": 7203,
  " weighed": 7204,
  " weig": 7205,
  " weighing": 7206,
  "smell": 7207,
  "smelling": 7208,
  " rely": 7209,
  "Rex": 7210,
  " ache": 7211,
  " bait": 7212,
  " questioned": 7213,
  " Woof": 7214,
  " Fight": 7215,
  " Fighting": 7216,
  " surfac": 7217,
  " surfaced": 7218,
  " conqu": 7219,
  " conquered": 7220,
  " bravery": 7221,
  " language": 7222,
  " languages": 7223,
  " rises": 7224,
  " kneeling": 7225,
  " Only": 7226,
  " bobbed": 7227,
  " forming": 7228,
  " artwork": 7229,
  " restored": 7230,
  " dam": 7231,
  " damage": 7232,
  " season": 7233,
  " written": 7234,
  " Pond": 7235,
  " fame": 7236,
  " prized": 7237,
  " stamped": 7238,
  "Act": 7239,
  "Actually": 7240,
  " arr": 7241,
  " arranged": 7242,
  " charity": 7243,
  "hi": 7244,
  " allows": 7245,
  " tallest": 7246,
  " motiv": 7247,
  " motivation": 7248,
  " energet": 7249,
  " energetic": 7250,
  " zone": 7251,
  " surrounding": 7252,
  " stomp": 7253,
  " discussed": 7254,
  " faire": 7255,
  " fairer": 7256,
  "Ahoy": 7257,
  " shovels": 7258,
  " rubber": 7259,
  " tails": 7260,
  " licking": 7261,
  " scarves": 7262,
  " skirts": 7263,
  " socks": 7264,
  " photog": 7265,
  " photograp": 7266,
  " photographer": 7267,
  " props": 7268,
  " Smile": 7269,
  " clicks": 7270,
  " dip": 7271,
  " trudged": 7272,
  " Never": 7273,
  "excuse": 7274,
  " oink": 7275,
  " itches": 7276,
  " forehead": 7277,
  "Star": 7278,
  " mun": 7279,
  " munches": 7280,
  " nuzz": 7281,
  " nuzzles": 7282,
  " stroke": 7283,
  " finishes": 7284,
  " untangles": 7285,
  " Triangle": 7286,
  " Rect": 7287,
  " Rectangle": 7288,
  " Oval": 7289,
  " presents": 7290,
  " snugly": 7291,
  "King": 7292,
  " combed": 7293,
  " handful": 7294,
  " ignition": 7295,
  "Should": 7296,
  " honks": 7297,
  " jams": 7298,
  " monum": 7299,
  " monument": 7300,
  " halo": 7301,
  "Whe": 7302,
  "Whee": 7303,
  " neare": 7304,
  " nearest": 7305,
  " designed": 7306,
  " notebooks": 7307,
  " bitten": 7308,
  " sobbing": 7309,
  " hood": 7310,
  " hooded": 7311,
  " feroc": 7312,
  " ferocious": 7313,
  " growling": 7314,
  " faced": 7315,
  "Ruby": 7316,
  " pier": 7317,
  " pierced": 7318,
  " needles": 7319,
  " Quacky": 7320,
  " arom": 7321,
  " aroma": 7322,
  " ket": 7323,
  " ketch": 7324,
  " ketchup": 7325,
  "interest": 7326,
  "interesting": 7327,
  " recipe": 7328,
  " balanced": 7329,
  " failed": 7330,
  "Ally": 7331,
  " replies": 7332,
  " batteries": 7333,
  " swapping": 7334,
  " Sil": 7335,
  " Silence": 7336,
  "Under": 7337,
  "Understand": 7338,
  "Understanding": 7339,
  " quench": 7340,
  " sludge": 7341,
  " perched": 7342,
  " cleaner": 7343,
  " silk": 7344,
  " dun": 7345,
  " dunked": 7346,
  " refreshing": 7347,
  " announ": 7348,
  " announced": 7349,
  " thus": 7350,
  " jumbled": 7351,
  " leader": 7352,
  " runner": 7353,
  " ribbons": 7354,
  " threat": 7355,
  "Use": 7356,
  " defe": 7357,
  " defeat": 7358,
  " imaginat": 7359,
  " imaginative": 7360,
  " ironing": 7361,
  " tack": 7362,
  " tackled": 7363,
  " loses": 7364,
  " Ter": 7365,
  " Terri": 7366,
  " Terrified": 7367,
  " scrubbed": 7368,
  " clearing": 7369,
  "Ziggy": 7370,
  "Moby": 7371,
  " vain": 7372,
  " anybody": 7373,
  " scurry": 7374,
  " scurrying": 7375,
  " buying": 7376,
  "Trust": 7377,
  " unlike": 7378,
  " hesitantly": 7379,
  " supported": 7380,
  " shivered": 7381,
  " Snake": 7382,
  " bending": 7383,
  "Stand": 7384,
  " Amelia": 7385,
  " cartwhe": 7386,
  " cartwheels": 7387,
  " goodness": 7388,
  " sacks": 7389,
  "Zara": 7390,
  " classm": 7391,
  " classmate": 7392,
  " science": 7393,
  " presentation": 7394,
  " self": 7395,
  " selfless": 7396,
  " jigg": 7397,
  " jiggled": 7398,
  " travels": 7399,
  " 8": 7400,
  " cm": 7401,
  " reason": 7402,
  " Thanks": 7403,
  " refle": 7404,
  " reflection": 7405,
  " images": 7406,
  " delaying": 7407,
  "ok": 7408,
  "Fish": 7409,
  " badges": 7410,
  " footp": 7411,
  " footpr": 7412,
  " footprint": 7413,
  " footprints": 7414,
  " wrappers": 7415,
  " hesitant": 7416,
  "friend": 7417,
  "fun": 7418,
  " suggests": 7419,
  " tot": 7420,
  " totally": 7421,
  "she": 7422,
  "Cheer": 7423,
  "Cheerfully": 7424,
  " aller": 7425,
  " allerg": 7426,
  " allergic": 7427,
  " itchy": 7428,
  " Seeing": 7429,
  " wailed": 7430,
  " Fish": 7431,
  " bushy": 7432,
  " peacefulness": 7433,
  " grocer": 7434,
  " groceries": 7435,
  " ais": 7436,
  " aisle": 7437,
  " Pray": 7438,
  " Praying": 7439,
  " thankfulness": 7440,
  " journeys": 7441,
  " burnt": 7442,
  " polar": 7443,
  " walr": 7444,
  " walrus": 7445,
  "no": 7446,
  " quieter": 7447,
  " Really": 7448,
  " sizz": 7449,
  " sizzled": 7450,
  " squeal": 7451,
  " healed": 7452,
  " dances": 7453,
  " stash": 7454,
  " Another": 7455,
  " sill": 7456,
  " sillier": 7457,
  " umbrell": 7458,
  " umbrellas": 7459,
  " creak": 7460,
  " sincere": 7461,
  " watering": 7462,
  " cras": 7463,
  " crashes": 7464,
  " kayaking": 7465,
  " hover": 7466,
  " hovering": 7467,
  " paddling": 7468,
  "Apples": 7469,
  " gleefully": 7470,
  "Ug": 7471,
  "Ugh": 7472,
  " rej": 7473,
  " rejected": 7474,
  " lifeless": 7475,
  " ome": 7476,
  " omelet": 7477,
  " omelette": 7478,
  " loads": 7479,
  " stuffed": 7480,
  " wanna": 7481,
  " twig": 7482,
  " twigs": 7483,
  "Record": 7484,
  " hotter": 7485,
  " engul": 7486,
  " engulf": 7487,
  " hars": 7488,
  " harsher": 7489,
  " colder": 7490,
  " Life": 7491,
  " shrunk": 7492,
  " untied": 7493,
  " awake": 7494,
  " linked": 7495,
  " syn": 7496,
  " sync": 7497,
  " bound": 7498,
  " farmy": 7499,
  " farmyard": 7500,
  " crept": 7501,
  " lessons": 7502,
  " conser": 7503,
  " conserv": 7504,
  " conservation": 7505,
  " littered": 7506,
  " environ": 7507,
  " environment": 7508,
  " comm": 7509,
  " commun": 7510,
  " community": 7511,
  " serv": 7512,
  " service": 7513,
  " conse": 7514,
  " consequ": 7515,
  " consequences": 7516,
  " drift": 7517,
  " incredib": 7518,
  " incredibly": 7519,
  " Nothing": 7520,
  " drifted": 7521,
  " vent": 7522,
  " ventured": 7523,
  "However": 7524,
  " curiosity": 7525,
  " caution": 7526,
  " banged": 7527,
  " exploded": 7528,
  " fizzy": 7529,
  " trans": 7530,
  " transform": 7531,
  " transformed": 7532,
  "cream": 7533,
  " squashed": 7534,
  " unfair": 7535,
  " Listen": 7536,
  " demands": 7537,
  " whiz": 7538,
  " arriving": 7539,
  "match": 7540,
  " hike": 7541,
  " meadows": 7542,
  " \n\n": 7543,
  " unable": 7544,
  " tender": 7545,
  " tenderly": 7546,
  " Frog": 7547,
  " encountered": 7548,
  " cracked": 7549,
  " Bugsy": 7550,
  " boss": 7551,
  " bouncing": 7552,
  " ope": 7553,
  " playm": 7554,
  " playmates": 7555,
  " lunchbox": 7556,
  " lunchboxes": 7557,
  " broom": 7558,
  "building": 7559,
  " disagree": 7560,
  " unz": 7561,
  " unzip": 7562,
  " chop": 7563,
  " chats": 7564,
  " ignoring": 7565,
  "Zip": 7566,
  "Rain": 7567,
  " recommending": 7568,
  " ditch": 7569,
  " overf": 7570,
  " overflow": 7571,
  "Quick": 7572,
  " plat": 7573,
  " platform": 7574,
  "Still": 7575,
  " possibil": 7576,
  " possibilities": 7577,
  " streamers": 7578,
  " mopping": 7579,
  " banner": 7580,
  " cupc": 7581,
  " cupcakes": 7582,
  " festive": 7583,
  " spect": 7584,
  " spectac": 7585,
  " spectacular": 7586,
  " guests": 7587,
  " squeez": 7588,
  " squeezing": 7589,
  " encounter": 7590,
  " cuddles": 7591,
  "Steel": 7592,
  " Steel": 7593,
  " wondering": 7594,
  " month": 7595,
  " months": 7596,
  " spins": 7597,
  " greet": 7598,
  " greeted": 7599,
  " hens": 7600,
  " warmth": 7601,
  " squawked": 7602,
  " leaning": 7603,
  " blueberry": 7604,
  " messes": 7605,
  " purpos": 7606,
  " purposes": 7607,
  " gathering": 7608,
  " gall": 7609,
  " gallop": 7610,
  " galloped": 7611,
  " countryside": 7612,
  "Sun": 7613,
  " Splash": 7614,
  " coord": 7615,
  " coordination": 7616,
  " splitting": 7617,
  " blade": 7618,
  "Pret": 7619,
  "Pretty": 7620,
  " grandch": 7621,
  " grandchild": 7622,
  " cho": 7623,
  " chopped": 7624,
  " treated": 7625,
  " bows": 7626,
  "thr": 7627,
  "through": 7628,
  " wow": 7629,
  " chees": 7630,
  " cheesy": 7631,
  " vit": 7632,
  " vitam": 7633,
  " vitamins": 7634,
  " fiber": 7635,
  " scene": 7636,
  " Around": 7637,
  " orang": 7638,
  " oranges": 7639,
  " cores": 7640,
  " intend": 7641,
  " intended": 7642,
  " solut": 7643,
  " solution": 7644,
  " knowled": 7645,
  " knowledge": 7646,
  " perse": 7647,
  " persever": 7648,
  " perseverance": 7649,
  " appr": 7650,
  " approp": 7651,
  " appropri": 7652,
  " appropriately": 7653,
  " dedic": 7654,
  " dedication": 7655,
  " desire": 7656,
  "Tree": 7657,
  " printed": 7658,
  " crouch": 7659,
  " Acc": 7660,
  " Accident": 7661,
  " Accidents": 7662,
  " writer": 7663,
  " blooms": 7664,
  " 1": 7665,
  " 10": 7666,
  " 9": 7667,
  " scores": 7668,
  " swipes": 7669,
  " levers": 7670,
  " mummies": 7671,
  " stench": 7672,
  " realizing": 7673,
  " airpl": 7674,
  " airplanes": 7675,
  "Wake": 7676,
  "saur": 7677,
  " shrinks": 7678,
  " Fun": 7679,
  " Batter": 7680,
  " Batteries": 7681,
  " cotton": 7682,
  "brown": 7683,
  " squat": 7684,
  " squatted": 7685,
  " mooed": 7686,
  " Spicy": 7687,
  "Three": 7688,
  "Nearby": 7689,
  " napped": 7690,
  "Surprised": 7691,
  "Waffle": 7692,
  " scored": 7693,
  " Although": 7694,
  " touches": 7695,
  " slithered": 7696,
  " catc": 7697,
  " catcher": 7698,
  " librarian": 7699,
  "Ball": 7700,
  " paying": 7701,
  "strike": 7702,
  " cott": 7703,
  " cottage": 7704,
  "TH": 7705,
  "THE": 7706,
  " rider": 7707,
  " resists": 7708,
  " Does": 7709,
  " Head": 7710,
  " Heads": 7711,
  " Tail": 7712,
  " Tails": 7713,
  " Okay": 7714,
  " climber": 7715,
  " Seat": 7716,
  " Linda": 7717,
  "col": 7718,
  "colour": 7719,
  "coloured": 7720,
  " shown": 7721,
  "Aww": 7722,
  " pul": 7723,
  " pulp": 7724,
  " spatter": 7725,
  " spattered": 7726,
  "Amanda": 7727,
  " horror": 7728,
  " greens": 7729,
  " salads": 7730,
  " twists": 7731,
  "Swimming": 7732,
  " Yet": 7733,
  " ripples": 7734,
  " glid": 7735,
  " gliding": 7736,
  "Pretend": 7737,
  " princesses": 7738,
  " reads": 7739,
  " girly": 7740,
  " lied": 7741,
  "Mo": 7742,
  "Isn": 7743,
  " campground": 7744,
  "Recommend": 7745,
  " antic": 7746,
  " anticip": 7747,
  " anticipation": 7748,
  "!?\",": 7749,
  "squawk": 7750,
  " popping": 7751,
  " railway": 7752,
  " sly": 7753,
  " slyly": 7754,
  " whipped": 7755,
  "Move": 7756,
  " rather": 7757,
  " preventing": 7758,
  " Turt": 7759,
  " Turtle": 7760,
  " belts": 7761,
  " Gr": 7762,
  " Grumpy": 7763,
  " sprays": 7764,
  " Deal": 7765,
  "Deal": 7766,
  " Tag": 7767,
  " heroes": 7768,
  " blooming": 7769,
  " demanding": 7770,
  " amu": 7771,
  " amuse": 7772,
  " amusement": 7773,
  " roller": 7774,
  " coaster": 7775,
  " ferr": 7776,
  " ferris": 7777,
  " Choose": 7778,
  "Hop": 7779,
  " twinkled": 7780,
  "Goodnight": 7781,
  " Goodnight": 7782,
  " angr": 7783,
  " angrily": 7784,
  "Monica": 7785,
  "June": 7786,
  " Forgiving": 7787,
  " Forgiveness": 7788,
  " third": 7789,
  " blast": 7790,
  " noses": 7791,
  " apologizes": 7792,
  " candies": 7793,
  " swip": 7794,
  " swiped": 7795,
  " promises": 7796,
  " buys": 7797,
  " yielded": 7798,
  " hesitated": 7799,
  " wrink": 7800,
  " wrinkled": 7801,
  "Meal": 7802,
  " concer": 7803,
  " concerned": 7804,
  " becomes": 7805,
  " da": 7806,
  " dais": 7807,
  " daisies": 7808,
  " bou": 7809,
  " bouqu": 7810,
  " bouquet": 7811,
  " leaking": 7812,
  " including": 7813,
  " frightening": 7814,
  " gawk": 7815,
  "Ca": 7816,
  "Caut": 7817,
  "Cautiously": 7818,
  " unwra": 7819,
  " unwrapping": 7820,
  " belongings": 7821,
  " rebuild": 7822,
  " jumper": 7823,
  " mustn": 7824,
  " engross": 7825,
  " engrossed": 7826,
  "Catch": 7827,
  "Rude": 7828,
  " mailed": 7829,
  " machines": 7830,
  "Levi": 7831,
  " Spid": 7832,
  " Spiders": 7833,
  " inch": 7834,
  " correctly": 7835,
  "Lydia": 7836,
  " friendships": 7837,
  " lily": 7838,
  " pads": 7839,
  "Bu": 7840,
  "Buzzy": 7841,
  "?'": 7842,
  " hab": 7843,
  " habit": 7844,
  " tem": 7845,
  " tempt": 7846,
  " tempting": 7847,
  " sweetest": 7848,
  " melo": 7849,
  " melod": 7850,
  " melodies": 7851,
  " desp": 7852,
  " despite": 7853,
  "Crazy": 7854,
  " Cra": 7855,
  " Crazy": 7856,
  " Eat": 7857,
  "Soup": 7858,
  " smiley": 7859,
  " Tuesdays": 7860,
  " tossed": 7861,
  "Dangerous": 7862,
  " Taking": 7863,
  "Dream": 7864,
  "Dreams": 7865,
  " jer": 7866,
  " jerked": 7867,
  " unh": 7868,
  " unharm": 7869,
  " unharmed": 7870,
  "Ronnie": 7871,
  "Thankfully": 7872,
  " tasting": 7873,
  " giggles": 7874,
  " queens": 7875,
  " Turn": 7876,
  " Turns": 7877,
  " applause": 7878,
  "Yummy": 7879,
  " mitt": 7880,
  " packing": 7881,
  " hudd": 7882,
  " huddled": 7883,
  " figures": 7884,
  " childhood": 7885,
  "Stu": 7886,
  "Study": 7887,
  "Studying": 7888,
  " invent": 7889,
  " inventions": 7890,
  " moan": 7891,
  " moaned": 7892,
  " web": 7893,
  " webs": 7894,
  " disgusted": 7895,
  "Frustrated": 7896,
  " Comet": 7897,
  " Comets": 7898,
  " Tell": 7899,
  " Upon": 7900,
  " softened": 7901,
  " response": 7902,
  " arrival": 7903,
  " counts": 7904,
  "bel": 7905,
  "belie": 7906,
  "believe": 7907,
  " uniforms": 7908,
  "Bibi": 7909,
  " bakes": 7910,
  " weighs": 7911,
  " pound": 7912,
  " pounds": 7913,
  " visitors": 7914,
  " staying": 7915,
  " desserts": 7916,
  " bothered": 7917,
  " kinder": 7918,
  " retur": 7919,
  " returning": 7920,
  " screens": 7921,
  " meaning": 7922,
  " snaps": 7923,
  " Fleas": 7924,
  " whine": 7925,
  " fills": 7926,
  " trusts": 7927,
  " splashes": 7928,
  " stro": 7929,
  " strokes": 7930,
  "cause": 7931,
  "Up": 7932,
  " creep": 7933,
  " creepy": 7934,
  " thug": 7935,
  " thugs": 7936,
  " shak": 7937,
  " shaken": 7938,
  " sandcast": 7939,
  " sandcastles": 7940,
  " playgrounds": 7941,
  " passing": 7942,
  " purrs": 7943,
  " twirls": 7944,
  " meows": 7945,
  " wept": 7946,
  " awoke": 7947,
  "Cost": 7948,
  "Costume": 7949,
  " Par": 7950,
  " Party": 7951,
  " honked": 7952,
  " Paper": 7953,
  " Show": 7954,
  " closes": 7955,
  " closing": 7956,
  " Close": 7957,
  " Wish": 7958,
  " unwrap": 7959,
  "Pilot": 7960,
  " stroll": 7961,
  " strolled": 7962,
  "Boom": 7963,
  " silently": 7964,
  " gran": 7965,
  " granted": 7966,
  "Only": 7967,
  " dates": 7968,
  "Stri": 7969,
  "Strike": 7970,
  " Catch": 7971,
  " entran": 7972,
  " entranced": 7973,
  " chara": 7974,
  " charac": 7975,
  " character": 7976,
  " characters": 7977,
  " plot": 7978,
  " famili": 7979,
  " familiar": 7980,
  " climax": 7981,
  " predic": 7982,
  " predicted": 7983,
  " accom": 7984,
  " accompl": 7985,
  " accomplish": 7986,
  " accomplishment": 7987,
  " astr": 7988,
  " astron": 7989,
  " astrona": 7990,
  " astronauts": 7991,
  " Run": 7992,
  " tink": 7993,
  " tinkling": 7994,
  " Pretending": 7995,
  " repeating": 7996,
  "hot": 7997,
  " awo": 7998,
  " awoken": 7999,
  " creaking": 8000,
  " cacti": 8001,
  " crowds": 8002,
  " asse": 8003,
  " assemb": 8004,
  " assembled": 8005,
  " sax": 8006,
  " saxoph": 8007,
  " saxophone": 8008,
  " clar": 8009,
  " clarin": 8010,
  " clarinet": 8011,
  " tambourines": 8012,
  " hea": 8013,
  " heaven": 8014,
  " kneels": 8015,
  "Wild": 8016,
  " Well": 8017,
  "Shout": 8018,
  "Shouts": 8019,
  " magnific": 8020,
  " magnificent": 8021,
  " peak": 8022,
  " towered": 8023,
  " fum": 8024,
  " fuming": 8025,
  " slopes": 8026,
  " goo": 8027,
  " googly": 8028,
  " shudd": 8029,
  " shuddered": 8030,
  " jackets": 8031,
  " collars": 8032,
  " tippy": 8033,
  "toes": 8034,
  " shed": 8035,
  " Gently": 8036,
  " device": 8037,
  " intr": 8038,
  " intrig": 8039,
  " intrigued": 8040,
  " tables": 8041,
  "Throw": 8042,
  " yelped": 8043,
  " releasing": 8044,
  " stitched": 8045,
  " sneakers": 8046,
  " annoyed": 8047,
  " insisting": 8048,
  " sends": 8049,
  " misses": 8050,
  " replyed": 8051,
  " conf": 8052,
  " confident": 8053,
  " confidently": 8054,
  " knowingly": 8055,
  " smallest": 8056,
  " peep": 8057,
  " peeped": 8058,
  "Miaow": 8059,
  " fuzzy": 8060,
  " Lots": 8061,
  " performing": 8062,
  " thinner": 8063,
  " compared": 8064,
  " matters": 8065,
  "Baby": 8066,
  "Rosie": 8067,
  "reliable": 8068,
  "Fis": 8069,
  "Fisher": 8070,
  "Fisherman": 8071,
  " Nations": 8072,
  " Canad": 8073,
  " Canada": 8074,
  " China": 8075,
  " France": 8076,
  " cul": 8077,
  " culture": 8078,
  " cultures": 8079,
  " Learn": 8080,
  " tambourine": 8081,
  " bene": 8082,
  " beneath": 8083,
  " panting": 8084,
  " trumpeter": 8085,
  "Pass": 8086,
  " Cream": 8087,
  " dropping": 8088,
  " lumpy": 8089,
  "Cl": 8090,
  "Clock": 8091,
  " dripped": 8092,
  " ge": 8093,
  " geese": 8094,
  " swans": 8095,
  " Steak": 8096,
  "Gu": 8097,
  "Guess": 8098,
  " Dinner": 8099,
  " Es": 8100,
  " Especially": 8101,
  " center": 8102,
  " gardens": 8103,
  " suppl": 8104,
  " supplied": 8105,
  " swimmer": 8106,
  " foxes": 8107,
  " slipping": 8108,
  " Sure": 8109,
  " earn": 8110,
  " newspapers": 8111,
  " comforts": 8112,
  " Surpr": 8113,
  " Surprisingly": 8114,
  " weaker": 8115,
  " Whoever": 8116,
  " dent": 8117,
  " denting": 8118,
  " grandsons": 8119,
  " Last": 8120,
  " Lastly": 8121,
  "BA": 8122,
  "BAN": 8123,
  "BANG": 8124,
  " Po": 8125,
  " Poor": 8126,
  " exploration": 8127,
  " addition": 8128,
  " soundly": 8129,
  "Gerry": 8130,
  " rapids": 8131,
  " curre": 8132,
  " current": 8133,
  "Want": 8134,
  "Harry": 8135,
  " shoulders": 8136,
  "throw": 8137,
  "throwing": 8138,
  "Purp": 8139,
  "Purple": 8140,
  "Like": 8141,
  " matching": 8142,
  " darl": 8143,
  " darlings": 8144,
  " lighting": 8145,
  " poster": 8146,
  "Dis": 8147,
  "Display": 8148,
  " Day": 8149,
  "Manny": 8150,
  " bursts": 8151,
  " centre": 8152,
  " rapid": 8153,
  " rapidly": 8154,
  " guards": 8155,
  " surprisingly": 8156,
  " chief": 8157,
  " weren": 8158,
  " gentlen": 8159,
  " gentleness": 8160,
  " Dog": 8161,
  " giants": 8162,
  " clowns": 8163,
  "Over": 8164,
  " tipping": 8165,
  " reeds": 8166,
  " guns": 8167,
  " differences": 8168,
  " snuggly": 8169,
  " painful": 8170,
  "Seeing": 8171,
  " quarreled": 8172,
  " donkey": 8173,
  " jobs": 8174,
  " \"'": 8175,
  "Naughty": 8176,
  " playroom": 8177,
  " accidents": 8178,
  "find": 8179,
  "send": 8180,
  " elated": 8181,
  " acts": 8182,
  " planting": 8183,
  " sow": 8184,
  " sowing": 8185,
  " harv": 8186,
  " harvest": 8187,
  " hire": 8188,
  " workers": 8189,
  " buzzed": 8190,
  " sou": 8191,
  " souven": 8192,
  " souvenir": 8193,
  " souvenirs": 8194,
  " crou": 8195,
  " crouched": 8196,
  " lolly": 8197,
  " reminds": 8198,
  " wee": 8199,
  " weeke": 8200,
  " weekend": 8201,
  " weekends": 8202,
  "Rachel": 8203,
  " tourn": 8204,
  " tournam": 8205,
  " tournament": 8206,
  " tournaments": 8207,
  " troph": 8208,
  " trophies": 8209,
  "Feed": 8210,
  " fail": 8211,
  " advant": 8212,
  " advantage": 8213,
  " toss": 8214,
  " tosses": 8215,
  " spew": 8216,
  " spewed": 8217,
  " bothers": 8218,
  " unbe": 8219,
  " unbeara": 8220,
  " unbearable": 8221,
  " mur": 8222,
  " murky": 8223,
  " rubbish": 8224,
  " reversing": 8225,
  "Shoo": 8226,
  " spits": 8227,
  " wiggle": 8228,
  " chatting": 8229,
  "because": 8230,
  " surrendering": 8231,
  " surrendered": 8232,
  " longing": 8233,
  " rake": 8234,
  " raking": 8235,
  " mines": 8236,
  " minesha": 8237,
  " mineshaft": 8238,
  " unstead": 8239,
  " unsteady": 8240,
  " pedaled": 8241,
  " overcom": 8242,
  " overcoming": 8243,
  "Buzz": 8244,
  "Wee": 8245,
  "Hippy": 8246,
  " attempt": 8247,
  " attempts": 8248,
  " encouragement": 8249,
  " Any": 8250,
  " Anytime": 8251,
  "Ro": 8252,
  "Roar": 8253,
  "Trade": 8254,
  " Che": 8255,
  " Cheese": 8256,
  "lost": 8257,
  " meanie": 8258,
  " spoil": 8259,
  " School": 8260,
  " business": 8261,
  " remark": 8262,
  " remarkable": 8263,
  " captiv": 8264,
  " captivated": 8265,
  " dreamily": 8266,
  "Crack": 8267,
  " kindest": 8268,
  "Grow": 8269,
  " impo": 8270,
  " imposs": 8271,
  " impossible": 8272,
  " reso": 8273,
  " resol": 8274,
  " resolve": 8275,
  "!,â": 8276,
  " achieved": 8277,
  " smir": 8278,
  " smirk": 8279,
  " scribbling": 8280,
  " booked": 8281,
  " killed": 8282,
  " Tw": 8283,
  " Two": 8284,
  " snar": 8285,
  " snarled": 8286,
  " forests": 8287,
  " hidea": 8288,
  " hideaway": 8289,
  "Bear": 8290,
  " rods": 8291,
  " fished": 8292,
  "Yumi": 8293,
  " afterall": 8294,
  " honking": 8295,
  " juic": 8296,
  " juiciest": 8297,
  " heading": 8298,
  " coughing": 8299,
  " fetched": 8300,
  " reuniting": 8301,
  " hatch": 8302,
  " eggshell": 8303,
  " Whistling": 8304,
  " clue": 8305,
  "Six": 8306,
  "roof": 8307,
  "',\"": 8308,
  "Roof": 8309,
  " hint": 8310,
  " Air": 8311,
  " hardly": 8312,
  " wrist": 8313,
  " floppy": 8314,
  " feast": 8315,
  "Congratul": 8316,
  "Congratulations": 8317,
  " imaginable": 8318,
  " crafted": 8319,
  " proven": 8320,
  "please": 8321,
  " bru": 8322,
  " bruises": 8323,
  " limp": 8324,
  " Fri": 8325,
  " Fribbit": 8326,
  " croaking": 8327,
  " Wr": 8328,
  " Wrigg": 8329,
  " Wriggle": 8330,
  " Fl": 8331,
  " Flutter": 8332,
  " anten": 8333,
  " antenn": 8334,
  " antennas": 8335,
  " Fi": 8336,
  " Firew": 8337,
  " Firewor": 8338,
  " Fireworks": 8339,
  " feeds": 8340,
  " shares": 8341,
  " lifts": 8342,
  " thrill": 8343,
  " basketball": 8344,
  " Gre": 8345,
  " Greedy": 8346,
  " however": 8347,
  " cursed": 8348,
  " riches": 8349,
  " Hors": 8350,
  " Horses": 8351,
  " bleats": 8352,
  " butt": 8353,
  " butts": 8354,
  " lowers": 8355,
  " quacks": 8356,
  " offers": 8357,
  " Move": 8358,
  " explode": 8359,
  " sets": 8360,
  " napkins": 8361,
  " displays": 8362,
  "Cheers": 8363,
  " traded": 8364,
  " trading": 8365,
  " bouncy": 8366,
  " towels": 8367,
  " lush": 8368,
  " protected": 8369,
  " stink": 8370,
  " plead": 8371,
  " relig": 8372,
  " religion": 8373,
  " regard": 8374,
  " regardless": 8375,
  " Kind": 8376,
  " Kindness": 8377,
  " appreciated": 8378,
  " Yoga": 8379,
  " mats": 8380,
  " breathed": 8381,
  " seeker": 8382,
  " hider": 8383,
  " screec": 8384,
  " screeched": 8385,
  " attacking": 8386,
  " dangers": 8387,
  "Listen": 8388,
  " stings": 8389,
  " wounds": 8390,
  " sweeter": 8391,
  " gobble": 8392,
  " turkeys": 8393,
  " puppies": 8394,
  " kittens": 8395,
  " ambition": 8396,
  " Cu": 8397,
  " Curiosity": 8398,
  "just": 8399,
  "Jessie": 8400,
  " aeroplanes": 8401,
  " Stop": 8402,
  " snoop": 8403,
  " snooping": 8404,
  " secretly": 8405,
  "Strawber": 8406,
  "Strawberries": 8407,
  " thie": 8408,
  " thieves": 8409,
  " tapped": 8410,
  " nurser": 8411,
  " nursery": 8412,
  " scaly": 8413,
  " valleys": 8414,
  " crunchiest": 8415,
  " Underneath": 8416,
  " unro": 8417,
  " unrolled": 8418,
  " echoes": 8419,
  " climbers": 8420,
  " announce": 8421,
  " soaps": 8422,
  "Try": 8423,
  "fine": 8424,
  " drench": 8425,
  " drenching": 8426,
  " winked": 8427,
  " amus": 8428,
  " amusing": 8429,
  "Spe": 8430,
  "Speedy": 8431,
  " suitable": 8432,
  " cares": 8433,
  " rockets": 8434,
  "Life": 8435,
  " boiling": 8436,
  " spilling": 8437,
  " sprinkle": 8438,
  " pizz": 8439,
  " pizzas": 8440,
  " chef": 8441,
  " chefs": 8442,
  " den": 8443,
  " Hold": 8444,
  " reel": 8445,
  " reeled": 8446,
  " Fishing": 8447,
  " rips": 8448,
  " blame": 8449,
  " choices": 8450,
  "Steve": 8451,
  "Thanks": 8452,
  " lookout": 8453,
  " valuing": 8454,
  " ens": 8455,
  " ensued": 8456,
  " shielding": 8457,
  " swishing": 8458,
  "Shadow": 8459,
  " complained": 8460,
  " improved": 8461,
  " skinny": 8462,
  " valued": 8463,
  "turn": 8464,
  " scan": 8465,
  " scanner": 8466,
  " scans": 8467,
  " celebration": 8468,
  " useless": 8469,
  "Alex": 8470,
  " spong": 8471,
  " sponge": 8472,
  " temper": 8473,
  " temperature": 8474,
  "Keep": 8475,
  " dial": 8476,
  " dialed": 8477,
  " protector": 8478,
  " inj": 8479,
  " inju": 8480,
  " injuries": 8481,
  " Swamp": 8482,
  " Rep": 8483,
  " Repeat": 8484,
  " handm": 8485,
  " handmade": 8486,
  ":\"": 8487,
  "Whew": 8488,
  " disturbing": 8489,
  " scribbles": 8490,
  " washer": 8491,
  " bottoms": 8492,
  " marsh": 8493,
  " marshm": 8494,
  " marshmall": 8495,
  " marshmallows": 8496,
  " Rain": 8497,
  "Fifi": 8498,
  " adored": 8499,
  " extraord": 8500,
  " extraordinary": 8501,
  "meow": 8502,
  " bam": 8503,
  " bamboo": 8504,
  "Pandy": 8505,
  " Hello": 8506,
  "pitched": 8507,
  " shri": 8508,
  " shriek": 8509,
  " lodged": 8510,
  " squawking": 8511,
  " helplessly": 8512,
  " lowered": 8513,
  "Spicy": 8514,
  " fluff": 8515,
  " fluffiest": 8516,
  " cutest": 8517,
  " among": 8518,
  " tying": 8519,
  " tieing": 8520,
  "Cows": 8521,
  " tidied": 8522,
  " cleared": 8523,
  " resisting": 8524,
  " tumble": 8525,
  " huff": 8526,
  "Rufus": 8527,
  " attent": 8528,
  " attentive": 8529,
  " surroundings": 8530,
  " server": 8531,
  " servers": 8532,
  " lollipops": 8533,
  " brains": 8534,
  " twitched": 8535,
  " tutors": 8536,
  " eachother": 8537,
  " ''": 8538,
  "!''": 8539,
  " final": 8540,
  " visits": 8541,
  " secretive": 8542,
  "machine": 8543,
  "factory": 8544,
  "balls": 8545,
  "machines": 8546,
  "factor": 8547,
  "factories": 8548,
  " blub": 8549,
  "Very": 8550,
  "Adam": 8551,
  " races": 8552,
  "Shrimp": 8553,
  "March": 8554,
  " brightest": 8555,
  " Mud": 8556,
  " royal": 8557,
  " royalty": 8558,
  " bends": 8559,
  " grandf": 8560,
  " grandfather": 8561,
  " stomachs": 8562,
  " Sir": 8563,
  " speeding": 8564,
  " luckily": 8565,
  "Laura": 8566,
  " Im": 8567,
  " Immediately": 8568,
  " petted": 8569,
  " jogg": 8570,
  " jogger": 8571,
  " Say": 8572,
  " fives": 8573,
  " sped": 8574,
  "Dot": 8575,
  "this": 8576,
  " saucep": 8577,
  " saucepan": 8578,
  " smelt": 8579,
  " attaching": 8580,
  " secure": 8581,
  " completing": 8582,
  " campers": 8583,
  " gratefully": 8584,
  " ille": 8585,
  " illeg": 8586,
  " illegal": 8587,
  " Luckily": 8588,
  " confl": 8589,
  " conflict": 8590,
  " mound": 8591,
  " reindeers": 8592,
  " flown": 8593,
  " 4": 8594,
  " Kn": 8595,
  " Knives": 8596,
  " bloomed": 8597,
  " sprinkled": 8598,
  " Nob": 8599,
  " Nobo": 8600,
  " Nobody": 8601,
  " pastries": 8602,
  "fr": 8603,
  "fruit": 8604,
  " collecting": 8605,
  "!\",": 8606,
  " pec": 8607,
  " pecked": 8608,
  " plank": 8609,
  " pumped": 8610,
  " aback": 8611,
  " proceed": 8612,
  " proceeded": 8613,
  " alongside": 8614,
  " teapot": 8615,
  "Tea": 8616,
  " shoo": 8617,
  " shooed": 8618,
  " Toy": 8619,
  " Toys": 8620,
  " na": 8621,
  " nailed": 8622,
  " pays": 8623,
  " forgiveness": 8624,
  " styles": 8625,
  " trous": 8626,
  " trousers": 8627,
  " gon": 8628,
  " gonna": 8629,
  " fashions": 8630,
  " ward": 8631,
  " wardrob": 8632,
  " wardrobe": 8633,
  " rescued": 8634,
  " â": 8635,
  " Trou": 8636,
  " Trouble": 8637,
  "â.": 8638,
  " whoever": 8639,
  " planning": 8640,
  "Carl": 8641,
  " yelps": 8642,
  "Both": 8643,
  " toasts": 8644,
  " adapt": 8645,
  " adaptable": 8646,
  " resil": 8647,
  " resilient": 8648,
  " goals": 8649,
  " opp": 8650,
  " opport": 8651,
  " opportun": 8652,
  " opportunities": 8653,
  " experi": 8654,
  " experiences": 8655,
  " sparkles": 8656,
  " supplies": 8657,
  " sleds": 8658,
  " sledded": 8659,
  " goodby": 8660,
  " goodbyes": 8661,
  " whether": 8662,
  " risk": 8663,
  " risky": 8664,
  " Ax": 8665,
  " Axes": 8666,
  " blues": 8667,
  " concert": 8668,
  " solo": 8669,
  " conn": 8670,
  " connect": 8671,
  " connection": 8672,
  " mattresses": 8673,
  " Mattress": 8674,
  " copying": 8675,
  " avoided": 8676,
  " thorns": 8677,
  " lakes": 8678,
  " bicyc": 8679,
  " bicycles": 8680,
  " pedd": 8681,
  " peddled": 8682,
  " metre": 8683,
  " metres": 8684,
  "Leave": 8685,
  "Jakes": 8686,
  "!â,": 8687,
  "?!â.": 8688,
  " details": 8689,
  " massaging": 8690,
  " necklaces": 8691,
  " islands": 8692,
  " unfolded": 8693,
  " cons": 8694,
  " consid": 8695,
  " consider": 8696,
  " aff": 8697,
  " affect": 8698,
  "saw": 8699,
  "saws": 8700,
  " shaky": 8701,
  " grat": 8702,
  " gratitude": 8703,
  "Choose": 8704,
  " combs": 8705,
  " nights": 8706,
  " attitude": 8707,
  " posit": 8708,
  " positive": 8709,
  " outlook": 8710,
  " instantly": 8711,
  " eagle": 8712,
  " sights": 8713,
  " cucumber": 8714,
  " dripping": 8715,
  " drawers": 8716,
  "Full": 8717,
  " shopped": 8718,
  " birdy": 8719,
  " Care": 8720,
  " Carefully": 8721,
  " crashing": 8722,
  "Which": 8723,
  " overwhe": 8724,
  " overwhel": 8725,
  " overwhelmed": 8726,
  "strong": 8727,
  " cond": 8728,
  " condition": 8729,
  " bi": 8730,
  " biking": 8731,
  " purch": 8732,
  " purchase": 8733,
  " tires": 8734,
  " croaked": 8735,
  " satisfa": 8736,
  " satisfaction": 8737,
  " bathing": 8738,
  " squee": 8739,
  " squeezy": 8740,
  " Spirit": 8741,
  " pref": 8742,
  " prefer": 8743,
  " guarding": 8744,
  " Car": 8745,
  " Cars": 8746,
  " Lying": 8747,
  " squeaking": 8748,
  " network": 8749,
  " Hist": 8750,
  " History": 8751,
  " Wild": 8752,
  " tame": 8753,
  " die": 8754,
  " protection": 8755,
  " remains": 8756,
  " cuddly": 8757,
  " scoops": 8758,
  " flesh": 8759,
  " spoonful": 8760,
  " bland": 8761,
  " ni": 8762,
  " nibble": 8763,
  " annoying": 8764,
  " snorted": 8765,
  " charged": 8766,
  "Zigzag": 8767,
  " ripe": 8768,
  " tempted": 8769,
  " sternly": 8770,
  " behav": 8771,
  " behavi": 8772,
  " behaviour": 8773,
  " presented": 8774,
  " aid": 8775,
  " curtains": 8776,
  " driveway": 8777,
  " overall": 8778,
  " overalls": 8779,
  " wrench": 8780,
  " Roar": 8781,
  " hey": 8782,
  " prouder": 8783,
  " outst": 8784,
  " outstret": 8785,
  " outstretched": 8786,
  "Aunt": 8787,
  " warmly": 8788,
  " lease": 8789,
  " interr": 8790,
  " interru": 8791,
  " interrupt": 8792,
  " fiery": 8793,
  " terror": 8794,
  "Eek": 8795,
  " strum": 8796,
  " bless": 8797,
  " blessing": 8798,
  " pillows": 8799,
  "Flossy": 8800,
  " startled": 8801,
  " jug": 8802,
  " arrives": 8803,
  " wasted": 8804,
  "Josh": 8805,
  " obst": 8806,
  " obstac": 8807,
  " obstacles": 8808,
  " fellow": 8809,
  " Moo": 8810,
  " cafe": 8811,
  " stormy": 8812,
  " protective": 8813,
  " nightstand": 8814,
  " Making": 8815,
  " Bye": 8816,
  " roses": 8817,
  " fits": 8818,
  " plucked": 8819,
  " grad": 8820,
  " gradually": 8821,
  " unfur": 8822,
  " unfurled": 8823,
  " dolphins": 8824,
  "Dog": 8825,
  " sunsc": 8826,
  " sunscre": 8827,
  " sunscreen": 8828,
  " crabs": 8829,
  " seawe": 8830,
  " seaweed": 8831,
  " growl": 8832,
  " remembering": 8833,
  " fearless": 8834,
  " reverber": 8835,
  " reverberating": 8836,
  " paraly": 8837,
  " paralyzed": 8838,
  " Unfortunately": 8839,
  "\n\n  ": 8840,
  " fascination": 8841,
  " zin": 8842,
  " zinn": 8843,
  " zinnia": 8844,
  " slight": 8845,
  " slightly": 8846,
  "tree": 8847,
  " rustled": 8848,
  " unpacking": 8849,
  " desper": 8850,
  " desperately": 8851,
  " newest": 8852,
  " cooper": 8853,
  " cooperate": 8854,
  " heartb": 8855,
  " heartbro": 8856,
  " heartbroken": 8857,
  " Officer": 8858,
  " chirping": 8859,
  " celebrating": 8860,
  " birthdays": 8861,
  " frill": 8862,
  " frills": 8863,
  " snowmen": 8864,
  " forts": 8865,
  " purring": 8866,
  "fed": 8867,
  " zigzags": 8868,
  " gri": 8869,
  " grip": 8870,
  " strips": 8871,
  " shave": 8872,
  " mile": 8873,
  " miles": 8874,
  " separating": 8875,
  " backward": 8876,
  " Me": 8877,
  " Mean": 8878,
  " Meanw": 8879,
  " Meanwhile": 8880,
  " reunited": 8881,
  " separated": 8882,
  " droop": 8883,
  " droopy": 8884,
  " withered": 8885,
  " meanness": 8886,
  " resisted": 8887,
  " opt": 8888,
  " options": 8889,
  " meals": 8890,
  "watch": 8891,
  " dau": 8892,
  " daunt": 8893,
  " daunting": 8894,
  " rounded": 8895,
  " hund": 8896,
  " hundred": 8897,
  " hundreds": 8898,
  " strict": 8899,
  " cowboys": 8900,
  " cheapest": 8901,
  " proba": 8902,
  " probably": 8903,
  "Lizzy": 8904,
  " flowing": 8905,
  "bump": 8906,
  " swimsuit": 8907,
  " Boom": 8908,
  " outsm": 8909,
  " outsmart": 8910,
  " ambit": 8911,
  " ambitious": 8912,
  " daring": 8913,
  " wit": 8914,
  " witness": 8915,
  " decl": 8916,
  " declared": 8917,
  " realising": 8918,
  " curls": 8919,
  " unc": 8920,
  " uncur": 8921,
  " uncurls": 8922,
  " wadd": 8923,
  " waddles": 8924,
  " berry": 8925,
  "â,": 8926,
  " cash": 8927,
  " cashier": 8928,
  " ty": 8929,
  " type": 8930,
  " pleasant": 8931,
  " Still": 8932,
  " scram": 8933,
  " scrambled": 8934,
  " perspect": 8935,
  " perspective": 8936,
  " attempted": 8937,
  " Hippo": 8938,
  "Hope": 8939,
  "Nod": 8940,
  " Great": 8941,
  " melts": 8942,
  "Dead": 8943,
  " wither": 8944,
  " withers": 8945,
  " Fro": 8946,
  " Frozen": 8947,
  "Rob": 8948,
  " numbered": 8949,
  " glittered": 8950,
  " Ser": 8951,
  " Serving": 8952,
  "Far": 8953,
  " leopards": 8954,
  " bunch": 8955,
  "Disa": 8956,
  "Disapp": 8957,
  "Disappear": 8958,
  "Kim": 8959,
  " disc": 8960,
  " discou": 8961,
  " discouraged": 8962,
  " dining": 8963,
  "Determined": 8964,
  " Drag": 8965,
  " Dragon": 8966,
  "Jerry": 8967,
  " squished": 8968,
  " radishes": 8969,
  " spar": 8970,
  " sparked": 8971,
  " sparks": 8972,
  " rescu": 8973,
  " rescuing": 8974,
  "Mother": 8975,
  "wh": 8976,
  "what": 8977,
  " Sail": 8978,
  " Sailors": 8979,
  "ignor": 8980,
  "ignorant": 8981,
  " locks": 8982,
  " tiss": 8983,
  " tissue": 8984,
  "Sm": 8985,
  "Smile": 8986,
  "Cheese": 8987,
  " honesty": 8988,
  " stores": 8989,
  " leaked": 8990,
  " thrown": 8991,
  " Amen": 8992,
  " sneaks": 8993,
  " moos": 8994,
  " snorts": 8995,
  " charges": 8996,
  " headbut": 8997,
  " headbutt": 8998,
  " pecks": 8999,
  " slams": 9000,
  " Salad": 9001,
  " leafy": 9002,
  " picky": 9003,
  " approach": 9004,
  " willing": 9005,
  " roam": 9006,
  " spinach": 9007,
  " kale": 9008,
  " cabb": 9009,
  " cabbage": 9010,
  " cucumb": 9011,
  " cucumbers": 9012,
  " vineg": 9013,
  " vinegar": 9014,
  " dressing": 9015,
  "!'\"": 9016,
  "Lucky": 9017,
  " hooks": 9018,
  "Triangle": 9019,
  " marked": 9020,
  " casting": 9021,
  " lower": 9022,
  " permits": 9023,
  "Bunny": 9024,
  " terribly": 9025,
  " unwell": 9026,
  " dia": 9027,
  " diag": 9028,
  " diagn": 9029,
  " diagnosed": 9030,
  " illness": 9031,
  "Jee": 9032,
  " unlucky": 9033,
  " observed": 9034,
  " strongest": 9035,
  " allowing": 9036,
  " brid": 9037,
  " bridges": 9038,
  " supporting": 9039,
  " Which": 9040,
  " folders": 9041,
  "Time": 9042,
  " pearl": 9043,
  " hugging": 9044,
  " musty": 9045,
  "Hal": 9046,
  "Half": 9047,
  "Halfway": 9048,
  " leaped": 9049,
  " expressing": 9050,
  " em": 9051,
  " emot": 9052,
  " emotions": 9053,
  " chews": 9054,
  "Judge": 9055,
  "oasis": 9056,
  " hopsc": 9057,
  " hopscot": 9058,
  " hopscotch": 9059,
  " fist": 9060,
  "Victory": 9061,
  " pluck": 9062,
  "Show": 9063,
  " surge": 9064,
  "Al": 9065,
  "Although": 9066,
  "Arrr": 9067,
  " Capt": 9068,
  " Captain": 9069,
  " peels": 9070,
  " shallow": 9071,
  "Draw": 9072,
  " bounces": 9073,
  " shrugg": 9074,
  " shrugging": 9075,
  " toward": 9076,
  " summ": 9077,
  " summert": 9078,
  " summertime": 9079,
  " zooms": 9080,
  " tighter": 9081,
  " laws": 9082,
  " kitty": 9083,
  " uns": 9084,
  " unsure": 9085,
  " fid": 9086,
  " fidget": 9087,
  " fidgeting": 9088,
  " Smiling": 9089,
  " braver": 9090,
  " Swimming": 9091,
  " massaged": 9092,
  " suffered": 9093,
  " suffering": 9094,
  " item": 9095,
  " items": 9096,
  " accepts": 9097,
  " slowing": 9098,
  " chatter": 9099,
  " cru": 9100,
  " cruel": 9101,
  " sens": 9102,
  " sensation": 9103,
  " prepar": 9104,
  " preparation": 9105,
  " perfor": 9106,
  " performan": 9107,
  " performance": 9108,
  " certain": 9109,
  " certainly": 9110,
  " drool": 9111,
  " command": 9112,
  " commanded": 9113,
  " Instantly": 9114,
  " trails": 9115,
  " Ã": 9116,
  " Ã©": 9117,
  " Ã©cl": 9118,
  " Ã©clair": 9119,
  " energ": 9120,
  " energised": 9121,
  " damp": 9122,
  " lur": 9123,
  " lurking": 9124,
  " worrying": 9125,
  " Everybody": 9126,
  "Does": 9127,
  " watermel": 9128,
  " watermelon": 9129,
  " flavour": 9130,
  " flashes": 9131,
  " booms": 9132,
  " raind": 9133,
  " raindr": 9134,
  " raindrops": 9135,
  " baller": 9136,
  " ballerina": 9137,
  " piled": 9138,
  " Along": 9139,
  " backse": 9140,
  " backseat": 9141,
  " snores": 9142,
  " snoo": 9143,
  " snoozed": 9144,
  " waking": 9145,
  " announcing": 9146,
  "Ant": 9147,
  " Nice": 9148,
  " forks": 9149,
  "yes": 9150,
  "butter": 9151,
  "butterf": 9152,
  "butterfly": 9153,
  " screamer": 9154,
  " necess": 9155,
  " necessary": 9156,
  "Nancy": 9157,
  " prepared": 9158,
  " Sit": 9159,
  " pours": 9160
}