#version: 0.2
  t
h e
  a
  s
  w
n d
 t he
e d
  b
 t o
 a nd
  h
  f
i n
  T
 w a
r e
i t
o u
  d
  l
  c
  p
a y
  m
e r
 wa s
o m
 T he
  he
i s
  n
a r
o n
l l
 s a
i m
i d
 h a
  g
  S
o t
in g
a t
e n
a n
l e
o r
i r
a m
e t
  H
  it
 The y
 t h
i g
 H e
  in
 p l
i l
  "
o w
r i
v er
u t
 pl ay
  u
e s
p p
it h
  r
 w ith
 sa id
  o
o o
 d ay
  y
O n
k ed
 he r
  I
 s t
 S he
l d
 b e
 h is
c e
k e
 T im
  e
c k
n t
 b ig
 y ou
ver y
u n
  on
 ha pp
e nd
a ll
v e
  L
 n ot
 l i
il y
 d o
 the y
ri end
 f riend
he r
a d
 ha d
 w e
 wa nt
 u p
 o f
  M
  B
s t
it t
 happ y
s e
en t
' s
 sa w
On e
ou ld
  very
 th at
 f or
 s o
 m om
 s h
itt le
 l ittle
c h
ou nd
  k
 s he
 t im
. "
 n am
 tim e
 n e
 the re
 s m
 nam ed
 L ily
 we re
T he
 b ut
 b o
 T om
! "
  is
 want ed
e l
v ed
 a n
 I t
ou t
 friend s
h t
ir d
om e
 w ent
a l
u g
 to o
 b ird
 w h
id e
r y
On ce
a ke
 l o
 a ll
 l oo
t er
 he l
 hel p
 up on
 to y
u e
 d id
i ll
o re
 f un
r a
  j
 a s
g et
  A
am e
i nd
u r
  re
 s e
l y
 a t
 do g
get her
 b a
 to gether
 t re
 c at
oo d
t ed
i c
 a re
 c ould
e c
 the ir
 b all
 r o
a x
ar k
 f r
w ay
 c an
 g o
 play ed
 k n
 the m
a in
 h im
? "
ar d
' t
 sa d
 m an
 l e
 g ir
u m
he d
he n
m y
 M ax
ot her
 gir l
 bo y
 c l
u l

 

  out
 ha ve
 st ar
 tre e
h ing
 ba ck
 lo ved
 f ound
 loo ked
ou g
 s c
 s p
on e
 S ue
 p ark
 c ar
om et
a re
 li ke
 m e
f ul
e ll
s ide
ow n
r ound
on g
 s ay
 li ked
o p
 l a
 se e
 be c
el t
 w ould
 s omet
 B ut
 S am
 f a
 star ted
 f elt
 n o
ig ht
 c ame
  W
  One
 as ked
 ne w
 a g
 a l
ar ed
Y ou
ou se
o b
ing s
oug ht
p ot
 sm all
i ce
 g ood
il ed
  other
 b r
oo k
 m ad
es t
ri ed
 a way
 m ake
 B en
 somet hing
 sm iled
i a
a g
s s
 mad e
 p ut
 S pot
d d
 wh at
 fr om
en ed
 w or
 f ind
 wa l
 e x
  J
 h ome
 th ought
u c
 c o
 r an
ar n
 play ing
 m u
 ag ain
 la ug
a k
 f l
 d own
 say s
 s ome
 e very
 s un
 s w
 h ouse
 a round
u ck
t y
 bo x
 f e
i f
i le
 sc ared
 m y
a ch
 toy s
 too k
 loo k
  F
is h
 le arn
 w ill
, "
n y
 th ings
 w hen
re t
ou d
 l ot
i ck
 M ia
 the n
u re
 you r
uc y
e p
pp ed
  You
 p r
 li ved
 p u
a p
 kn ow
q u
ot h
b le
  D
 c h
u st
i e
um p
 t ried
a ve
a s
 p o
 wh o
T h
 g ot
it ed
 kn e
T im
 d ec
nd er
 g et
an k
all y
 an y
 m ore
 L ucy
 b l
  v
a u
 M om
 h ug
L ily
 d ad
is t
an t
 man y
 a b
 p ret
 r ed
er s
 kne w
 in t
â 
ou s
 ab out
 B ob
f ter
 wa ter
o g
 c are
 o p
 ex c
 dec id
 th is
is e
i ve
 e at
au se
 g ra
 decid ed
 laug hed
 learn ed
 ro om
 g re
 r un
 b est
it e
 p e
 u n
The y
 p ic
 S o
 bec ause
in k
ur p
 b oth
  E
a ce
 A nd
 s l
 h o
 fe el
  ke
f e
 on e
 bec ame
 j ump
way s
 b u
 al ways
 out side
 sh ow
 in side
 m o
 exc ited
Y es
 s k
es s
u dd
 l ong
 s or
ar a
 int o
 to ld
 to w
T om
 ro ck
 st r
 fa st
 n ice
in y
 t a
W h
 e ach
 a m
 mu ch
urp r
 u nder
 g ave
 s urpr
 t r
 sor ry
ou r
 an im
 anim al
g ed
 f ish
s ed
 ne ed
 th an
is ed
v en
 o ld
 W e
le w
 wal k
 pret ty
  or
 did n
B ut
 t ur
 happ ened
 j ust
 wal ked
r o
 ha nd
n a
an g
 cl o
f f
a se
he re
f t
et ter
 ne ar
  en
 animal s
b y
 f ly
 t ake
 b ook
 h ow
l or
at e
 st or
 t ry
 k ind
c hed
g ry
 sk y
 wa t
 f ood
 it s
 fl ow
 l ist
 f i
in e
 b etter
v ing
 c le
ig h
 c ake
  if
 l et
ur t
  C
i on
 be ar
 c a
o ll
 lot s
 T h
  ide
 ne ver
b b
 sh are
r om
 b ug
 t w
p ec
 ide a
 m ag
 b y
 any m
 anym ore
 lo ve
op le
 H is


 

 co lor
udd en
 t e
 he ard
 p a
 care ful
 pe ople
 sp ec
i al
 spec ial
 d on
or t
 do ll
 fr og
 c om
re am
M om
udden ly
 f lew
e x
 do or
p l
 E very
v es
r m
  qu
n na
u ff
 tur n
 surpr ised
 s n
 e ven
 S ara
 h urt
 f ore
 g l
 g round
 H er
 e nd
 c ome
 o ver
 f am
Th ank
r ow
 f ar
 d an
 cle an
 mag ic
 pic ked
 st ill
 l oud
 re ad
 sh iny
k ay
N o
 h igh
u ll
 hug ged
pec ted
L et
 than ked
 op ened
 un ex
 unex pected
 w ind
 h ard
 A my
 k id
 r a
a ck
  P
 cl im
oo l
s h
 a fter
 clim b
  K
 m ak
 b ad
e m
 The n
 br o
 d ra
um my
 g ard
 gard en
  R
 c he
l f
 kid s
' m
 fam ily
 tow n
 F rom
 a pp
 I n
x t
 c ry
le ase
 sa fe
il d
A s
uff y
i z
 pr oud
 s qu
 jump ed
 stor y
 e ver
b er
 c all
  im
 of f
 u nt
 t al
 ne xt
 g ive
 ha t
I t
an e
 t ra
ill y
 str ong
 fore st
 bl ue
 st ay
 wh ile
 st ick
 unt il
 list en
 flow ers
 be a
 c u
 wa y
 sh ould
b e
 W hen
 r ain
 bea ut
d y
o y
a nd
c t
he s
oug h
 an gry
ag e
 gre at
 sm ile
 p ar
itt y
n ing
 wor k
 ha s
 beaut i
 beauti ful
 sl ide
 th ink
l uffy
 so ft
i p
 n ow
 tw o
 L et
 S ally
H e
W hen
 w here
 every one
 as k
 m et
 wat ch
 he ar
 m or
 pl ace
 st o
p t
dd ed
 show ed
 th re
N ow
 op en
 cat ch
 lo st
 y ell
 li on
 b re
a z
 wa rm
t ure
 call ed
 happ ily
 help ed
 gre en
o on
 im p
s o
 y ummy
The n
 p ain
 d e
 al so
re l
 F luffy
 le a
i es
ay be
ir st
 f ell
u it
ll ed
 hand s
 no ise
 pic ture
Th at
 sto pped
 J o
 could n
 st ore
ang e
 at e
 K itty
m a
L ook
 b ed
un ny
 no dded
 a d
 A nna
 tr uck
ir ed
 po nd
 me an
 ha ving
oll y
 re m
 s ound
le ep
 ag re
 g ame
 W h
le s
f ore
 sun ny
re ss
is hed
 m ouse
â 
at h
C an
 ke ep
t h
is y
â 
Wh at
 b ra
 w o
 d uck
H i
 ke pt
 be fore
v ent
 sa nd
o c
W e
 squ ir
 squir rel
  z
 he ad
 t ired
 w r
 u sed
 car s
 cl a
 u se
a ir
 h ill
g an
 m on
o ck
 so on
 tal k
 sa t
 be ing
 wa it
ic y
bb it
j oy
 d if
im es
 o kay
 bird s
 e y
 f irst
 D o
m an
ar y
 ho le
d ay
 u s
 do es
 r ace
 y ard
r ay
 m ess
g e
a ble
  Now
e ar
 s leep
 en joy
ug ht
or n
 dra w
h n
i ed
 d r
 be h
 h op
se lf
 mom my
  our
l ed
S he
 s ing
 fl o
o l
 r ight
 fa ce
 fi re
 far m
ri ous
A fter
 ey es
a isy
 p ick
 fi x
 k it
s er
e et
H ell
Hell o
ri es
 agre ed
ke y
  â
 cu rious
 to p
 he re
 c ook
 walk ing
 friend ly
 f in
 ba g
  G
o x
 bo at
 kit c
 kitc hen
t ing
B en
 br ight
 go ing
S am
 wor ked
 imp ort
â 
 ra bbit
 r u
u ch
 mor al
t hing
k es
 sw ing
 st op
 b unny
 par ty
 bra ve
 dif fe
 diffe re
 sm ell
 th ing
em ber
 D ad
i ke
  ri
 Th is
 feel ing
 fa v
n g
 fr uit
 import ant
 gra nd
 laug h
 sh ared
 re al
 yell ow
oll ow
 tre es
 for g
 j o
 p lease
 color s
 differe nt
  own
c le
 mak ing
 be gan
 turn ed
 dan c
 s ong
D on
 look ing
 J ane
 fun ny
 C an
 other s
 br other
 gra ss
ow l
 co ld
 dan ce
 c on
A t
k en
 f ollow
 wor ry
 h ot
at her
 ta st
 pret end
 sn ow
 re st
o ice
W ow
 c ried
 sh out
 g i
 t all
el y
Wh y
 rem ember
 h un
 clo ser
 f ull
a il
 bro ken
 fav or
 favor ite
u s
is s
 beh ind
 need ed
 sh o
 flo or
 sw eet
M ax
 se es
S ara
 ta il
 t ell
t le
 v oice
ig n
 look s
pp y
 ad vent
 book s
 h id
 sw im
 c re
 mo ve
ar ing
S uddenly
 ex pl
 pu s
 p ap
 l ad
z y
 d is
 wat ched
o om
by e
 somet imes
a ched
 g r
 n ight
 d ark
 a c
 ta ble
 but ter
 big g
il a
in s
 w ood
 A s
 Th at
 an other
 fa ir
udd y
 read y
ec t
 M r
 D aisy
 A ll
at ion
 w et
 hun gry
J o
ut e
S ue
 pl an
 c ra
 try ing
 mak es
 S uddenly
 re pl
 g one
a ss
 j u
at ter
 d el
 sl ow
a v
 d ir
 lea ves
 m ight
st er
i ous
 do ing
 Tim my
 am az
 c ou
 mom ent
 advent ure
 pr om
 t ak
S o
 le ft
 pu lled
 thre w
as ure
 qu ick
 st uck
 cl oud
 re ached
 cla pped
 ho ld
  ice
p e
 st e
 ke y
 B uddy
 sw am
 l ess
 run ning
 on ly
 p er
a c
 t iny
 bu ild
uck y
 help ing
 wa ved
 bre ak
 m ar
M ia
st le
 be l
w here
at er
 good bye
 clo se
 pain t
 bl ock
 c ool
 al one
i ent
 th ank
e b
 d in
ic ed
 f all
O kay
d er
 surpr ise
 gl ad
 repl ied
 t ri
 bigg er
 pap er
 color ful
i x
 tra in
at ch
bb ed
 p i
 b it
ang er
 Jo e
 app le
 bu s
 li kes
A nna
av y
 tow er
ro om
 b ike
 flow er
 g row
 ha ir
 quick ly
 J ack
 wh y
 Every one
 list ened
 be en
 enjoy ed
 com ing
 l on
 lon ely
 a ir
 f ight
 pus hed
 p en
 s et
 F in
er ed
le ss
 climb ed
 b ot
 wa ll
 se en
 jo in
 m out
 mout h
 d one
 wa g
' re
 f re
ow er
 s illy
 to uch
 wo nder
 less on
 under st
 la nd
 d ream
z z
 r ide
 n est
Th is
 d ress
 g ent
 cre at
 shout ed
 butter f
 danc ed
r ed
 rock s
 mon key
 th r
n er
 A fter
 l ight
 re ach
 d ro
 wh ite
 sp l
 nam e
p h
 ch air
 thr ough
 bu y
 a r
H er
 he ld
 picture s
 not iced
 bro ke
as h
 want s
 ball oon
 some one
one y
 mu s
 mus ic
 block s
 c ream
 re l
 forg ot
 any thing
 per f
 ho pped
 gra bbed
 b ath
 m ix
 lad y
t on
 p ot
 th row
 sp ot
r ot
e z
D o
 g if
 d ri
ar t
 ba by
 J en
 wa ited
 he avy
 M aybe
 b lew
 j ob
I n
 w on
 mu st
 ca stle
 g u
Jo hn
e my
 expl ore
 follow ed
 The re
 ask s
 grand ma
 wr ong
ad ow
 a rm
 e le
O h
 ch ild
 think s
u b
 wor d
 st u
 po in
 w ished
 b or
 butterf ly
 gi ant
or m
 stay ed
 sh ap
 s it
ll a
 Mom my
 fair y
or d
 B l
 din ner
 se a
 pa w
 thre e
 wood s
c ome
 con t
 y ear
 p ink
 w in
 fly ing
 v is
s et
 w ish
 Bob o
 star t
 po l
 pl ant
ed dy
 m other
pp ing
 tre asure
 every where
 f ill
 c ow
 wind ow
S pot
 wor ld
  O
an ce
 se c
 R emy
 h it
 com p
 run s
 t ight
L ucy
 So on
ie ld
a st
 br ought
 fast er
 but ton
 b ite
m b
pp er
 gif t
 Mom o
 Wh at
am es
 f ur
 happ en
M aybe
 farm er
 pa ss
 L ila
 In side
  owl
 a nt
 or ange
 dir ty
 s ure
" .
d e
 cry ing
 Tom my
 sc ream
 dra g
o s
 g ames
 b ar
 tre at
 vis it
 p ig
 ju ice
 m ail
 st and
oo p
 ro lled
q ue
ed al
 re ally
 eat ing
 sw ings
 str ange
 p et
 de ep
 w ise
 remember ed
 d ry
 pu ll
 c ray
 cray on
iz ed
 s na
 ro pe
 drag on
 ro b
 Bl ue
 f it
 tal ked
 we l
 br an
 underst and
 turn s
 f o
 Jo hn
 w he
 r ound
ro ss
 clo sed
 sm art
u ed
 cl ot
 clot hes
ct or
 bot tle
ou p
 tast y
 f ox
 B illy
 laug hing
 f is
B ob
 pi ec
 piec es
 prom ised
 qu i
 qui et
itt en
 sc ary
e ad
  Z
 p h
 not eb
 noteb ook
 rob ot
Wh ile
 T o
 we ll
 re c
 pu dd
ell a
 e l
are nt
un ch
 pr in
! â
itt ing
 lea f
i ver
 sec ret
m ing
 l ake
 s is
 ca ught
 sna ck
 h or
 dr ink
 cu p
 ca nd
 sp in
 el se
 h ide
 wel come
 car rot
 sh aring
 mon ster
 y es
 del ic
 w ings
c y
 y og
 A t
H is
F rom
 cont in
at ient
 p ie
 se ar
 ele ph
 eleph ant
is a
f ull
full y
 cou nt
 br own
 smile s
J ust
 L e
 pu ppy
 pu sh
 sh in
 sis ter
 s ide
 perf ect
 s ign
ra nd
 v ill
f u
 doll s
 sm o
 tw ins
 sp icy
 m um
ur n
am p
 w ra
 at t
b o
 E m
 be e
 be ll
 fin ished
 contin ued
 s itting
 bl ack
ard s
is sed
 duck s
 d anger
 m ine
 an s
 ans w
 le ave
 re s
 app les
 hear t
 fe w
 fis her
 sh r
 shap es
oc ked
 danger ous
 pudd le
 sa ng
 smell y
 B ella
 amaz ing
 with out
 him self
ez e
 pie ce
c o
 own er
 l unch
un e
 sa ck
 bl ank
 blank et
 b owl
 ex p
 fisher man
 fre e
 snow man
 sing ing
 mor ning
 d i
a ught
 fill ed
i ble
 pu zz
en ce
 j am
 p urp
 k itten
  ve
 st one
 p ers
 wor ried
 t eddy
 c ute
 b uck
 to day
 k ing
 j e
ch ool
 mo ved
 p arent
un a
 dog s
 e ar
 no se
 shin ing
 p ower
 c ave
 c orn
re w
st ead
 hor se
 gl ass
 a ble
 c ut
 vill age
 n ap
 st re
ra ct
 c our
 pr ob
 bug s
ig g
o st
 be ach
ld er
 stor ies
 f ield
 can n
 cann ot
 M olly
 hug e
 b arn
in a
it ch
 do ctor
fu sed
at or
o ve
et er
 en g
 ri ver
 gent le
 prob le
 proble m
 m in
i ch
 wag ged
is es
 B ird
 t ap
 e g
 eg g
 sa l
 purp le
 fl ute
 s chool
 cour se
 care fully
 dro pped
 get ting
b ox
 m ap
c hes
 p re
 puzz le
ir t
F in
 m edal
 c ir
in ed
m e
 buck et
 ba s
 bas k
 bask et
P lease
 li ving
 f an
 o ven
 sn ake
 rain b
 rainb ow
 le g
c ked
 sa me
 sound s
 tak ing
 gre w
 j og
o nd
 fin ally
p a
 en ough
 up set
 stre et
 C h
 ro ll
 Sara h
 eng ine
 s uddenly
um b
 ro ar
re n
 pe ace
 feel s
 r ag
 j oy
e re
 pa st
 wo ke
 r ad
r ob
 m iss
bo ard
g ly
 day s
 bran ch
 Th ank
 in c
t o
 Le o
 creat ive
 d rew
 real ized
th y
He y
an o
 k ite
 every thing
 Bob by
 bath rob
 parent s
b ble
 amaz ed
 la st
 p ath
S oon
ug g
 magic al
c es
 we ar
 ch as
 p atient
ump y
i pped


  
 m atch
  -
 d es
 bu sh
 cand y
 h ar
en ch
 ro ad
S ally
 pl ane
e ared
f ish
 tra ck
ir p
O f
 bel ie
 u gly
ep end
' ll
 sh ook
 li ve
 sc ar
s y
 mo st
. â
 cl ap
il ing
 bathrob e
le x
c ess
 te a
itt er
 G rand
az z
 Em ma
 gra b
 sh ar
 shar p
 b ark
G ood
o se
ak es
at ed
 me et
 scar f
d ge
 com es
 word s
 bel ong
 w om
 wom an
 sho es
 E lla
 par t
 mu d
 b ench
 stor m
 p ool
 hop e
Mom my
Fin ally
p ort
il k
 pr une
ck et
 L isa
al m
 see m
 child ren
ad e
 car ry
 on to
 fore ver
 tri p
 sn e
es e
 hold ing
 sleep y
 s u
 b ri
ou nt
 cl oth
 j et
 con fused
 h ig
 co ver
 her self
 D ucky
 star s
iz e
ou n
 m ilk
 p ress
u ce
 sh adow
 sal ad
 che w
ll ie
 hop ed
A my
am a
 year s
 l ate
ve l
 de ad
 z oom
l ing
L ila
b or
 sh irt
 hug s
 cook ies
k s
 fe ather
 tur key
 b ow
iz z
m p
 sh y
ss y
 j ar
a le
 h oop
s qu
 l ucky
 ar ri
O K
 fa ces
 br ing
 no d
 m ist
 qu est
 quest ion
 for get
un g
S t
 t ries
n e
 no ises
 gr umpy
f ort
 m oney
 ne igh
 hat s
ir th
 tr ou
 bre ad
 p ile
 pl ate
 cloud s
 wa nd
 in stead
er t
 ph one
p es
im i
a ur
 mo squ
 mosqu it
 mosquit o
er ry
 belie ve
 e as
 c alm
a f
 smell ed
u nt
 te ach
c c
c ap
 tur tle
 prom ise
aught y
 land ed
 to m
en ny
 che ese
 hid ing
 sl id
 b an
 in v
at s
 g as
izz a
 to ast
 le op
 ac orn
 wait ing
 fix ed
 che ered
is k
 she ll
re ad
 n aughty
 P lease
 car p
 carp et
 sp ark
B e
 m ot
ere st
 put s
 b one
er a
 te ar
 wr ite
 answ er
 b irth
 hig her
i er
 delic ious
  es
 to oth
 ve get
 veget able
 leop ard
  ign
 smo oth
 danc ing
 talk ing
 yell ed
isk ers
 swim ming
 ru de
 tak es
i re
 paw s
 fight ing
 dad dy
um ber
 ban an
 int erest
 j our
al thy
 help ful
ount ain
 dri ver
 d est
 wonder ed
 sear ched
 se ed
  er
 b ake
 de er
 s el
 poin ted
 Bird y
 c her
l ower
 ac ross
 sh op
 mess y
it y
 S omet
 h oney
 who le
cap e
an y
 whe el
 o b
 b ought
 tr ump
le t
 Fin ally
 gent ly
 dro ve
 kn ocked
 dis a
 disa pp
 po em
er v
 a v
  icy
 dir t
 squ are
 r ot
 di am
 diam ond
 sel fish
 str anger
 s oup
 M ark
 car ried
 wonder ful
el p
 rel ie
 Wh iskers
 near by
if f
 W ith
 trump et
it ing
 m issed
 so l
ul ar
 ha ng
 che er
pec t
 any one
 n erv
 nerv ous
 dr op
 tr ue
 d ist
 rec ord
 pen c
 penc il
 b er
 ber ries
 Ch irp
? â
c ed
b r
 bar ked
ck s
 tow ards
 D on
  ent
  '
L ater
 sp ray
 g uit
 guit ar
 s uc
 s uch
 arm s
 sk ull
ll o
 go es
 birth day
 cook ie
iz zy
 interest ing
 v al
 scream ed
 bus y
ir r
 c r
 h um
un k
 th in
 A n
 p ract
al k
 po cket
 dec or
 m atter
 Somet imes
 p in
 song s
 t er
 tast e
H elp
 gi ves
 ne ck
 f ather
 co ll
 e lder
 elder ly
oo f
 not hing
 fe et
 sp e
 Wh y
  On
 corn er
 m ark
 s er
 build ing
 li fe
 go ld
 mot or
 ch ange
 work ing
 long er
 To gether
 she ep
 fe ed
 w is
 l ay
 dest ro
 destro y
 w ip
 f il
 er as
 f ake
 c ri
 str ing
 g em
 be ak
 t ie
 M imi
 bo ssy
ut s
 p izza
 pass port
 mo v
 arri ved
ir it
 im ag
 sa il
 t ag
 pers on
 to uc
 ter ri
 chas ed
 forg ive
 ste pped
St op
 tom or
 tomor row
 as h
 mar ch
 su pp
 expl ain
J ack
or s
 ri ch
 spl as
 wra p
t en
 lad der
 ch oc
 choc ol
 chocol ate
 st ri
 w ore
 app eared
 S h
 F red
 clo ck
 cir cle
urn ed
 b icy
 sa uce
 co in
 yog a
 J erry
 swam p
 h ur
 eas y
 B e
 touc hed
D ad
et h
 stick s
 lo ves
 c ard
 exp lor
 fo ot
 J ust
Wh o
 was n
 fe ar
u ally
 spl ash
am ed
 wa r
M olly
 d ull
 f ence
 a ct
 pi ano
 re t
 I f
 dri ve
 clean ed
 slow ly
 G o
er y
 l ine
 ball s
  No
 b oun
 z ip
 b itter
 sho e
 pol ice
 ba nd
 n et
K itty
 bicy cle
 T iny
 cl ub
 c omet
 K im
 v ase
  ot
 ot ter
 sp irit
 p ow
 re g
 pa ck
 relie ved
 treat s
 peace ful
g y
 pr ot
 whe at
 power ful
w or
 ch ick
 chick en
 not e
 fl ag
 inc red
M y
 mo d
 la w
 hid d
 hidd en
 watch ing
 tr ust
ur se
 w ing
 he llo
 p un
ess ie
 a dd
 sand w
 hear s
 al ong
 creat ure
 te ac
 un cle
C ome
 vegetable s
 back y
 backy ard
 pain ted
 v i
 a f
 terri ble
 we aring
 wa ve
 al m
 alm ost
 w ild
 c e
 gu il
 guil ty
 adventure s
 d ig
 sp o
e e
 poin t
 bor ed
 hair y
 kne e
 incred ible
ne y
 je al
 jeal ous
 neigh bor
 sc r
ff le
 pl ac
 trou ble
 sc atter
 res pect
 Jen ny
 pe pper
u p
 pretend ed
 mu sh
 prin ce
ob y
 c age
 s que
 r h
 st ret
 P olly
 w ide
 p ill
 B unny
 B u
 sh ake
S ure
 h on
y ing
 ask ing
 my ster
 was h
 crayon s
 ha lf
Tom my
 love ly
 banan a
m ent
s p
 S t
 p op
 C ome
T o
 c ries
 sp r
 T V
 ru b
Jo e
n ess
 ign or
 st uff
 s our
 r are
 sa ved
id ge
 teac her
 bro cc
 brocc ol
 broccol i
M um
 vi ol
 viol in
er os
 bo ot
 cle ver
 bor ing
 sw ord
 ch alk
 mar ble
 sun f
ad o
 af ra
 afra id
 pow der
 te eth
 e ag
 bre ath
 b al
 S ome
 T r
 The ir
 M any
 me asure
m er
 ad m
ur ch
e ver
 cla ss
 fin ish
 rad i
 radi o
  ind
 we ak
 seed s
 R u
 d ug
 sp oon
 care less
 yog urt
 mush room
 es cape
 thank ful
 l amp
 Grand ma
air s
 st ream
 u mb
 umb re
 cra b
 n uts
 Chirp y
ar l
 mov ie
 k iss
 find ing
 l ar
 lar ge
 te le
 sho ot
 you ng
 eag er
 jump ing
 del iver
 gr ate
 st ood
oo se
 leg s
 sl ipped
 prot ect
 dec ide
p id
 ash amed
ul t
H ow
 sc are
 ch urch
 bot t
 mail box
 would n
i ant
 pick s
 see k
 mag n
 s ick
 f ing
 r ise
 ro se
 k ick
 g ear
 m irr
 mirr or
 st ir
 c el
 cel ery
 gr oup
 cat s
 p an
 mo on
 sp read
and y
 cra zy
 m aybe
 t ied
 cri b
 bu bble
 g en
 umbre lla
 rh in
 rhin oc
 rhinoc eros
ul u
 so ld
 pill ow
 An n
 motor cy
 motorcy cle
 cry st
 cryst al
 Bu zz
i pp
 fire wor
 all ig
 allig ator
ig er
 l ater
 b atter
e k
 f ig
 pol ite
 min t
 po st
 explor ing
 f ool
 grate ful
or ry
 mo ving
 p ir
 cl um
 clum sy
 stu pid
vent ually
 m ill
 fl ame
i an
 la b
 g ather
 rest less
 lo se
 H ow
 st ep
 int ell
 intell ig
 intellig ent
 J im
ss ed
 li p
 z eb
 zeb ra
 g ray
 ph ot
 or gan
 seem ed
 pre s
 n ation
 w itch
 cou ch
 plac es
 splas hed
 d izzy
 ste ak
 eras er
 mom s
 ta ught
 rock et
 suc cess
im p
 sa ve
 gl ow
 mix er
 S n
p ar
 m ama
 gra pes
 shr ink
 e mb
 emb ar
 embar ra
 J ake
os aur
i v
 r id
 gu ard
  N
 mist ake
 bal ance
 an g
el s
 co at
 cl iff
 g un
 un l
u al
 fam ous
 sear ch
 y arn
 bott om
 bri ll
 brill iant
s es
 j olly
 wa ffle
 grand pa
 delic ate
 p our
 spot ted
 c ross
fort able
 fil m
l ves
 comp ass
 compass ion
 plant s
 ind epend
 independ ent
 fan cy
 cheer ful
 he althy
 se par
 gl oom
 gloom y
 gra pe
 P e
 m op
 D an
us ie
 Dad dy
 loo p
  3
 L una
 co ins
 book c
 bookc ase
 D olly
ra w
ia ble
 O llie
 batter y
az e
 fi er
 fier ce
 g igg
an ged
 k issed
 l etter
 fool ish
 hon est
o ld
 small er
 ho pping
 sand box
 spl it
 P enny
 brother s
 she lf
 dis co
 ch ar
 dr ank
 Z oom
 exc iting
 k ic
 kic ked
 che ap
 c am
 cam era
 sol ve
He re
 pres ent
 com b
 h orn
 feather s
 compassion ate
 bed room
 li ft
 me ant
 use ful
 gu ess
 z oo
 sor t
ra g
 s il
umb led
 or ig
 orig in
 origin al
at o
 j ell
 jell y
 get s
 v ine
 al ert
 gl ove
 underst ood
B illy
 press ed
 might y
 t id
 dr um
 wo lf
 reg ular
 l umber
 spr ing
 embarra ssed
 ju icy
as k
 wh ale
 me al
 J ill
 d ough
raw ber
 av oc
 sunf lower
 rel iable
 decor ate
 fig ure
 ch anged
ag es
 li ves
 o ce
 oce an
 M y
 boat s
 n orm
 norm al
at es
 myster ious
 m at
 smo ke
 wra pped
 r at
 it ch
 m is
 mis er
 miser able
 wa ke
 magn et
 beh ave
 en orm
 enorm ous
 un us
 unus ual
 o il
 A lex
se lves
 cle ar
 th u
 a unt
 gir af
 giraf fe
 m el
 it self
 r ough
 separ ate
h ip
en a
 J azz
 lo ad
 L ulu
 co zy
 no isy
 hard er
 pu p
 dream ed
 wh ist
 din osaur
 bar ber
 wor m
 black board
 we ap
 weap on
 ru ined
 r ing
 m aze
 po ked
 nod s
 lo g
S orry
 f ine
 pers ist
 persist ent
n ed
 c oo
 cow s
 p ri
 is l
 isl and
 bu ll
 exc ite
 jour ney
 po or
 rel ax
 lo ck
 draw ing
 tell s
 Ben ny
 bran ches
 ex am
 val ue
 tast ed
 cover ed
 B essie
i pper
 c ell
 so ck
 sw itch
M e
 un i
 uni que
 n urse
 hel m
 helm et
 min ut
 minut es
in ess
 r oof
 sandw ich
 imp ress
ir on
 th ough
 f lex
 flex ible
 live ly
 thought ful
 sand c
 cat er
 cater p
 caterp ill
 caterpill ar
 strong er
et e
 sk in
 me at
 f est
 cher ries
 st ack
 ca b
 cab in
ar m
 te mp
 P eter
 phot o
 avoc ado
 d epend
 depend able
 fur ry
 pa le
The ir
 s end
b all
 l ying
 for th
 spe ak
ic t
ur ing
 p ay
 join ed
 h ous
 hous es
 li br
 un k
 unk n
 unkn own
 ha m
 app l
um e
  U
 ro de
 po le
ang le
 inv ited
 not ice
 tak en
 la zy
 can e
 th irst
 spin ning
 char ming
c om
ink y
I f
our s
k ing
 d ust
 thu nder
 happ iness
ot e
ust r
ustr ated
 man ag
 C at
es day
 st umbled
 dist ant
 br idge
 b ump
 ignor ant
 mu le
 bor row
 M um
 friends hip
 tid y
 S usie
 e mp
 emp ty
 sandc a
 sandca stle
 par rot
 stret ch
om es
 we ep
 tow el
 ca ct
 so ap
 fest iv
 festiv al
 te am
 be es
 al arm
 ra ced
 cra w
 boy s
 open s
 p atch
 sp ill
sh ine
 dis g
 disg ust
 qu ar
 quar rel
 j ung
 jung le
w eet
 enjoy ing
 coo ked
 des ign
 le ather
 libr ary
 le ad
 need s
id ent
 appl au
 applau d
 fo lder
 g ar
 g ate
 f ountain
 fr on
 fron t
 in k
F luffy
 shap e
 o ats
 thirst y
 l it
 sh ark
 help less
 m ind
 mix ed
 M ary
 p edal
 fr ustrated
 end ing
 play ful
  iron
 att ract
 attract ive
 wh is
 whis p
 gen er
 gener ous
 your self
 bra ce
 brace let
 se ll
 co co
 coco a
Sara h
 le m
 lem on
 h omes
 P ete
 nam es
 lot ion
 explain ed
M ummy
 cact us
 che st
 ant s
 creature s
 se at
 rad ish
 mel on
 ra ven
D aisy
 temp le
 Sn ow
 Snow man
A nd
 le an
 rem ind
 sa iled
 re p
 ba ld
 To day
 sp ort
E very
 her o
 Tr ue
 agre e
 tim es
 sun shine
 disgust ing
 me adow
 dra in
 dif f
 diff ic
 diffic ult
 mark et
 squ ash
 disco ver
l ight
 co st
 bec ome
 or der
 fear ful
i ppy
 sh ine
 carrot s
 so ar
 ho sp
 hosp it
 hospit al
W here
 ang el
 o k
 m ountain
 stu d
 m ummy
 sm iling
 ri ce
 tear s
 jo ke
 st a
 sta ff
 a dded
f ted
 b at
 ear th
J ane
 wr ote
 happen ing
 light s
 c ap
 sa f
 boun ce
 prin cess
 cir c
 ent h
 enth us
 enthus ia
 enthusia st
 enthusiast ic
 f our
p ack
 stu dy
g u
 v an
 as leep
 sold ier
 pain ting
 balloon s
 a x
 ax e
im e
l ive
 g h
 gh ost
 stand ing
 wag on
 c op
 wa nder
 h ook
 cabin et
pl ay
 de af
ig hed
 tele v
 telev is
 televis ion
un n
 fre sh
 fr ight
 kn ock
 perf orm
c ing
w ard
 coll ar
 land s
 he dge
 m elt
 bo dy
 fall s
 spo ke
 unl ock
 cre ate
a ppy
 your s
 clean ing
 pir ate
 ac c
 acc ident
 li cked
 mod est
 sc iss
 sciss ors
 plan et
 ce iling
 show ing
 fing er
 qu it
 on es
 ele v
 elev ator
 sp un
  que
 que en
 T weet
 bu il
 buil t
 R ob
z e
 kind ness
 draw ings
 snack s
  

 m ed
 en v
 s ug
 sug ar
 wip ed
 read ing
 f rag
 frag ile
 manag ed
 belong ed
 success ful
W ell
 hurt s
 flo at
 f ive
 car t
 n ail
a w
 pr ay
 sque eze
 des k
i b
 ca st
 t est
 s ize
 a ut
 aut om
 autom ob
 automob ile
it her
 an c
 anc ient
 fr ame
 Grand pa
 an ch
 anch or
f a
 pract ice
 ret urned
L isa
 sc ale
 f og
 C arl
 make up
 p atter
 patter n
 un iver
 tri angle
 v end
 ve il
 v ol
 bath room
 fa uc
 fauc et
 fo ld
 st rawber
 Sh adow
 dis play
 t iger
 know ing
 bus hes
 to ug
 toug h
 fright ened
 s ur
 tell ing
 ch ub
 chub by
p ed
on es
 start s
  ed
 per m
 e ventually
 stu bb
 stubb orn
 t ick
 ho se
 pig s
 lab el
 ho les
 s ighed
he ad
 excite ment
 d aught
 daught er
 sne eze
ez ed
 fruit s
 sc re
 imp atient
 bl ow
 say ing
le as
G rand
 har sh
 pun ish
 tra sh
in ted
 sh ocked
 nice ly
 s ink
 E ven
 laugh s
 stop s
 them selves
 env ious
 li fted
 je w
 am b
 l ow
 wis hes
 circ les
g round
 fl uffy
 co al
 hum an
 sweet ie
if e
ow ed
 t ent
 pen gu
 pengu in
 Pe pper
 tra p
 w ool
 play er
S ee
 was hed
 s le
 sle pt
o ppy
 m en
 men u
 to r
 tor n
 sh ut
To gether
 c ity
 prin t
 jour n
 journ al
 R ina
 ran ch
 cher ry
 tr ade
 do ve
 pot ato
 c ro
i kes
 B ill
 cl ay
 cra ck
n am
 shr imp
 bri ck
 hel ic
 helic op
 helicop ter
 help s
ex t
 sp ent
 wh ich
 rid ing
 T eddy
 st om
 sun g
 sung l
 sungl ass
 sunglass es
 know s
or y
 c amp
d le
 kind s
 co l
 belong s
 ham mer
 gar age
 G ive
in ary
B y
 the se
 scre en
 scr atch
 egg s
 hot el
 organ ized
 met al
 ob ed
 obed ient
 mar ry
 mo ves
 answ ered
Tim my
 sw e
 pe ar
 You r
 tow ers
 wall s
 b et
 ch ase
 ju dge
 j unk
 fr own
 bark s
 drop s
g ing
il ot
 a p
 har m
 harm less
 L iz
 be ep
 st ation
The re
 t una
 cast les
 b urned
 E llie
 t u
 tu be
u nd
 ar row
 f at
 M iss
 stri pes
as ks
op e
 jump s
 past a
 miss ile
 as ht
 asht ray
 And y
 pack age
 n avy
 m ass
oc o
og gy
 fl ash
 vol c
 volc ano
 key s
 ch ain
 law y
 lawy er
i k
 op era
 Em ily
 marble s
 M op
 hur ry
 we ird
 sp ear
 li cks
 us ing
 mist akes
b led
 for ward
 ed ge
 rec og
 recog n
 grow ing
 clo set
 show s
 hold s
 grab s
 or d
 ord inary
By e
 pr o
 we ek
 pun ished
 truck s
op h
ra ge
i ence
 cup s
 st at
 stat ue
 disapp o
 disappo inted
 door s
 Wh ile
 bigg est
 p at
 pri ze
 h ours
 en c
 question s
 s ight
 hum ble
ar ry
 ri bb
 ribb on
 amb ul
 ambul ance
 sleep ing
 sl ip
 Z ara
 on ce
 fire pl
 firepl ace
 st airs
 bubble s
 j azz
 pus hes
 ste al
en s
 ra ise
 weep ing
J im
 should er
 mu se
 muse um
 de ar
 p ages
 imag ine
 y ield
 so fa
 gra ce
 rest aur
 restaur ant
 cla pping
 pretend ing
 te as
 t ire
a it
 cro co
 croco d
 crocod ile
 vend or
 m all
 m ild
 st age
 ca ul
 caul if
 caulif lower
 or nam
 ornam ent
  ig
 ig l
 igl oo
 firewor k
 ca le
 cale nd
 calend ar
 g oose
 way s
 s ugg
 wag s
 ro ared
 p ump
k in
 learn ing
ug ged
 carry ing
 hun g
 l ed
 sho vel
 pic n
 picn ic
s hed
 any way
 me as
 chicken s
 gather ed
 m id
 mid dle
 a w
 in s
 box es
 n umber
 a head
 pass ed
 we althy
 j ail
In side
 tri ck
 mean s
 ex t
 ext ra
 ret urn
 hang er
 T ina
 le ash
ac hes
 comp et
 compet it
 set tle
 swe ater
 un com
 uncom fortable
 jo kes
 off ered
ail able
 n umb
 v ie
 vie w
 sun set
 med ic
 medic ine
, â
 re f
ur ed
 H arry
eter m
eterm ined
 pap ers
 does n
 ser ve
ion s
 W ed
 Wed n
 Wedn esday
D id
i pping
 rabbit s
 ch ose
 po pped
st airs
 te ase
 bu ry
 cook ing
ak ing
at ely
 exp ens
 expens ive
 impress ive
 mod el
L ittle
 disapp eared
 c ards
 P oppy
 cr own
 ar g
l ow
 t ask
 pract iced
 no sy
k y
 ad or
 books he
 bookshe lf
 r ug
 w ink
 whist le
 ho l
 hol id
 holid ay
 pe bble
 sil ver
ar ian
 she et
 d ict
 dict ion
 diction ary
 respect ful
 b ul
 bul b
ctor y
 C oco
 flash light
ig z
igz ag
 R ich
 gl itter
 T oby
 arm ch
 armch air
 fr o
ipp o
 hur ri
 hurri c
 hurric ane
V el
Vel v
Velv et
 B ow
in ation
 sh ade
 off ice
 letter s
  â
 th ose
 bre at
 ce le
 cele br
 sw ung
 s on
 break s
 al read
 alread y
he w
l ies
 tr ut
 trut h
 music ian
 mo der
 moder n
is ted
 pick ing
 In stead
 in se
 inse ct
 adm ired
 comp let
 fall en
 cost ume
 g um
 sh akes
 v room
 gi ving
 l u
 sh ort
 class room
 thank s
 sk ipped
 pour ed
 wip e
bo dy
 s ent
 numb ers
 pu pp
 wa ving
 supp ort
 enc ou
au sed
 spe ed
 ab ove
 mu dd
 mudd y
ip e
 har bor
ll y
 rot ten
 se al
 d etermined
 Sh aring
 think ing
j ect
 c ase
 sh iver
 st air
 pencil s
 s uff
pp ers
 c one
 slid es
 pain ter
i um
 jew el
in es
 ac ce
 dream s
 d ish
 pl ates
ed y
 e ither
 dist ance
 c udd
 del ight
 advent ur
 adventur ous
 O live
 hand le
 kn ife
 ador able
 grace ful
a pped
 draw er
 val u
 sh ock
W ait
 kn ot
 fa ctory
 loud er
 ste am
 card board
a ul
 str ugg
l er
l s
 w ine
 tri cks
 R ed
!" .
 strawber ry
Jim my
 v eter
 veter in
 veterin arian
 h ippo
  Velvet
 firewor ks
 t ax
 tax i
 B ox
 Box y
 lean ed
 W ill
ation s
 craw led
is ing
es ted
 close ly
 smell s
 gigg le
 t unn
 tunn el
G o
g en
 tight ly
y al
 shell s
 wa ves
 meet ing
 st ones
 sh one
 Mr s
 Be a
 Bea ver
M r
 now here
 butterf lies
 pa cked
 b urn
as on
 ins isted
 pre vent
 en er
 com fort
 po ke
 real ised
 call s
ead y
 sad ly
 pop ular
 lu x
 lux u
 luxu ry
 walk s
 un ite
 throw s
 shout s
 fast est
 ste el
 ear s
ac he
ul ie
 wr iting
 sn iff
O uch
 cou p
 coup le
 res ist
 pupp et
J enny
 stir red
 fav our
 favour ite
 sc old
 tra vel
 K ing
p er
 p ilot
 play ground
 rem ove
 should n
 li z
 liz ard
 suff er
 up stairs
 shout ing
 mess age
 op er
 oper ation
 ro d
 comp ut
 comput er
 Every where
 com fortable
 u r
 fre eze
 an x
 anx ious
' d
 B ig
 he at
O w
 be et
 beet le
in ked
 re ind
 reind e
 trou bled
 ra cing
 on ion
 z ipper
 arg ue
G ive
 St e
 tr unk
 E nd
 l id
 supp ly
 pe ppers
 pe an
 valu able
 point s
 pop c
 popc orn
 R o
 m ach
 mass age
ic er
 do l
 dol ph
 b ikes
e on
i est
 p ipe
 D oggy
 en vel
z en
 qu iz
t ress
 y ach
 yach t
as is
 hedge h
 hedgeh og
 T una
 any where
 ran g
 cla w
 ch ance
 loud ly
 rep air
 I s
Y uck
 bark ing
A re
 W here
 lo yal
d ed
 ch oose
 happen s
 sne ak
 adm ire
 ar t
 spray ed
 ob ser
ce ed
 sh ip
 ser ious
 accident ally
 complet e
 step s
 count ed
ent ion
 lip s
 d uring
 trust ed
 her s
 gl o
 glo ves
 dream ing
Bob by
el come
d om
 pa id
 exam ine
 ru bbed
im ed
 sp end
 P inky
 s udden
 av ailable
 sl ipper
 slipper y
 tri pped
oop ed
 sn ap
 feel ings
 sp ell
 air port
 He l
 Hel p
 sp id
 bat ht
 batht ub
i ves
 the ater
 re fused
 su per
 jog ged
 sm ar
 smar ter
 ap ol
 apol og
 grand p
 grandp arent
 mar ched
 put ting
ol a
 r ul
 rul er
 monkey s
 y aw
 spill ed
 band age
 whisp ered
I s
b our
u sh
 sh ore
 w est
 P uffy
 att ic
ac ked
 O r
 c ord
 L ena
 int ro
 intro d
 k ay
 again st
 mag az
 magaz ine
 al ive
 reinde er
 h ive
em ember
 end ed
 dish w
 dishw as
 dishwas her
 gre edy
 fl ies
 boun ced
 bl oom
 c ur
 roll ing
 L illy
 old er
 He re
 we igh
 T illy
 scr at
 secret s
 gif ted
 of ten
 th ick
he ll
 neck l
 le ak
 rot ting
  Y
 C l
 bl inked
 ra il
ri ll
 ba b
 bab ies
 hurt ing
 Ro ver
 back pack
 univer se
 mach ine
 M ama
y d
yd ia
 F ox
 break f
 breakf ast
! '
 dolph in
s ity
 o ct
 oct op
 octop us
 stud ent
ib i
 sk ip
 sto ve
 p ins
 m ask
 mail man
 Jim my
 fro zen
 L oop
f us
 lo ll
 loll ip
 lollip op
 mat tress
 h ut
v y
 o asis
 T ena
 k ang
 kang ar
 kangar oo
ke ep
keep er
 claw s
 ey e
Dad dy
 R ex
 N ext
 lion s
 to ng
 t ummy
Good bye
 breat he
 w ob
 shr ugged
 lands cape
 C hew
 perm it
 excited ly
 e ast
 b ang
 frog s
 cu be
 b ur
 obser ve
 suc ceed
 f ed
 discover ed
 col our
 spark ly
 fl ap
 swing ing
 ener gy
c u
 p urse
 sk irt
 S m
 ear ly
 fix ing
 inv ite
 gigg led
 r ings
 fing ers
S h
 competit ive
 S oph
 ad v
 cou rage
 exp er
uc t
 destroy ed
 che ck
l o
 sa ving
 poem s
bb ing
 tre mb
at ure
 stri ke
 tap e
 inc re
 fil thy
in ce
. .
 ne at
 sil ence
 c ob
 cob w
 cobw eb
 cross ed
 super her
 superher o
 jelly fish
m ed
 spo iled
 cand le
 repl ace
 wall et
 s uit
 pan ic
 bump ed
 be nd
 tw ist
 b ent
n ight
 meas ured
g es
 ru les
et ty
W ill
 gas ped
 light ning
 star ed
 hang ing
 kay ak
 stret ched
 coll ect
 W ould
 ba a
at ing
B uddy
 s y
 sn ugg
 forg ave
 p age
 d em
 dem and
 com pl
 compl ain
 m ay
 c row
 sandw ic
 sandwic hes
 tele ph
 teleph one
 follow ing
 banan as
pec i
peci ally
 lea ving
 l ime
 sec ond
Bob o
 miss ing
 ra ised
s c
 stick ers
 bag s
 S p
 M ic
 Mic hell
 Michell e
 neckl ace
al s
 head s
 che ss
 bl ink
Grand ma
 bel t
 re lease
 tick et
 girl s
 n ur
 je ep
 L ydia
w e
A ll
 beaut y
e or
eor ge
 P aul
w ards
 pig eon
 B ibi
 kn ob
 s ub
 sub way
 re ce
 p ist
 pist ol
 past ry
 ra z
 raz or
 sc o
 sco ot
 scoot er
 earth qu
 earthqu ake
 ba se
 stom ach
an ny
 ref r
 refr iger
 refriger ator
 disapp ear
 o y
 c ere
 cere al
 Ste ve
 acorn s
 sun r
 sunr ise
 P andy
 Ru fus
 sl ed
 c urt
 curt ain
 M ike
 C oby
ik i
 app re
 appre c
 apprec i
 ign ore
 car ing
 ex er
 exer c
 h unt
 d are
 pump kin
 G ood
 soft ly
 pir ates
 S ee
re ct
 gl ue
a ster
 after n
 aftern oon
 h ay
m en
 te xt
 text ure
 bird c
 birdc age
h appy
 need le
 poin ting
 L ook
 drink ing
 slid ing
 le ar
 lear nt
 pa ir
ast ic
 bit es
 Z ippy
 sne ezed
 U nder
 pro v
 hop ing
op s
R eady
 pre p
 re aches
 sp ace
 cand les
iz es
 cra sh
 adv ice
 exper ience
 fall ing
 ch im
 chim ney
 J ulie
 sniff ed
 com f
or ted
 n ature
 stud ied
 dress ed
 c aused
ver se
it ched
 hill s
 Tr uck
 Truck ie
 re fu
 refu se
 fis hing
 se ats
 All y
 sor ting
 recogn ize
 b other
u dge
 M atch
 moment s
 b le
 A unt
 p ra
 chas es
 hop es
 bright er
 app ear
 t ub
 saf ely
 z ipping
 ob ject
 t en
 fur n
 furn it
 furnit ure
 glow ing
 un pack
 wa ist
 E lly
 w igg
 y et
 set ting
 neigh bour
N ot
 br ush
 t ug
 ha ll
ec ted
J azz
 fr idge
 st irr
 stirr ing
 record ed
 war ned
th ank
 S und
 Sund ay
E m
P olly
 d ess
 dess ert
is hing
 plan es
 paint ings
 John ny
 shrink ing
 t ip
 che cked
 tr ay
 imp ro
 tw ir
 pus hing
els ie
 sque ezed
 es pecially
 delight ed
 v all
 vall e
 valle y
 cool er
 sy mb
 symb ol
 fl apped
 new sp
 newsp ap
 rem ain
 Pe ople
 organ ize
 Bl oom
 pet als
 wat ches
M ark
  ow
 g rill
 plan ted
 surpr ises
 saf ar
 safar i
 M itten
 Mitten s
 nur ses
 Rob o
 st ad
 stad ium
 bet we
 betwe en
 bo ard
 po is
 pois on
 G ia
h y
 tra il
 pe ach
 re pe
 rep ly
 In ky
 van ished
 bl ood
 sw an
 base ball
 M anny
ie f
ag g
agg ie
 B inky
 earth w
 earthw orm
 M ar
 a er
 aer op
 aerop l
 student s
 W ally
au ra
 M ay
 S k
 Sk ip
 m asks
lo ssy
 B igg
 Bigg ie
 L izzy
 L ucky
 M ix
 cr ane
 J an
 th umb
 no on
 pin ched
 sugg ested
 let ting
 tong ue
 H ave
 sur f
â .
 proud ly
 imag ined
 inc l
 incl u
 throw ing
 kne el
 pr ide
 war n
F r
 kn own
 dis ag
 disag re
 rain ing
 str ings
o sed
 att ach
 att ached
M or
Mor al
 grand m
 grandm other
 act ing
E lla
 he al
 wrap s
 forgot ten
 p leas
 la p
Grand pa
 prep are
 d ive
 s ir
 br ings
 climb s
 celebr ate
L e
 button s
W elcome
 wis dom
B ella
ant ly
 F r
 no body
 room s
 mar ri
 marri age
 count er
 ch oice
 gold en
 tre m
 trem ble
 al r
 alr ight
 sc ooped
ec ause
 gr own
 pudd les
 so ak
 ba ked
 scold ed
 tra ve
 trave led
 wheel s
a pping
 v et
 spid er
a ked
 laug ht
 laught er
 sol ved
 S andy
 add ing
 tom ato
 ble ed
oun ce
 Ru de
 fa sh
 impress ed
 gift s
W ith
 jog ging
 L ou
st r
 ser ved
igg y
 B ear
 car ed
 climb ing
 thre ad
 bit ing
 T u
 Tu esday
 even ing
 del ay
 problem s
 agre es
 perfect ly
 sl ap
 shin ed
 g ust
em ent
 res p
 remind ed
 decid es
 introd uce
 p ad
 bucket s
 win ner
 stretch ing
t e
H a
 ide as
 boot s
 ba king
 cri cket
 snugg led
 It s
 Ru dy
 Sam my
 dis hes
Y ay
 demand ed
 kne es
M imi
 when ever
 p or
 por ch
 hand ed
 incre ase

  
 their s
 Z ip
 impro ve
 L ike
 t asks
 search ing
 kn ight
ic ing
 la id
 was hing
 so il
 call ing
 whisp er
 ch ang
 Dan i
 Dani el
 man age
 help er
 newspap er
 f et
 wr it
 W ater
 comp any
 rain y
 g y
 gy m
 to ur
 bear s
 jewel ry
st ri
 co f
 cof fe
 coffe e
m and
 m ice
 re e
 ree f
a id
 cart oon
 lip st
 lipst ick
 H op
 pen s
 pin ch
 listen s
 Ch arl
 Charl ie
 sa iling
 keep ing
 univer sity
e a
 A b
 z igzag
 cut s
 M ill
 to dd
 todd ler
 f le
 past el
 creat ed
 repe at
 chew ed
 sp ike
 torn ado
 bl ouse
 acce pt
 fold ed
 f u
a by
 R ose
 grand s
 grands on
 U n
m ine
 pret t
 l ung
ache l
 A nt
 H ippy
 oy ster
 whist ling
 hair c
 hairc ut
 hor ses
 th ief
ang ers
 aeropl ane
 vill ag
 villag ers
if i
 pa nd
 pand a
 sp ag
 spag he
 spaghe t
 spaghet t
 spaghett i
 L aura
 mo le
 P ipp
 Pipp in
 R ay
 Sp ike
 her b
 F lossy
 No d
al ad
 catch ing
l ook
 imag ination
 sail or
 br us
 brus hes
 exerc ise
 to ile
 toile t
 count ing
 d ared
 K ate
 star ting
 reg ret
 surf ace
 understand ing
 so cc
 socc er
M ama
W oof
 dog gy
 snow ball
R emy
 she l
 shel ter
f re
 L ittle
 ru shed
 di rect
ict ory
 flo ated
 mat ches
 str uck
 sho pping
 n one
 disagre ed
 un happy
 ring ing
 are a
 flap s
 supp osed
D uring
 M illy
 pl astic
 A re
 splas hing
The se
 let s
 C ir
 Cir cle
 mar ried
 Every thing
 sweet ies
 exc l
 excl a
 excla imed
 pe e
 pee ked
f ied
 J ason
 pat ted
 tremb ling
 comf orted
N ext
 inv it
 scream s
R i
Ri bbit
 rain ed
 sal t
 f ara
 fara way
 no vel
 e mer
 emer gen
 emergen cy
 mushroom s
 wor th
 B ounce
 ac ted
 happ ier
 fash ion
 ch all
 chall en
 pedal s
 Z iggy
 p ur
Mom o
 sc rew
 turn ing
 cat ches
s it
 vis ited
 re qu
 sh ield
 sugg est
 all owed
 B etty
 ch irp
 tra ins
 l uck
 re verse
 colour ful
 my self
 stay s
 pull s
 s ince
 ur ge
 ru in
 chair s
med i
medi ately
 sh ot
 our s
 me m
Em ma
p ted
 c or
 you th
 had n
z zy
 mouth s
 apolog ize
 track s
M ary
 col ours
 un f
ut ter
ug sy
 Le e
om m
omm end
 myster y
 to es
t her
 pup il
 side w
 sidew alk
 scrat ched
 st y
 gr in
 cl own
 frown ed
 t ut
t ime
 s igh
 writ es
 
  
 sc ore
 pen ny
 Wh o
 pean ut
 break ing
 coll ected
 b unn
 bunn ies
S urpr
ter day
 Soph ie
 the rm
 therm omet
 thermomet er
r r
 loo se
 load ed
 record ing
mand a
 ent r
 M o
 law n
 O ur
 ri bbit
 Carl ton
 tra ff
 traff ic
 tra pped
 was te
 cudd le
e ks
 yaw n
 J une
 neighbor s
 spark led
 by e
d ing
 â 
J ill
F red
 o ak
 worm s
 cont ent
 G eorge
ra ce
 applaud ed
Y ea
Yea h
 in f
 inf ant
 mov ies
 strugg le
 la ser
 fle a
 bre eze
 w re
 wre ck
op es
h ouse
 rec or
 recor der
al ph
f l
 off icer
 dri ving
 B aby
os ie
 res c
 p ort
 new s
b oy
ik a
 envel ope
 hit s
 bu zz
 teas p
 teasp oon
 R achel
 f ought
 sc ri
 L ipp
um i
 Wh ist
 b om
 bom b
 J essie
ic es
 la und
 laund ry
 F ifi
ig ail
 sh amp
 shamp oo
U n
 H oney
 rag s
 str angers
 o stri
 ostri ch
 I vy
 An ne
 Joe y
S alad
hy s
 J udge
 D ina
 Dina h
 see ing
 ex it
k ins
 we ather
 Le ave
 knock s
 â 
 o x
 ox y
 oxy gen
 D id
 listen ing
 win ter
 ang els
 snowball s
T eddy
 stom ped
 bright ly
 v ictory
 sneak y
 unl ocked
 y ucky
 pull ing
P enny
 mark ers
 be amed
 po ss
 disco very
 st amp
Every one
 tw is
 twis ty
 explor ed
 sun light
 pe el
 craw l
 dis cu
 att ention
A h
 p ies
ch oo
 prov ide
 r ow
 li e
 pleas ed
 sound ed
 rid es
 St ar
 man e
 F or
To day
 S qu
 Squ are
 spr ink
 c akes
uc ked
Le o
 s izes
 r ust
 g ain
 war ning
 nap kin
 chas ing
 wor se
 With out
 window s
 wh ip
 scatter ing
 ignor ed
R u
 qu ack
 encou rage
E ventually
 sw itched
 cr unch
  ing
 ing red
 ingred ient
 ingredient s
 e ff
 eff ort
 be g
 sor ted
iz ing
 G ary
 scatter ed
 an n
 relie f
 l ined
 play s
 car ries
 pra ised
 wag ging
 s imp
 in str
 instr uct
 instruct ions
 O l
 Ol iver
 part ies
 n ine
 he sit
 H en
 Hen ry
 encou rag
 for k
 nail s
 rest ing
 b es
 bes ide
 L ola
L ola
 Some one
u es
 w id
 spark ling
 pray ed
' .
F or
e ally
 resp on
 bu ried
 lo cked
 sh aking
 wob b
 sp ade
 perf ume
h ood
 When ever
 Every day
 im mediately
 ex pect
 gear s
 adm ir
 b ill
 bill board
 acce pted
 un if
 unif orm
 N ot
R emember
 re ve
 reve al
 stick y
 Th ose
 g or
 gor ill
 gorill a
 belie ved
 z er
 zer o
 U p
B ugsy
 bell y
 sne ez
 sneez es
 mo at
 rec ommend
 fl ood
 L ater
 K elsie
 cur led
 order ed
 sna pped
 cra shed
 shiver ing
 count ry
 sty le
 stre ng
 streng th
 eas ily
 R emember
 l ugg
 lugg age
A n
 tut or
 pol ish
 pol ished
 play time
m m
 shadow s
 what ever
 wel com
 welcom ed
 symbol s
 h i
 e ch
 ech o
 di pped
r ink
 pean uts
 gr ant
a ffle
 ho c
 hoc key
 wait s
 for t
 pretend s
ind a
 A manda
 entr ance
C h
 bus es
 pan c
 press ing
 loop s
og a
 roll s
 m ention
 wander ed
 sweet he
 sweethe art
re at
on ic
onic a
Surpr ise
 g ross
 perm iss
 permiss ion
 touch ing
 stick er
 t ide
 sunf low
 sunflow ers
 kick ing
B ird
 sign s
A b
 cup board
 ro ot
 he el
 appreci ate
' ?"
 arri ve
 off ic
 offic ers
u sed
 Fred dy
P eter
 f leas
 cost um
 costum es
 to night
 float ing
 pe aches
  x
if ic
 hoop s
 rece i
 recei ved
 go al
 snow fl
 snowfl akes
 R osie
 b ones
 resc ue
 guess ed
 sp it
 w ound
 S unny
 steal ing
 H appy
 grow ls
 W ant
 rest ore
 G erry
 ra ft
ed s
 prett ier
 envel opes
 slow ed
D ay
 ch ip
 chip m
 chipm unk
M andy
 M aggie
 cap t
be ep
 Y umi
 St rawber
 Strawber ry
 w ire
 Whist ler
 answ ers
 kick s
 deliver ed
 C ow
 H or
 Hor se
 strawber ries
 M ummy
 c ert
ro l
 eras ers
 deep er
 bar rel
 M aisy
 ar my
 D ot
 hop s
fort un
fortun ately
M ay
 Sn ugg
 Snugg les
 Cl ar
 Clar iss
 Clariss a
M ic
Mic key
 gen ie
 sp ikes
 Z igzag
 Lou ise
 M ina
 Bird ie
 n ut
 K iki
an cy
   
 remind er
 ba re
 bare ly
 hunt er
K ate
 water ed
 dress es
 pump kins
B ad
 post man
 c ust
 cust om
 custom er
y ear
 ent ered
 head ed
 inclu ded
 F ollow
T r
J en
fre eze
 bad ly
 plan ned
 meas uring
 s um
wor k
 bur ning
 fire men
n ap
 recogn ized
 cre ation
 t ugged
 c ause
 all ow
 zoom ed
 sur round
 planet s
id ed
 follow s
 lead s
 se w
 tr u
d ged
 field s
 st all
 pe ek
 fl at
o ke
E x
You r
 s ix
 Mom ma
 t ucked
 driver s
it ion
 E ventually
 set t
 sett led
e ed
 s en
 sen se
 rel uct
 reluct antly
 zoom ing
Fr ank
on y
h ind
H old
look ing
 must ache
 g ro
 gro c
 Ru by
 invit ation
 lo ving
 jo king
ack y
 grow led
 crunch y
Z oom
 slow er
 d ried
 helmet s
 jew els
ip es
 o l
 ol ives
ur ry
 Ch r
 Chr ist
 Christ m
 Christm as
 bleed ing
 s ke
 ske le
 skele ton
 imag in
 Aunt ie
 s om
 som ed
 somed ay
 sur re
 surre nder
 p aused
 encourag ing
m el
 requ est
 pro ject
 wigg led
 yaw ned
 eat en
O ops
F ine
 st are
 med ium
 amaz ement
 van ish
 in ter
 o be
 obe y
 respon s
 hig he
 highe st
  X
 pin at
 pinat a
 ru le
S usie
W atch
 pad d
 jo ked
 import ance
 spot s
 d igg
 digg ing
B a
Ba a
 mem ory
 rock ing
 s id
 bat he
 cor k
 rang er
 fre ez
 freez er
 calm ed
S ome
an s
 mot ion
 f ile
 m ath
 discu ss
 ste ep
 fl utter
?" ,
ot s
 his t
 hist ory
 p le
L illy
 F irst
M iss
 direct ions
 t ig
 tig ers
 ear l
 earl ier
 wis hing
 ruin ing
 spark le
 twir led
 pre c
 prec ious
 pupil s
 pract icing
 so aring
 act ually
 nap s
 robot s
 squ aw
pl ash
 blue ber
 off er
 bur st
 S ky
 under ground
 wra pping
 grin ned
 P u
 Pu ppy
 build ings
 ru sh
 P izza
 sat is
 pol ishing
 inv est
 invest ig
 investig ate
l en
L ulu
 m ic
 mic ro
 micro sc
 microsc ope
ore s
T iny
 a ch
 ach ie
 wis ely
 fet ch
 chang ing
 echo ed
 gar b
 garb age
an es
 dinosaur s
 tw in
 sad ness
 n apping
 ri pped
 ri p
ec ting
 W affle
  Yes
 A l
ip s
 par ade
 march ing
c l
" ,
 teas ing
L inda
h ile
 ag o
Ch irp
 perform ed
 wa ded
 some where
L una
 eager ly
 teas ed
 cartoon s
 to aster
Y oga
 po se
 kiss es
 mention ed
G reat
 M onica
 a imed
 o live
 cudd led
 pattern s
 roar s
 unt ie
 l ec
 lec ture
 co ats
 n icer
 own ed
 chew ing
 po king
Y um
 G race
on n
onn ie
 me owed
 pr un
 prun es
 Ab by
 v owed
 glow ed
st ers
 night m
 nightm are
 nightmare s
 comet s
ion a
 cover s
 where ver
 st ing
 find s
 happ iest
 so ared
 scrat ches
 me ow
 after wards
 P ap
s ing
 co pper
 dest ination
 hat e
 plac ed
 o h
 rece ive
S low
 h itting
 dust y
 fear s
R eally
 through out
 D av
 Dav id
 doll house
 R alph
 strugg ling
 fu el
 Go d
 nation s
 crack ers
 D in
 our selves
H appy
 ca ble
 wink s
 relax ed
 news boy
 long est
 min ute
eth ro
Be fore
 e vent
na ught
naught y
 lady b
 ladyb ug
 we eds
 buzz ing
 pri ce
Day s
 fre ed
 blink ing
 app ro
 M andy
 sk ill
Bird y
 unf old
!â .
 sc aring
 e qu
 equ ip
 equip ment
 Mar ia
 we eks
 too ls
 O w
 F lor
 Flor a
 bo om
 jet s
 go at
o ices
 cert ific
 certific ate
 er ase
 hur ried
 barrel s
 bee f
uck ily
M aisy
 L or
 Lor i
d am
Un fortunately
 S orry
 t art
 wood en
 blanket s
 competit ion
T ina
 Mar th
 Marth a
 pap a
 help ers
 t ank
 ra cc
 racc oon
M ike
I vy
 pr ove
 H ope
 S u
 Su zy
 J ee
 di ary
 R hys
K iki
 capt ain
J an
 N ancy
 shop keeper
O llie
 Be fore
 path s
 every day
 pack ages
 bring ing
 Good bye
 bal an
 Th om
 Thom as
 foot ball
 brave ly
 celebr ated
 b umpy
? !"
 op in
 opin ion
 spill s
 contin ue
 h us
 hus b
 husb and
Mr s
 sum mer
 color ed
 m aster
 want ing
ne ath
z ed
 qu ite
 cre ations
 interest ed
 craw ling
?" .
 sister s
 G et
 St ay
 eat s
 li ck
 prov ided
 p ant
 po ses
 cl ick
 sew ed
 store keeper
 blow ing
cu se
 pol it
 polit ely
ang les
 fr ost
 frost ing
 sprink les
 sn ug
 feed ing
 sn at
 snat ched
 fa ult
 s i
 si ren
 win ning
 visit ing
 Soph ia
S oph
Soph ia
 ind eed
 Somet hing
 gain ed
 exam ined
 Fr ank
 Tweet ie
J ason
 hope ful
 design s
 film s
 groc ery
 nervous ly
 ro aring
 eas ier
 puppet s
 sad der
B ecause
Q u
 w ins
 mix ing
 W elcome
 S ince
 fl our
.. .
in t
 beg ged
 B y
 s ip
G ary
 so aked
 ref re
 ch uck
 chuck led
 fig ured
 rec ipes
H urry
 bu dge
 cap e
 to re
 sl am
 cr umb
 crumb s
 pat ience
 trick y
ou ch
 purp ose
 simp le
F irst
 B oth
 p itch
 scr u
 sw ooped
 z ipped
 pur red
 ent er
 B ecause
 apolog ized
 M oby
O k
mel ia
 forg i
 im age
D ucky
 bird ie
 bad ge
 o at
C he
B etty
 every body
en ing
 rem o
 remo ved
 E n
 En joy
 aw es
 awes ome
 out d
 outd o
 outdo ors
 inter n
 intern et
 h our
ib il
 got ten
 creat ing
 pot s
 wobb ling
 t um
m ies
G et
 spoon s
 introd uc
 introduc ed
 gra bbing
 scratch ing
 le ap
 admir ation
S illy
 re leas
 peace fully
 decor ations
 too l
 tremb led
 ca ut
 tw ice
 reveal ed
Some one
O r
 so d
 sod a
 c oug
 arrow s
 decor ating
 dear s
 squ as
 pile s
 he ight
 half way
end er
 ru by
 d ots
 hear ing
 ple asure
 tick le
A choo
 fire s
U h
o h
K elsie
 B r
 Br own
T illy
 l imes
 is n
 am ount
 he n
 S low
 O K
S plash
 blueber ries
 superhero es
 es cap
 escap ed
 can es
 o dd
 pass en
 passen g
 passeng ers
 sell ing
C ar
 S oup
 sl ice
 satis fied
 teach ing
 sto len
 ra ising
 l ines
M mm
 chang es
 sol ving
 puzz les
 ent ire
 expl an
 explan ation
 achie ve
re e
 keep s
.. ."
 un p
 unp acked
 remain ed
 print s
 sne aked
ious ly
 cont ain
 ur ged
Sh rink
 ag es
 shop s
 kn elt
 m oo
 pur r
 prot ecting
 Yes terday
rr r
 sn akes
e ep
 pe as
 c ough
 sl apped
cl ock
An n
 stri kes
 king dom
 log s
 R eady
 aw hile
 under w
 underw ater
 sort s
h a
S w
Chirp y
 dist ur
 distur b
 draw n
ret end
 pow ers
 fair ies
J ake
 squirrel s
 t ipped
 poin ty
 tw ink
 manag ing
 spend ing
 de v
 up side
 yell ing
 th ri
 thri lled
 block ing
 th orn
 b oo
b oo
 reach ing
 rob in
 buck le
 p alm
 glass es
 tall er
N ever
 w oof
 P r
 Pr une
 Prune y
 padd led
 che ers
 clap s
 shr ug
 forg ives
ak y
 dragon s
 to pp
 topp ings
 rem em
 remem b
 rememb ers
' ve
 sal ty
 d aisy
 pe ered
 un w
 ad ult
 adult s
v i
 B ri
 Bri an
 Bu zzy
 wa ff
 waff les
. '
 sail ors
D anger
G eorge
 elephant s
 R onnie
 p ed
 av o
 hum ming
 yes terday
 ro cked
 tim er
 O ther
B ill
P aul
 spid ers
 bea st
 stick ing
 work er
 glitter y
 wink ing
 draw s
g ive
M ill
 on wards
 fa sc
 join ing
 fl as
 yog h
 yogh urt
 hat es
 rub s
 be at
 past els
 sk ipping
 treasure s
 hid es
 sit s
 P ilot
D an
 G ina
T oby
 fam il
 ch os
 chos en
 wigg ly
 To oth
 F air
 Fair y
 cobweb s
 r ats
 crow d
 s ib
 sib l
 sibl ings
Not hing
 tru ly
 Be ck
 Beck y
 can s
 f oc
 foc used
 ap art
 pra ise
E at
 ru bbing
 cop ied
 second s
W ould
 phot os
 st ra
 stra ight
 load ing
 rainbow s
 bel ow
 t une
 float y
 Fin ny
P oppy
 weapon s
 Sm ith
 M ika
M ika
 pl ent
 plent y
 Din osaur
 Un iver
 Univer sity
  icing
id s
 differe n
 decor ated
 nest s
ong r
ongr at
ongrat ul
 E ach
 freed om
 appro ached
 wait er
M aggie
ra ged
 scri bb
 scri bble
 R a
 Ra bbit
 scream ing
M ar
J ulie
 hat ched
 cra cks
he llo
Me ow
 squ ish
 squish y
 Tweet y
 str uc
 struc ture
 real ize
 learn s
 wid ened
 twir l
 sold i
 soldi ers
 v oices
 comp le
 pair s
O ur
 magn if
 magnif ying
 panc ake
 cont rol
 alligator s
 eras ing
 che ek
 grand ad
 sl im
 slim y
 t us
 tus ks
 wonder s
 press es
 Ab igail
Ab igail
L uckily
 Pap a
 A dam
r imp
u d
 scare s
 camp ing
 white board
 vend ors
av ailable
b ut
 let t
 lett uce
 display ed
B oo
 b in
 sled ding
 rh y
 rhy th
 rhyth m
 musician s
 M at
 punish ment
ac es
 fro ze
 cream y
 me ch
 mech an
 mechan ic
 p ause
 herb s
 r ising
 color ing
 Jo sh
Be ep
M ina
 att acked
Joe y
 fl av
 cl er
 cler k
oun cing
R ise
 fire f
 firef ight
 firefight ers
 cap es
 But ter
 Y ell
 Yell ow
 zoo keeper
John ny
 Un cle
The a
 police man
 curious ly
 appreci ation
S p
 creat iv
 creativ ity
se ek
 mom ma
 exerc ising
 light er
s m
 g aze
 Is n
 th ro
 thro at
 sp at
 wob bled
 balan cing
 breat hing
 S at
 Sat ur
 Satur day
 lo c
 loc al
 inclu de
 dream t
Tr ue
 soon er
, '
F re
Fre eze
 trip s
C hew
 l ang
 lang u
 direct ion
b ang
 kneel ed
 back s
T weet
 tw eet
 bec om
 becom ing
 tick les
 sc ul
 scul pt
 sculpt ure
 master p
 masterp ie
 masterpie ce
or ed
 fl ames
s nap
 poss ible
 us ual
 water s
 under neath
Fr og
 poss ess
 possess ion
 aw e
 des ig
 desig ning
 end s
 sa le
 in sp
 insp ired
 m ate
 mate y
 ru bb
 yell s
v room
Z ippy
 shirt s
 pant s
ra p
 keep er
N ear
 wear s
u zz
 sn ort
 c oop
Ben ny
Ex cuse
 kit es
is hes
ri angle
v al
 un ited
 pres chool
Mom ma
 beh a
 beha ved
 gl ued
 bl us
 blus hed
' ."
 ste er
 siren s
 par ked
 rust ling
 complet ely
 d et
 det ail
 floor s
 T ony
Be w
Bew are
T ony
Be hind
 terri fied
 N one
 c ous
 cous in
B essie
 Rob e
 tap s
 she lves
 rock y
 f er
 att ack
 we ight
 sit u
 situ ation
 hand led
e ater
 real izes
Qu acky
 W acky
re verse
 so bbed
 incre as
 increas ed
 tast es
 recogn izing
 speak ing
st and
 f ut
 fut ure
s hing
 mat ched
 tomato es
 hor ri
 horri ble
F ollow
 saf et
 safet y
 en em
 enem ies
 sto le
 slam med
 aunt ie
 frown s
 iron ed
 patient ly
 challen ge
 wa kes
  ouch
 Z o
 Zo e
 Lou is
 appear s
 S leep
 b ank
 r is
 ris ks
 gu est
 mel ted
J ump
 grandparent s
 S ix
 se ven
 e ight
 Liz ard
 twist ing
 rest ed
w he
 stream ing
A melia
 forgi ving
 zebra s
 good night
ct ion
 delay ed
 cl ues
 w ife
 gi ven
 tri cked
 work s
 sw ap
 down stairs
 chirp ed
 was ting
 wid ening
 res ult
 drink s
 cloud y
 r owed
P e
Pe pper
 g az
 gaz ed
 s ings
 drum s
 fan s
 respons ibil
 responsibil ity
 st acked
 pan s
L ena
 ur ges
 st er
 ster n
 squ inted
 tum mies
pp les
 sp ad
 spad es
 neighbour hood
 g le
 gle e
 G iant
B ig
R ec
 swe ating
 fool ed
 k ings
 ch at
 sid el
 sidel ines
 releas ed
itt ered
 your selves
 different ly
en ces
Ru dy
ri os
rios ity
 expl o
 coug hed
 bott les
 fin ishing
 hunt ers
 shoot ing
 paint s
f orm
P ete
 dish on
 dishon est
ist en
 t ang
 tang led
 flutter ed
 mush y
 enc ount
 cur ly
 ha ted
b u
bu ild
 swim s
 W atch
 rust y
 st ung
 fill ing
 mo ats
 recommend ation
 gre y
it ies
 scru bbing
 Help ing
 imagin ing
 far ther
St e
 neighbor hood
Sam my
 af ar
 Slow ly
 do dged
 sa n
 san k
 B ook
 Book s
 St art
 Start led
O live
 street s
 B an
 Ban an
 Banan a
 beep ed
P izza
en e
 v ines
 fl apping
 discover ies
 M ouse
 to ne
 challen ging
 ch am
 cham ber
 enthusiastic ally
ed ic
Wh iskers
 study ing
 le ver
 eng ines
 group s
 caut iously
 contain er
 shr ank
 c ot
 requ ested
S omet
Somet imes
y ou
 O ff
 pebble s
 pocket s
 wind y
 do ck
B ack
 team work
th ough
 f urt
 furt her
 d ips
 shiver s
B rrr
 his sed
ither ed
 pl ain
 K eep
M any
B l
Bl ue
 tick led
 fl ip
 fl ips
A w
 sid es
e at
 puzz led
 f ant
 fant astic
r or
 ex ha
 exha ust
 exhaust ed
 over joy
 overjoy ed
im ming
 Be hind
 Cl ub
 P retend
 hon k
 qu acked
 camp f
 campf ire
 twink ling
 warn ings
 dev ast
 devast ated
aw k
 squaw k
 bra nd
 panc akes
 destroy ing
 T ake
 The se
 dri ves
 play d
 playd ate
 cop y
 comp rom
 comprom ise
e al
 bathrob es
 top s
 ticket s
 sigh s
 shrug s
 che eks
 fire man
 bri cks
 For g
 Forg i
ven ess
 S que
 Sque aky
 respons ible
 danc er
 pour ing
 t ar
 tar get
 fet ches
 p oop
E w
 doctor s
 lemon ade
 sniff s
 con c
 part s
 over head
 lo cket
 holiday s
 forget ting
S ad
 m a
 mass ages
 Le vi
 warm er
 cor rect
 des er
 deser ve
C oco
 Fr oggy
 st um
 stum ble
 tri angles
 re ward
 sc amp
 scamp ered
 admir ing
C ra
 Tim e
 sn uck
G race
 ped all
 pedall ing
 Be ing
 fa ct
 ob l
 obl ig
 oblig e
 avo id
 ta pping
 m ug
Ab by
 bury ing
 Sm all
 ch ores
 mon sters
 ghost s
 sp ook
 spook y
 P l
 Pl anes
 so re
F iona
 F iona
 How ever
 P ig
 Pig eon
 simp ly
 coo ed
 hesit ation
 fasc in
 fascin ated
 am used
C at
 back wards
Fred dy
w hy
 flas hing
 tast iest
F riend
Friend s
 bath s
 k ill
 r in
 rin se
fre e
 snugg les
 smooth ly
 surround ed
 wor n
 blow s
 new f
 newf ound
P ut
 lead ing
 bl ush
ent ly
 open ing
 strugg led
 ru bble
 pri ck
 prick ly
 wip ing
 t am
 tam bour
H mm
O ut
 agre ement
 j ack
 jack et
 W ait
 t umbled
 y elp
 comfort ing
 st itch
 ann oy
 ins ist
 build ers
 gen eros
 generos ity
D rink
E lly
R alph
 ch in
 spring ing
R ed
 scold s
 teac hes
 drum mer
 ne ither
 Cl ock
 ignor ance
S unny
 c ent
 bulb s
 w ed
 wed ding
 B irth
 Birth day
 pl ug
R ose
 ex pected
 J ethro
 club house
J ethro
ising ly
 organ izing
 tip to
 tipto ed
 m unch
 munch ing
 avoc ad
 avocad os
 r ap
 crocodile s
 pad dle
 la v
 lav ender
 p om
p om
 ground s
 embarra ss
 beg in
 begin ning
 be ans
 quack ing
 sh all
 bow ed
 grass y
 seem s
 ap r
 apr on
 spo ken
 send ing
 differen ce
 cr ops
 gl ist
 glist ened
 c ongratul
 congratul ated
 kind ly
 me mb
 memb ers
 sing le
 re ver
 famil ies
 stri p
 his ses
 squas hes
 quiet ly
 wob ble
 thu d
 d ar
 dar ling
 sc oop
 encou raged
 att em
 knight s
 prett iest
 ex a
 exa ct
 exact ly
 circ led
 oy sters
R un
 scribb led
 sport s
 enjoy ment
 fl ight
 att end
 attend ant
 near ly
 out ing
 succeed ed
Mar ia
!' .
 f ir
 fir m
 firm ly
 re un
 whist led
 sleep s
 di ving
 out f
 outf it
 st able
 heart s
 snow s
 buck les
 neigh s
 forget s
 sm ash
 invit ations
 tr ad
 comf y
 sk unk
 peek ing
 drag ged
 bump s
 decor ation
 hands ome
al y
 bump ing
 bar s
 l end
 comple ted
 miss ion
ren ch
 ste ad
 stead y
 explore r
 fisher men
D oggy
 wip es
 square s
 b orn
 fe ver
Sw amp
 S w
 Sm oke
 potato es
 soft est
ow s
 c in
 cin nam
 cinnam on
 perform ers
 not ices
 glitter ing
 T ry
 tong ues
 spray ing
B ow
 sweet s
 pu ff
 aw are
 O ut
m ach
 cheer ing
 Sh rimp
 O f
 somet ime
 wander ing
 di ved
Un cle
  ill
 arg ued
up s
 kn ives
H oney
 ch illy
 collect ion
 d ied
 gigg ling
 mark s
 grace fully
 road s
 stri ped
 I ce
 t ested
B ang
 over come
z oom
ap t
 challen ges
 ar gu
 argu ing
 So ck
 Mat ty
 c ages
 bra kes
 resp ond
 bright ened
  Once
 mass ag
 vol ume
 K ids
 st ain
 stain s
it u
itu de
 B ally
 sour ce
st antly
 c uc
 refre shed
 v ac
 vac ation
 horn s
 fu rious
L ou
Lou ise
 wobb ly
 raccoon s
Em ily
 ed ges
 short s
 cont est
 lo sing
V room
 sp aces
 spaces hip
 sail s
 S ad
 Sad ly
 hall way
 tid ying
 mild er
 cow boy
 sell er
b ly
 Al ways
 rain s
 cour t
 flav ors
 skill s
 ser ving
 wis est
 p ouncing
 R ock
 Rock y
 whisp ers
 pat rol
Ex it
 perm itt
 permitt ed
R hys
S nap
P inky
 exp ress
 J am
 Or ange
 pay o
 payo ff
 complain ing
M op
 mem or
 memor ies
 melt ing
 cut ting
 sh or
 shor ter
 a ud
 aud ience
 cell s
 co y
 coy ote
 des ert
 p it
 The a
 v as
 vas es
Sp irit
Spirit s
 dri p
 vi br
 vibr ations
 how led
 ba cked
 we ighed
 we ig
 weig hing
sm ell
smell ing
 re ly
R ex
 ac he
 ba it
 question ed
 W oof
 F ight
 Fight ing
 surf ac
 surfac ed
 con qu
 conqu ered
 bra very
 langu age
 langu ages
 r ises
 kneel ing
 On ly
 bo bbed
 for ming
 art work
 rest ored
 d am
 dam age
 se ason
 wr itten
 P ond
 f ame
 pri zed
 stamp ed
A ct
Act ually
 ar r
 arr anged
 char ity
h i
 allow s
 tall est
 mot iv
 motiv ation
 ener get
 energet ic
 z one
 surround ing
 stom p
 discu ssed
 fa ire
 faire r
Ah oy
 shovel s
 rubb er
 tail s
 lick ing
 scar ves
 skirt s
 so cks
 phot og
 photog rap
 photograp her
 pr ops
 Sm ile
 click s
 d ip
 tru dged
 N ever
ex cuse
 o ink
 it ches
 fore head
St ar
 m un
 mun ches
 n uzz
 nuzz les
 str oke
 fin ishes
 unt angles
 T riangle
 R ect
 Rect angle
 O val
 present s
 snug ly
K ing
 comb ed
 hand ful
 ign ition
Sh ould
 hon ks
 jam s
 mon um
 monum ent
 ha lo
W he
Whe e
 ne are
 neare st
 design ed
 notebook s
 b itten
 so bbing
 h ood
 hood ed
 fer oc
 feroc ious
 grow ling
 fa ced
Ru by
 pi er
 pier ced
 need les
  Quacky
 a rom
 arom a
 k et
 ket ch
 ketch up
int erest
interest ing
 rec ipe
 balan ced
 fa iled
A lly
 repl ies
 batter ies
 sw apping
 S il
 Sil ence
U nder
Under stand
Understand ing
 qu ench
 sl udge
 per ched
 clean er
 s ilk
 d un
 dun ked
 refre shing
 ann oun
 announ ced
 th us
 j umbled
 lead er
 run ner
 ribbon s
 thre at
U se
 de fe
 defe at
 imagin at
 imaginat ive
 iron ing
 ta ck
 tack led
 lo ses
 T er
 Ter ri
 Terri fied
 scru bbed
 cle aring
Z iggy
M oby
 v ain
 any body
 sc urry
 scurry ing
 buy ing
Tr ust
 unl ike
 hesit antly
 supp orted
 shiver ed
 Sn ake
 bend ing
St and
 A melia
 cart whe
 cartwhe els
 good ness
 sack s
Z ara
 class m
 classm ate
 sc ience
 present ation
 sel f
 self less
 j igg
 jigg led
 travel s
  8
 c m
 re ason
 Thank s
 ref le
 refle ction
 imag es
 delay ing
o k
F ish
 bad ges
 foot p
 footp r
 footpr int
 footprint s
 wra ppers
 hesit ant
f riend
f un
 suggest s
 to t
 tot ally
s he
Che er
Cheer fully
 all er
 aller g
 allerg ic
 itch y
 See ing
 wa iled
 F ish
 bush y
 peaceful ness
 groc er
 grocer ies
 a is
 ais le
 P ray
 Pray ing
 thankful ness
 journey s
 bur nt
 pol ar
 wal r
 walr us
n o
 quiet er
 R eally
 s izz
 sizz led
 sque al
 heal ed
 danc es
 st ash
 An other
 s ill
 sill ier
 umbre ll
 umbrell as
 cre ak
 since re
 water ing
 cra s
 cras hes
 kay aking
 ho ver
 hover ing
 padd ling
A pples
 glee fully
U g
Ug h
 re j
 rej ected
 life less
  ome
 ome let
 omelet te
 load s
 stuff ed
 wa nna
 tw ig
 twig s
Rec ord
 hot ter
 eng ul
 engul f
 har s
 hars her
 cold er
 L ife
 shr unk
 unt ied
 aw ake
 l inked
 sy n
 syn c
 b ound
 far my
 farmy ard
 cre pt
 lesson s
 con ser
 conser v
 conserv ation
 l ittered
 env iron
 environ ment
 com m
 comm un
 commun ity
 s erv
 serv ice
 con se
 conse qu
 consequ ences
 dri ft
 incred ib
 incredib ly
 Not hing
 dri fted
 v ent
 vent ured
How ever
 cu riosity
 caut ion
 ban ged
 explo ded
 fi zzy
 tr ans
 trans form
 transform ed
c ream
 squas hed
 unf air
 L isten
 demand s
 wh iz
 arri ving
m atch
 h ike
 meadow s
  


 un able
 t ender
 tender ly
 Fr og
 encount ered
 cra cked
 B ugsy
 bo ss
 boun cing
 op e
 play m
 playm ates
 lunch box
 lunchbox es
 bro om
build ing
 disagre e
 un z
 unz ip
 ch op
 ch ats
 ignor ing
Z ip
R ain
 recommend ing
 d itch
 over f
 overf low
Qu ick
 pl at
 plat form
St ill
 poss ibil
 possibil ities
 stream ers
 mo pping
 ban ner
 cup c
 cupc akes
 fest ive
 spec t
 spect ac
 spectac ular
 guest s
 sque ez
 squeez ing
 encount er
 cudd les
Ste el
 Ste el
 wonder ing
 mon th
 month s
 sp ins
 gre et
 greet ed
 hen s
 warm th
 squaw ked
 lean ing
 blueber ry
 mess es
 purp os
 purpos es
 gather ing
 g all
 gall op
 gallop ed
 country side
S un
 S plash
 co ord
 coord ination
 spl itting
 bl ade
P ret
Pret ty
 grand ch
 grandch ild
 ch o
 cho pped
 treat ed
 bow s
th r
thr ough
 w ow
 che es
 chees y
 v it
 vit am
 vitam ins
 fi ber
 sc ene
 A round
 or ang
 orang es
 c ores
 int end
 intend ed
 sol ut
 solut ion
 know led
 knowled ge
 per se
 perse ver
 persever ance
 app r
 appr op
 approp ri
 appropri ately
 d edic
 dedic ation
 des ire
T ree
 prin ted
 cr ouch
 A cc
 Acc ident
 Accident s
 writ er
 bloom s
  1
 1 0
  9
 score s
 sw ipes
 lever s
 mum mies
 st ench
 real izing
 air pl
 airpl anes
W ake
s aur
 shrink s
 F un
 B atter
 Batter ies
 cot ton
br own
 squ at
 squat ted
 moo ed
 Sp icy
Th ree
Near by
 n apped
Surpr ised
W affle
 sc ored
 Al though
 touc hes
 sl ithered
 cat c
 catc her
 libr arian
B all
 pay ing
stri ke
 cot t
 cott age
T H
TH E
 rid er
 resist s
 Do es
 He ad
 Head s
 T ail
 Tail s
  Okay
 climb er
 S eat
 L inda
c ol
col our
colour ed
 sh own
Aw w
 p ul
 pul p
 sp atter
 spatter ed
A manda
 hor ror
 green s
 salad s
 twist s
Sw imming
 Y et
 ri pples
 gl id
 glid ing
P retend
 princess es
 read s
 gir ly
 li ed
M o
Is n
 camp ground
Rec ommend
 ant ic
 antic ip
 anticip ation
! ?",
squ awk
 po pping
 rail way
 s ly
 sly ly
 wh ipped
M ove
 r ather
 prevent ing
 T urt
 Turt le
 belt s
 G r
 Gr umpy
 spray s
 D eal
D eal
 T ag
 hero es
 bloom ing
 demand ing
 am u
 amu se
 amuse ment
 roll er
 co aster
 fer r
 ferr is
 Ch oose
H op
 twink led
Good night
 Good night
 ang r
 angr ily
M onica
J une
 Forgi ving
 Forgi veness
 th ird
 bl ast
 no ses
 apolog izes
 cand ies
 sw ip
 swip ed
 prom ises
 buy s
 yield ed
 hesit ated
 wr ink
 wrink led
Me al
 conc er
 concer ned
 bec omes
 d a
 da is
 dais ies
 b ou
 bou qu
 bouqu et
 le aking
 inclu ding
 fright ening
 g awk
C a
Ca ut
Caut iously
 unw ra
 unwra pping
 belong ings
 re build
 jump er
 must n
 eng ross
 engross ed
C atch
Ru de
 ma iled
 mach ines
Le vi
 S pid
 Spid ers
 in ch
 correct ly
L ydia
 friendship s
 l ily
 pad s
B u
Bu zzy
? '
 ha b
 hab it
 te m
 tem pt
 tempt ing
 sweet est
 mel o
 melo d
 melod ies
 des p
 desp ite
Cra zy
 C ra
 Cra zy
 E at
S oup
 smile y
 Tuesday s
 to ssed
Danger ous
 T aking
D ream
Dream s
 j er
 jer ked
 un h
 unh arm
 unharm ed
R onnie
Thank fully
 tast ing
 gigg les
 queen s
 T urn
 Turn s
 appl ause
Y ummy
 m itt
 pack ing
 h udd
 hudd led
 figure s
 child hood
St u
Stu dy
Study ing
 in vent
 invent ions
 mo an
 moan ed
 we b
 web s
 disgust ed
Fr ustrated
 C omet
 Comet s
 T ell
 Up on
 soft ened
 respon se
 arri val
 count s
b el
bel ie
belie ve
 uniform s
B ibi
 ba kes
 weigh s
 p ound
 pound s
 visit ors
 stay ing
 dessert s
 bother ed
 kind er
 ret ur
 retur ning
 screen s
 mean ing
 snap s
 F leas
 wh ine
 fill s
 trust s
 splas hes
 str o
 stro kes
c ause
U p
 cre ep
 creep y
 th ug
 thug s
 sh ak
 shak en
 sandc ast
 sandcast les
 playground s
 pass ing
 purr s
 twir ls
 meow s
 we pt
 aw oke
C ost
Cost ume
 P ar
 Par ty
 hon ked
 Pap er
 Sh ow
 clo ses
 clo sing
 Cl ose
 W ish
 unw rap
P ilot
 str oll
 stroll ed
B oom
 sil ently
 gr an
 gran ted
On ly
 d ates
St ri
Stri ke
 C atch
 entr an
 entran ced
 ch ara
 chara c
 charac ter
 character s
 pl ot
 famil i
 famili ar
 clim ax
 pr edic
 predic ted
 ac com
 accom pl
 accompl ish
 accomplish ment
 a str
 astr on
 astron a
 astrona uts
 R un
 t ink
 tink ling
 Pretend ing
 repe ating
h ot
 aw o
 awo ken
 cre aking
 cact i
 crowd s
 as se
 asse mb
 assemb led
 sa x
 sax oph
 saxoph one
 cl ar
 clar in
 clarin et
 tambour ines
 he a
 hea ven
 kne els
W ild
 W ell
Sh out
Shout s
 magn ific
 magnific ent
 pe ak
 tower ed
 f um
 fum ing
 sl opes
 g oo
 goo gly
 sh udd
 shudd ered
 jacket s
 collar s
 t ippy
to es
 she d
 G ently
 dev ice
 int r
 intr ig
 intrig ued
 table s
Th row
 yelp ed
 releas ing
 st itched
 sneak ers
 annoy ed
 insist ing
 send s
 miss es
 reply ed
 con f
 conf ident
 confident ly
 knowing ly
 small est
 pe ep
 peep ed
Mia ow
 fu zzy
 L ots
 perform ing
 thin ner
 comp ared
 matter s
B aby
R osie
rel iable
F is
Fis her
Fisher man
 N ations
 Can ad
 Canad a
 Ch ina
 Fr ance
 c ul
 cul ture
 culture s
 Le arn
 tambour ine
 b ene
 bene ath
 pant ing
 trump eter
P ass
 C ream
 dro pping
 l umpy
C l
Cl ock
 dri pped
 g e
 ge ese
 swan s
 Ste ak
G u
Gu ess
 Din ner
 E s
 Es pecially
 cent er
 garden s
 supp l
 suppl ied
 swim mer
 fox es
 sl ipping
 S ure
 e arn
 newspap ers
 comfort s
 S urpr
 Surpr isingly
 weak er
 Who ever
 d ent
 dent ing
 grandson s
 L ast
 Last ly
B A
BA N
BAN G
 P o
 Po or
 explor ation
 add ition
 sound ly
G erry
 rap ids
 cur re
 curre nt
W ant
H arry
 should ers
th row
throw ing
P urp
Purp le
L ike
 match ing
 d arl
 darl ings
 light ing
 po ster
D is
Dis play
 D ay
M anny
 burst s
 cent re
 rap id
 rapid ly
 gu ards
 surpr isingly
 ch ief
 were n
 gent len
 gentlen ess
 D og
 giant s
 clown s
O ver
 t ipping
 re eds
 gun s
 differen ces
 snug gly
 pain ful
See ing
 quarrel ed
 don key
 job s
 " '
N aughty
 play room
 accident s
f ind
s end
 el ated
 act s
 plant ing
 s ow
 sow ing
 har v
 harv est
 h ire
 work ers
 buzz ed
 s ou
 sou ven
 souven ir
 souvenir s
 cr ou
 crou ched
 lo lly
 remind s
 we e
 wee ke
 weeke nd
 weekend s
R achel
 to urn
 tourn am
 tournam ent
 tournament s
 tr oph
 troph ies
F eed
 fa il
 adv ant
 advant age
 to ss
 toss es
 spe w
 spew ed
 bother s
 un be
 unbe ara
 unbeara ble
 m ur
 mur ky
 rubb ish
 rever sing
Sh oo
 spit s
 wigg le
 chat ting
b ecause
 surrender ing
 surrender ed
 long ing
 r ake
 r aking
 min es
 mines ha
 minesha ft
 un stead
 unstead y
 pedal ed
 over com
 overcom ing
B uzz
We e
Hi ppy
 attem pt
 attempt s
 encourag ement
 A ny
 Any time
R o
Ro ar
Tr ade
 C he
 Che ese
l ost
 mean ie
 spo il
 S chool
 bus iness
 rem ark
 remark able
 capt iv
 captiv ated
 dream ily
Cra ck
 kind est
G row
 imp o
 impo ss
 imposs ible
 re so
 reso l
 resol ve
! ,â
 achie ved
 sm ir
 smir k
 scribb ling
 boo ked
 kill ed
 T w
 Tw o
 sn ar
 snar led
 forest s
 hide a
 hidea way
B ear
 rod s
 f ished
Y umi
 after all
 hon king
 ju ic
 juic iest
 head ing
 coug hing
 fet ched
 reun iting
 hat ch
 eggs hell
 Whist ling
 cl ue
S ix
r oof
' ,"
R oof
 h int
 A ir
 hard ly
 wr ist
 flo ppy
 fe ast
C ongratul
Congratul ations
 imagin able
 cra fted
 pro ven
p lease
 br u
 bru ises
 l imp
 F ri
 Fri bbit
 cro aking
 W r
 Wr igg
 Wrigg le
 F l
 Fl utter
 ant en
 anten n
 antenn as
 F i
 Fi rew
 Firew or
 Firewor ks
 feed s
 share s
 lift s
 th rill
 basket ball
 G re
 Gre edy
 how ever
 cur sed
 ri ches
 H ors
 Hors es
 ble ats
 but t
 butt s
 low ers
 quack s
 off ers
 M ove
 explo de
 set s
 nap kins
 display s
Che ers
 trad ed
 trad ing
 boun cy
 tow els
 lu sh
 prot ected
 st ink
 ple ad
 rel ig
 relig ion
 reg ard
 regard less
 K ind
 Kind ness
 appreci ated
 Y oga
 m ats
 breat hed
 seek er
 hid er
 scre ec
 screec hed
 attack ing
 d angers
L isten
 st ings
 wound s
 sweet er
 go bble
 turkey s
 pupp ies
 kitten s
 amb ition
 C u
 Cu riosity
j ust
J essie
 aeropl anes
 St op
 sn oop
 snoop ing
 secret ly
St rawber
Strawber ries
 th ie
 thie ves
 ta pped
 nur ser
 nurser y
 sc aly
 valley s
 crunch iest
 Under neath
 un ro
 unro lled
 echo es
 climb ers
 ann ounce
 soap s
T ry
f ine
 d rench
 drench ing
 win ked
 am us
 amus ing
S pe
Spe edy
 suit able
 care s
 rocket s
L ife
 bo iling
 spill ing
 sprink le
 p izz
 pizz as
 che f
 chef s
 d en
 H old
 re el
 reel ed
 F ishing
 rip s
 bl ame
 ch oices
Ste ve
Thank s
 look out
 valu ing
 en s
 ens ued
 shield ing
 sw ishing
Sh adow
 complain ed
 impro ved
 skin ny
 val ued
t urn
 sc an
 scan ner
 sc ans
 celebr ation
 use less
A lex
 sp ong
 spong e
 temp er
 temper ature
K eep
 d ial
 dial ed
 protect or
 in j
 inj u
 inju ries
 Sw amp
 R ep
 Rep eat
 hand m
 handm ade
: "
W hew
 disturb ing
 scribble s
 was her
 bottom s
 mar sh
 marsh m
 marshm all
 marshmall ows
 R ain
F ifi
 ador ed
 extra ord
 extraord inary
me ow
 b am
 bam boo
P andy
 He llo
p itched
 sh ri
 shri ek
 lo dged
 squaw king
 helpless ly
 low ered
Sp icy
 fl uff
 fluff iest
 cut est
 am ong
 t ying
 tie ing
C ows
 tid ied
 cle ared
 resist ing
 tum ble
 h uff
Ru fus
 att ent
 attent ive
 surround ings
 ser ver
 server s
 lollipop s
 bra ins
 tw itched
 tut ors
 each other
 ' '
!' '
 fin al
 visit s
 secret ive
mach ine
fa ctory
ball s
mach ines
fa ctor
factor ies
 bl ub
V ery
A dam
 ra ces
Sh rimp
Mar ch
 bright est
 M ud
 ro yal
 royal ty
 bend s
 grand f
 grandf ather
 stomach s
 S ir
 speed ing
 luck ily
L aura
 I m
 Im mediately
 pet ted
 jog g
 jogg er
 S ay
 fi ves
 sp ed
D ot
th is
 sauce p
 saucep an
 sm elt
 attach ing
 sec ure
 comple ting
 camp ers
 grate fully
 ill e
 ille g
 illeg al
 L uckily
 con fl
 confl ict
 m ound
 reinde ers
 fl own
  4
 K n
 Kn ives
 bloom ed
 sprink led
 N ob
 Nob o
 Nobo dy
 past ries
f r
fr uit
 coll ecting
!" ,
 p ec
 pec ked
 pl ank
 pump ed
 ab ack
 pro ceed
 proceed ed
 along side
 tea pot
T ea
 sh oo
 shoo ed
 T oy
 Toy s
 n a
 na iled
 pay s
 forgi veness
 sty les
 tr ous
 trous ers
 g on
 gon na
 fash ions
 war d
 ward rob
 wardrob e
 resc ued
 â 
 Tr ou
 Trou ble
â .
 who ever
 plan ning
C arl
 yelp s
B oth
 toast s
 ad apt
 adapt able
 res il
 resil ient
 go als
 o pp
 opp ort
 opport un
 opportun ities
 exper i
 experi ences
 spark les
 supp lies
 sled s
 sled ded
 good by
 goodby es
 whe ther
 r isk
 risk y
 A x
 Ax es
 bl ues
 conc ert
 sol o
 con n
 conn ect
 connect ion
 mattress es
 Mat tress
 cop ying
 avo ided
 thorn s
 la kes
 bicy c
 bicyc les
 ped d
 pedd led
 met re
 metre s
Le ave
J akes
!â ,
? !â.
 detail s
 massag ing
 neckl aces
 island s
 unfold ed
 con s
 cons id
 consid er
 a ff
 aff ect
s aw
saw s
 sh aky
 gr at
 grat itude
Ch oose
 comb s
 night s
 att itude
 po sit
 posit ive
 out look
 in stantly
 eag le
 sight s
 cuc umber
 dri pping
 draw ers
F ull
 sho pped
 bird y
 C are
 Care fully
 cra shing
Wh ich
 over whe
 overwhe l
 overwhel med
str ong
 co nd
 cond ition
 b i
 bi king
 p urch
 purch ase
 tire s
 cro aked
 satis fa
 satisfa ction
 bat hing
 sque e
 squee zy
 Sp irit
 pre f
 pref er
 guard ing
 C ar
 Car s
 L ying
 sque aking
 net work
 H ist
 Hist ory
 W ild
 t ame
 d ie
 protect ion
 remain s
 cudd ly
 scoop s
 fle sh
 spoon ful
 bl and
 n i
 ni bble
 annoy ing
 sn orted
 char ged
Z igzag
 ri pe
 temp ted
 stern ly
 beh av
 behav i
 behavi our
 present ed
 a id
 curtain s
 drive way
 over all
 overall s
 w rench
 Ro ar
 he y
 proud er
 out st
 outst ret
 outstret ched
A unt
 warm ly
 le ase
 inter r
 interr u
 interru pt
 fi ery
 ter ror
E ek
 str um
 b less
 bless ing
 pillow s
F lossy
 start led
 j ug
 arri ves
 was ted
Jo sh
 ob st
 obst ac
 obstac les
 fell ow
 M oo
 ca fe
 stor my
 protect ive
 night stand
 M aking
 By e
 ro ses
 fit s
 pl ucked
 gr ad
 grad ually
 unf ur
 unfur led
 dolph ins
D og
 sun sc
 sunsc re
 sunscre en
 crab s
 sea we
 seawe ed
 grow l
 remember ing
 fear less
 rever ber
 reverber ating
 par aly
 paraly zed
 Un fortunately


   
 fasc ination
 z in
 zin n
 zinn ia
 sl ight
 slight ly
t ree
 rust led
 unpack ing
 des per
 desper ately
 new est
 coop er
 cooper ate
 heart b
 heartb ro
 heartbro ken
 Off icer
 chirp ing
 celebr ating
 birthday s
 f rill
 frill s
 snow men
 fort s
 purr ing
f ed
 zigzag s
 g ri
 gri p
 strip s
 sh ave
 m ile
 mile s
 separ ating
 back ward
 M e
 Me an
 Mean w
 Meanw hile
 reun ited
 separ ated
 dr oop
 droop y
 w ithered
 mean ness
 res isted
 op t
 opt ions
 meal s
w atch
 d au
 dau nt
 daunt ing
 round ed
 h und
 hund red
 hundred s
 stri ct
 cowboy s
 cheap est
 prob a
 proba bly
L izzy
 flow ing
b ump
 swims uit
 B oom
 out sm
 outsm art
 amb it
 ambit ious
 d aring
 w it
 wit ness
 dec l
 decl ared
 real ising
 cur ls
 un c
 unc ur
 uncur ls
 wa dd
 wadd les
 b erry
â ,
 c ash
 cash ier
 t y
 ty pe
 pleas ant
 St ill
 scr am
 scram bled
 pers pect
 perspect ive
 attem pted
 H ippo
H ope
No d
 G reat
 melt s
D ead
 w ither
 wither s
 F ro
 Fro zen
R ob
 number ed
 gl ittered
 S er
 Ser ving
F ar
 leop ards
 b unch
D isa
Disa pp
Disapp ear
K im
 dis c
 disc ou
 discou raged
 din ing
D etermined
 D rag
 Drag on
J erry
 squ ished
 rad ishes
 sp ar
 spar ked
 spark s
 res cu
 rescu ing
M other
w h
wh at
 S ail
 Sail ors
ign or
ignor ant
 lo cks
 t iss
 tiss ue
S m
Sm ile
Che ese
 honest y
 store s
 lea ked
 thr own
 A men
 sneak s
 moo s
 snort s
 char ges
 head but
 headbut t
 pe cks
 slam s
 S alad
 leaf y
 pick y
 appro ach
 will ing
 ro am
 spin ach
 k ale
 ca bb
 cabb age
 cuc umb
 cucumb ers
 vine g
 vineg ar
 dress ing
!' "
L ucky
 hook s
T riangle
 mar ked
 cast ing
 l ower
 permit s
B unny
 terri bly
 unw ell
 d ia
 dia g
 diag n
 diagn osed
 ill ness
J ee
 unl ucky
 obser ved
 strong est
 allow ing
 br id
 brid ges
 support ing
 Wh ich
 fold ers
Tim e
 pe arl
 hug ging
 must y
H al
Hal f
Half way
 leap ed
 express ing
 e m
 em ot
 emot ions
 chew s
J udge
o asis
 hop sc
 hopsc ot
 hopscot ch
 f ist
V ictory
 pl uck
Sh ow
 sur ge
A l
Al though
A rrr
 C apt
 Capt ain
 pe els
 shall ow
D raw
 boun ces
 shr ugg
 shrugg ing
 tow ard
 sum m
 summ ert
 summert ime
 zoom s
 tight er
 law s
 k itty
 un s
 uns ure
 f id
 fid get
 fidget ing
 Sm iling
 bra ver
 Sw imming
 massag ed
 suff ered
 suffer ing
 it em
 item s
 accept s
 slow ing
 ch atter
 cr u
 cru el
 s ens
 sens ation
 pre par
 prepar ation
 perf or
 perfor man
 performan ce
 cert ain
 certain ly
 dr ool
 com mand
 command ed
 In stantly
 trail s
  Ã
 Ã ©
 Ã© cl
 Ã©cl air
 ener g
 energ ised
 d amp
 l ur
 lur king
 worry ing
 Every body
Do es
 water mel
 watermel on
 flav our
 flas hes
 boom s
 ra ind
 raind r
 raindr ops
 ball er
 baller ina
 p iled
 Al ong
 back se
 backse at
 sn ores
 sn oo
 snoo zed
 wa king
 ann ouncing
A nt
 N ice
 for ks
y es
b utter
butter f
butterf ly
 scream er
 ne cess
 necess ary
N ancy
 prep ared
 S it
 pour s
